const unsigned char model[] = {
  0x1c, 0x00, 0x00, 0x00, 0x54, 0x46, 0x4c, 0x33, 0x14, 0x00, 0x20, 0x00,
  0x1c, 0x00, 0x18, 0x00, 0x14, 0x00, 0x10, 0x00, 0x0c, 0x00, 0x00, 0x00,
  0x08, 0x00, 0x04, 0x00, 0x14, 0x00, 0x00, 0x00, 0x1c, 0x00, 0x00, 0x00,
  0x90, 0x00, 0x00, 0x00, 0xe8, 0x00, 0x00, 0x00, 0x30, 0x37, 0x00, 0x00,
  0x40, 0x37, 0x00, 0x00, 0xc0, 0x3f, 0x00, 0x00, 0x03, 0x00, 0x00, 0x00,
  0x01, 0x00, 0x00, 0x00, 0x10, 0x00, 0x00, 0x00, 0x00, 0x00, 0x0a, 0x00,
  0x10, 0x00, 0x0c, 0x00, 0x08, 0x00, 0x04, 0x00, 0x0a, 0x00, 0x00, 0x00,
  0x0c, 0x00, 0x00, 0x00, 0x1c, 0x00, 0x00, 0x00, 0x38, 0x00, 0x00, 0x00,
  0x0f, 0x00, 0x00, 0x00, 0x73, 0x65, 0x72, 0x76, 0x69, 0x6e, 0x67, 0x5f,
  0x64, 0x65, 0x66, 0x61, 0x75, 0x6c, 0x74, 0x00, 0x01, 0x00, 0x00, 0x00,
  0x04, 0x00, 0x00, 0x00, 0x98, 0xff, 0xff, 0xff, 0x0c, 0x00, 0x00, 0x00,
  0x04, 0x00, 0x00, 0x00, 0x07, 0x00, 0x00, 0x00, 0x64, 0x65, 0x6e, 0x73,
  0x65, 0x5f, 0x32, 0x00, 0x01, 0x00, 0x00, 0x00, 0x04, 0x00, 0x00, 0x00,
  0xea, 0xc7, 0xff, 0xff, 0x04, 0x00, 0x00, 0x00, 0x0b, 0x00, 0x00, 0x00,
  0x64, 0x65, 0x6e, 0x73, 0x65, 0x5f, 0x69, 0x6e, 0x70, 0x75, 0x74, 0x00,
  0x02, 0x00, 0x00, 0x00, 0x34, 0x00, 0x00, 0x00, 0x04, 0x00, 0x00, 0x00,
  0xdc, 0xff, 0xff, 0xff, 0x0f, 0x00, 0x00, 0x00, 0x04, 0x00, 0x00, 0x00,
  0x13, 0x00, 0x00, 0x00, 0x43, 0x4f, 0x4e, 0x56, 0x45, 0x52, 0x53, 0x49,
  0x4f, 0x4e, 0x5f, 0x4d, 0x45, 0x54, 0x41, 0x44, 0x41, 0x54, 0x41, 0x00,
  0x08, 0x00, 0x0c, 0x00, 0x08, 0x00, 0x04, 0x00, 0x08, 0x00, 0x00, 0x00,
  0x0e, 0x00, 0x00, 0x00, 0x04, 0x00, 0x00, 0x00, 0x13, 0x00, 0x00, 0x00,
  0x6d, 0x69, 0x6e, 0x5f, 0x72, 0x75, 0x6e, 0x74, 0x69, 0x6d, 0x65, 0x5f,
  0x76, 0x65, 0x72, 0x73, 0x69, 0x6f, 0x6e, 0x00, 0x10, 0x00, 0x00, 0x00,
  0x44, 0x36, 0x00, 0x00, 0x3c, 0x36, 0x00, 0x00, 0x18, 0x36, 0x00, 0x00,
  0x88, 0x35, 0x00, 0x00, 0x14, 0x35, 0x00, 0x00, 0x20, 0x30, 0x00, 0x00,
  0x48, 0x2f, 0x00, 0x00, 0xbc, 0x00, 0x00, 0x00, 0xb4, 0x00, 0x00, 0x00,
  0xac, 0x00, 0x00, 0x00, 0xa4, 0x00, 0x00, 0x00, 0x9c, 0x00, 0x00, 0x00,
  0x94, 0x00, 0x00, 0x00, 0x8c, 0x00, 0x00, 0x00, 0x6c, 0x00, 0x00, 0x00,
  0x04, 0x00, 0x00, 0x00, 0xa2, 0xc8, 0xff, 0xff, 0x04, 0x00, 0x00, 0x00,
  0x58, 0x00, 0x00, 0x00, 0x0c, 0x00, 0x00, 0x00, 0x08, 0x00, 0x0e, 0x00,
  0x08, 0x00, 0x04, 0x00, 0x08, 0x00, 0x00, 0x00, 0x10, 0x00, 0x00, 0x00,
  0x28, 0x00, 0x00, 0x00, 0x00, 0x00, 0x06, 0x00, 0x08, 0x00, 0x04, 0x00,
  0x06, 0x00, 0x00, 0x00, 0x04, 0x00, 0x00, 0x00, 0x01, 0x00, 0x00, 0x00,
  0xeb, 0x03, 0x00, 0x00, 0x00, 0x00, 0x0a, 0x00, 0x10, 0x00, 0x0c, 0x00,
  0x08, 0x00, 0x04, 0x00, 0x0a, 0x00, 0x00, 0x00, 0x02, 0x00, 0x00, 0x00,
  0x02, 0x00, 0x00, 0x00, 0x04, 0x00, 0x00, 0x00, 0x06, 0x00, 0x00, 0x00,
  0x32, 0x2e, 0x31, 0x32, 0x2e, 0x30, 0x00, 0x00, 0x06, 0xc9, 0xff, 0xff,
  0x04, 0x00, 0x00, 0x00, 0x10, 0x00, 0x00, 0x00, 0x31, 0x2e, 0x31, 0x34,
  0x2e, 0x30, 0x00, 0x00, 0x00, 0x00, 0x00, 0x00, 0x00, 0x00, 0x00, 0x00,
  0xe0, 0xc8, 0xff, 0xff, 0xe4, 0xc8, 0xff, 0xff, 0xe8, 0xc8, 0xff, 0xff,
  0xec, 0xc8, 0xff, 0xff, 0xf0, 0xc8, 0xff, 0xff, 0xf4, 0xc8, 0xff, 0xff,
  0x3a, 0xc9, 0xff, 0xff, 0x04, 0x00, 0x00, 0x00, 0x7c, 0x2e, 0x00, 0x00,
  0x46, 0xfa, 0x55, 0xf7, 0xd9, 0xdd, 0x24, 0xe9, 0xc5, 0xd2, 0xcc, 0xb6,
  0xda, 0xd9, 0xdc, 0xfb, 0x41, 0x14, 0xec, 0x02, 0xf9, 0xa0, 0xfe, 0xb0,
  0xc6, 0xe0, 0xec, 0xdd, 0x3e, 0xf3, 0x32, 0xbf, 0xdb, 0x4c, 0x5b, 0xe6,
  0x3f, 0xb8, 0x5c, 0x2a, 0xde, 0xc2, 0x2a, 0x06, 0xd4, 0x45, 0x12, 0x4c,
  0xc5, 0x1c, 0xc7, 0xf2, 0xfa, 0x1f, 0x43, 0x6b, 0x4a, 0x5c, 0x56, 0x23,
  0x14, 0x60, 0xc0, 0x74, 0xca, 0x06, 0x48, 0x50, 0xdc, 0xee, 0x39, 0xf7,
  0x29, 0xf3, 0xb0, 0x6c, 0x14, 0x13, 0x07, 0x02, 0xe4, 0x2b, 0x1a, 0x4a,
  0x03, 0x2e, 0x0f, 0x4e, 0xa0, 0x0d, 0x09, 0xe3, 0x1d, 0x00, 0xe1, 0x6b,
  0x2f, 0x06, 0xf5, 0x6b, 0x9e, 0xee, 0x12, 0xcc, 0xcb, 0xfe, 0xa5, 0xc6,
  0x9b, 0x26, 0x12, 0x0e, 0xf6, 0x4c, 0x9e, 0xbd, 0x19, 0xbc, 0x39, 0x37,
  0xa6, 0x12, 0xd6, 0x09, 0xba, 0x0d, 0xfe, 0xeb, 0xe8, 0xe2, 0x3c, 0xf4,
  0x44, 0xff, 0xbf, 0x48, 0x01, 0x25, 0x32, 0xde, 0x00, 0x2d, 0x48, 0xcd,
  0xb4, 0x2a, 0x45, 0xe3, 0x2f, 0xc5, 0xaf, 0xfb, 0xb1, 0xdd, 0x39, 0xcc,
  0xda, 0x28, 0xdf, 0xc6, 0xeb, 0xc9, 0xed, 0x1a, 0x43, 0xc5, 0x1c, 0xd8,
  0xb2, 0xbc, 0xde, 0x36, 0x1f, 0xd0, 0xc0, 0xf5, 0x20, 0x3c, 0x0c, 0xf9,
  0xb2, 0xf2, 0xc3, 0x41, 0x27, 0xf8, 0x00, 0x43, 0xb1, 0xb6, 0xe7, 0x11,
  0xed, 0xfd, 0x04, 0xc3, 0x29, 0x07, 0x0e, 0xe9, 0xb2, 0x41, 0xc2, 0x43,
  0xbb, 0x02, 0xd5, 0xc8, 0xf5, 0x1f, 0xfb, 0xb0, 0xf9, 0xb6, 0x39, 0xca,
  0x4a, 0xd8, 0xb6, 0xe9, 0x14, 0x06, 0x28, 0xf2, 0xd4, 0xfd, 0xde, 0xcf,
  0xb7, 0x2b, 0xe9, 0xf9, 0x21, 0xb9, 0xf0, 0xdf, 0x19, 0x0c, 0x0c, 0xf5,
  0x27, 0x41, 0xf4, 0xff, 0xf8, 0xda, 0xf7, 0x03, 0x35, 0xc7, 0x25, 0xc9,
  0x13, 0x18, 0xd7, 0x38, 0xaf, 0xbb, 0x33, 0x1d, 0xb4, 0xb1, 0x38, 0xcb,
  0xc5, 0xc3, 0xaf, 0xa8, 0xd1, 0xea, 0xdc, 0xb8, 0xf0, 0xb4, 0xca, 0xed,
  0x38, 0xf6, 0x3b, 0xef, 0xce, 0x07, 0x3b, 0x42, 0xed, 0x04, 0xc2, 0xe2,
  0xe7, 0xeb, 0x48, 0x4e, 0x26, 0xd5, 0xaf, 0xd0, 0x4b, 0x11, 0x00, 0x14,
  0x42, 0x0e, 0xd7, 0x24, 0x12, 0x10, 0x3f, 0xe3, 0x46, 0x0f, 0x00, 0xf8,
  0xd7, 0x13, 0xe3, 0xe2, 0x11, 0xff, 0x44, 0x00, 0xf8, 0xc7, 0x36, 0xec,
  0x09, 0xde, 0xce, 0x29, 0x46, 0xf6, 0x46, 0x24, 0x08, 0x3a, 0xea, 0x55,
  0x3a, 0x47, 0x4f, 0x40, 0x0d, 0x0a, 0x25, 0x28, 0xe5, 0x1d, 0xfa, 0x39,
  0x2c, 0x2e, 0x13, 0xc0, 0x4b, 0x56, 0xe2, 0x53, 0xd4, 0xde, 0x00, 0x06,
  0x17, 0xe6, 0x13, 0x52, 0xcb, 0xe4, 0x51, 0x0b, 0x53, 0x1a, 0xe4, 0x48,
  0xb8, 0x3c, 0x53, 0x1b, 0xca, 0x0f, 0x41, 0xb6, 0xe9, 0x0a, 0x01, 0x3c,
  0xc6, 0xe7, 0xed, 0xf7, 0x26, 0x49, 0xc4, 0x38, 0x4a, 0xe8, 0xc3, 0x12,
  0x50, 0x3d, 0xc7, 0xf9, 0x1d, 0xd2, 0x2f, 0x29, 0x01, 0x12, 0x1e, 0xe5,
  0xee, 0x10, 0xbc, 0xb8, 0xea, 0x2d, 0xef, 0x3e, 0x16, 0xa1, 0xd9, 0xd0,
  0xe4, 0x11, 0x06, 0xc2, 0xbf, 0xac, 0x2d, 0xd6, 0xe6, 0xb6, 0xe4, 0x13,
  0xcb, 0x25, 0x20, 0xcd, 0x47, 0x2b, 0x09, 0xa4, 0x11, 0x25, 0xf6, 0x3c,
  0x19, 0x18, 0xe0, 0x01, 0x08, 0xb9, 0xfc, 0xa4, 0x31, 0x0b, 0x06, 0x39,
  0x03, 0xd5, 0x23, 0x0d, 0xfe, 0xb4, 0x48, 0x2b, 0x10, 0xe9, 0xfb, 0x07,
  0x01, 0x15, 0x05, 0x3b, 0xaf, 0xd3, 0xb5, 0xe9, 0xe4, 0x9b, 0x05, 0xa8,
  0x02, 0xda, 0x0a, 0x2a, 0xbc, 0x37, 0xe6, 0xd4, 0x04, 0xc8, 0x12, 0xd0,
  0xca, 0xec, 0xb6, 0x02, 0x14, 0xb1, 0xd9, 0x12, 0x45, 0x03, 0xf4, 0xfa,
  0x33, 0xe1, 0xe5, 0xc2, 0x2e, 0x11, 0xcb, 0xe6, 0x20, 0xaf, 0x31, 0xcf,
  0xfa, 0xd0, 0x46, 0xc8, 0xd2, 0xcf, 0x38, 0xcd, 0x4a, 0xd3, 0x37, 0x08,
  0x0a, 0x64, 0x48, 0xef, 0xd4, 0x5e, 0xd0, 0x6e, 0x47, 0x18, 0xd4, 0x22,
  0xc4, 0x1b, 0xf9, 0x0b, 0x1c, 0xe6, 0x37, 0xd0, 0x49, 0x17, 0x1e, 0x47,
  0x42, 0x61, 0xf3, 0xeb, 0xf1, 0x63, 0x19, 0xfe, 0x0e, 0xce, 0x44, 0xd4,
  0x25, 0x1a, 0x19, 0xf3, 0xe4, 0x2c, 0x35, 0x19, 0x32, 0xdd, 0xfd, 0xc2,
  0xfe, 0x46, 0x4e, 0xbc, 0x19, 0x0c, 0xf8, 0x53, 0x1e, 0x25, 0xec, 0x39,
  0xd1, 0xd0, 0x4b, 0xfc, 0xec, 0x09, 0xd0, 0xcf, 0x44, 0x28, 0xf9, 0xb7,
  0xb7, 0xcb, 0xcf, 0x42, 0xb9, 0x52, 0x38, 0xbe, 0x11, 0x4b, 0x40, 0xe0,
  0xfb, 0x11, 0x54, 0x25, 0x18, 0xde, 0xfb, 0x31, 0x4a, 0x1d, 0x0e, 0xe2,
  0xf4, 0x2b, 0xe0, 0xb3, 0x2b, 0xb1, 0x05, 0xec, 0x1b, 0xd2, 0x10, 0xc3,
  0xcd, 0x39, 0xbf, 0xe2, 0x0d, 0xab, 0xcf, 0x10, 0x1a, 0x26, 0x07, 0x27,
  0xd5, 0xf4, 0x16, 0xc4, 0xdd, 0x0c, 0xed, 0x41, 0xf9, 0xf4, 0x36, 0x15,
  0xfa, 0xc2, 0xde, 0x49, 0x40, 0xb1, 0x49, 0xee, 0xfc, 0x2b, 0x0b, 0xda,
  0xbe, 0xc4, 0x02, 0x3b, 0xf2, 0x40, 0x46, 0x07, 0xf5, 0x22, 0x20, 0xf5,
  0xc3, 0x3d, 0xcc, 0x18, 0x4b, 0x41, 0xdf, 0x50, 0xd0, 0x34, 0x4e, 0xca,
  0xdf, 0xe0, 0x2b, 0xdb, 0x34, 0xc1, 0xb3, 0x01, 0x1f, 0x08, 0x3a, 0xe4,
  0xb0, 0xd2, 0xc1, 0xcb, 0x05, 0x4d, 0x49, 0x9e, 0xcc, 0xcc, 0x20, 0x98,
  0xe8, 0xd7, 0xe0, 0xf4, 0x0d, 0xa6, 0xf8, 0x0f, 0xb7, 0x00, 0xe3, 0xed,
  0xac, 0xf6, 0x1e, 0xc8, 0x33, 0xc8, 0x2d, 0x15, 0x11, 0x35, 0xd7, 0x40,
  0x24, 0x32, 0x0e, 0xed, 0x26, 0x10, 0xa3, 0xc6, 0x13, 0x51, 0x2d, 0xe7,
  0x99, 0x31, 0xc0, 0x17, 0xfc, 0x3c, 0x0c, 0x3f, 0xd2, 0x20, 0xec, 0xf2,
  0x29, 0xfc, 0xbf, 0xfb, 0xa7, 0xe6, 0xc8, 0x4e, 0xf2, 0x31, 0xd9, 0x1b,
  0x2b, 0x36, 0xf9, 0xfb, 0xf6, 0xd5, 0xb8, 0x4d, 0xf2, 0x04, 0x09, 0x30,
  0x16, 0xd5, 0x35, 0x1f, 0x1c, 0x4e, 0xd0, 0xc5, 0xc0, 0x0f, 0xd4, 0x1b,
  0x1a, 0xed, 0x20, 0xc2, 0xde, 0xb8, 0x1f, 0xf6, 0x3f, 0xbc, 0x3d, 0xd2,
  0x5e, 0xa8, 0x1d, 0xd8, 0xe4, 0x16, 0xe5, 0xda, 0x34, 0x10, 0x22, 0xba,
  0x2c, 0xb9, 0x09, 0xd3, 0x06, 0xc2, 0x36, 0x17, 0x04, 0xc5, 0x31, 0xb5,
  0x44, 0x25, 0x65, 0x2e, 0x0b, 0x27, 0xda, 0xcf, 0x0e, 0xf5, 0x12, 0x20,
  0x5a, 0xfe, 0x38, 0x1a, 0x33, 0x03, 0xe6, 0xcd, 0x3d, 0x25, 0x2e, 0x35,
  0xed, 0xd2, 0xf7, 0x10, 0xd0, 0x0d, 0xdb, 0x15, 0x1c, 0x40, 0x05, 0x51,
  0xc8, 0xcd, 0xcc, 0xe7, 0x18, 0x0c, 0x4e, 0x47, 0x3c, 0x55, 0xdf, 0xc2,
  0x41, 0x51, 0x01, 0x30, 0xc3, 0x0b, 0xf4, 0x56, 0x24, 0x5a, 0x48, 0xf4,
  0xf6, 0x10, 0x32, 0xe8, 0xce, 0xc9, 0xd8, 0x56, 0x08, 0x31, 0x15, 0xfb,
  0xb3, 0x5e, 0xc2, 0xd2, 0x43, 0xf1, 0xc4, 0xf8, 0xb5, 0xe7, 0xc9, 0x46,
  0xfd, 0x13, 0x30, 0xfc, 0x29, 0x30, 0xcd, 0x15, 0x39, 0x25, 0xea, 0x51,
  0x2e, 0x08, 0x28, 0x59, 0xa0, 0xd1, 0x39, 0xef, 0xdf, 0x1f, 0xcd, 0x07,
  0x2a, 0xfc, 0x08, 0xd9, 0xb9, 0x23, 0xcd, 0xcc, 0xcb, 0x31, 0xbd, 0xf8,
  0x45, 0xb6, 0xcf, 0xbf, 0xe8, 0x28, 0xe8, 0x17, 0xb4, 0xae, 0x0e, 0x17,
  0xd7, 0x15, 0xd2, 0x20, 0x1a, 0x27, 0xf0, 0xbc, 0x0b, 0xfb, 0x37, 0x1e,
  0xb4, 0x2f, 0xdd, 0xd3, 0x17, 0x30, 0x06, 0x11, 0xf2, 0x1c, 0x27, 0x24,
  0xb4, 0xdd, 0xe6, 0xd9, 0x14, 0x3b, 0xd3, 0x1f, 0xe0, 0x54, 0x27, 0xfa,
  0x34, 0xf6, 0x3e, 0x4a, 0x52, 0x48, 0x2d, 0x31, 0x3e, 0x42, 0xdb, 0x5a,
  0x29, 0x00, 0xff, 0xc7, 0x2d, 0xe5, 0xfe, 0xc7, 0xbf, 0xef, 0xdc, 0xd9,
  0x08, 0x29, 0x16, 0x53, 0x2b, 0xee, 0x38, 0x10, 0x0a, 0xee, 0xdf, 0x44,
  0xb3, 0xdd, 0xec, 0xfa, 0x0d, 0x3d, 0x52, 0x42, 0x4c, 0xee, 0xb7, 0x1d,
  0x46, 0x48, 0x09, 0x03, 0xbf, 0x1f, 0x53, 0xcf, 0xdd, 0x41, 0xc8, 0x22,
  0x18, 0x1f, 0xf0, 0xfa, 0xe4, 0xea, 0x26, 0x25, 0xba, 0xc9, 0x10, 0xc3,
  0xe5, 0xcc, 0x4e, 0x35, 0x1f, 0xf5, 0x1a, 0x40, 0x43, 0xc8, 0xbc, 0x22,
  0xe6, 0xe7, 0xb7, 0x24, 0xb6, 0xc5, 0xb6, 0xd7, 0x10, 0x36, 0xd5, 0x1f,
  0x0c, 0x0a, 0xe5, 0x05, 0xc3, 0xfa, 0x2d, 0x2a, 0xcf, 0x22, 0xb8, 0xdd,
  0x43, 0x40, 0xce, 0x03, 0x16, 0xba, 0x1f, 0x33, 0x14, 0xa9, 0x4f, 0x28,
  0x17, 0x03, 0xe1, 0xc9, 0x41, 0xfb, 0xcb, 0xcd, 0xe9, 0x37, 0x15, 0x47,
  0x26, 0xe3, 0xfe, 0xd3, 0x22, 0x15, 0xea, 0x13, 0xb9, 0x1c, 0xde, 0x31,
  0xf2, 0xff, 0x0d, 0xb6, 0xe8, 0xe3, 0x02, 0xee, 0x31, 0xfb, 0x2b, 0xde,
  0x1e, 0x3c, 0x16, 0x18, 0x3f, 0xbf, 0xbc, 0x33, 0xb5, 0x4d, 0xc7, 0xc1,
  0x2e, 0xcb, 0x44, 0x0e, 0xc0, 0xf7, 0xe8, 0x34, 0x15, 0x31, 0xcb, 0xc4,
  0x35, 0xb2, 0x04, 0x4a, 0x14, 0xc3, 0xba, 0x5b, 0xab, 0xca, 0xde, 0xe2,
  0x32, 0x24, 0x14, 0xc3, 0xdc, 0x28, 0xdd, 0x48, 0xc0, 0xed, 0xa5, 0xde,
  0xc1, 0xf6, 0xe7, 0x1f, 0x19, 0x20, 0xe6, 0xc8, 0xc4, 0xb4, 0xdd, 0x50,
  0x91, 0xd7, 0x8d, 0x52, 0x1d, 0x05, 0xab, 0xbb, 0x2c, 0xcd, 0x9f, 0x11,
  0x2c, 0x18, 0xbe, 0xcb, 0xd9, 0x46, 0xc1, 0xd4, 0xd0, 0xdc, 0xc8, 0x3d,
  0x30, 0x0c, 0x1b, 0x3d, 0xd0, 0xf5, 0xe9, 0xd6, 0xb3, 0x31, 0xa9, 0xe4,
  0xf9, 0xfc, 0x19, 0x33, 0xc3, 0xab, 0xc4, 0xc5, 0x27, 0xd1, 0x17, 0x29,
  0x2c, 0xb4, 0xd9, 0xce, 0xe9, 0x1e, 0x37, 0xe9, 0xcc, 0x16, 0xd9, 0x30,
  0x38, 0x16, 0x68, 0x1a, 0xdb, 0xe3, 0x06, 0x33, 0x45, 0xf6, 0x2c, 0x19,
  0x36, 0x28, 0x24, 0xc6, 0x3a, 0xe2, 0x6c, 0x0f, 0x03, 0xd1, 0x03, 0x20,
  0x1b, 0xb4, 0x43, 0x1a, 0xe3, 0xed, 0x14, 0xee, 0xca, 0x2e, 0xdb, 0xcb,
  0x58, 0x38, 0xcc, 0xc9, 0xf4, 0x31, 0x59, 0x16, 0x4b, 0xd6, 0x30, 0x2a,
  0x23, 0xc6, 0xca, 0xd7, 0xc6, 0xe6, 0x42, 0x1a, 0x4f, 0x3b, 0x56, 0x16,
  0x36, 0x24, 0x2e, 0x4d, 0x51, 0x33, 0xbc, 0xe0, 0x1d, 0x3a, 0x06, 0x03,
  0x52, 0x02, 0xfb, 0xc2, 0x12, 0xc6, 0x45, 0xdc, 0xf3, 0x3a, 0x35, 0x05,
  0x06, 0x13, 0xbb, 0xdb, 0xbd, 0xe4, 0xf9, 0x3e, 0x2a, 0xdc, 0x39, 0xf2,
  0xd8, 0xce, 0x41, 0x40, 0x2d, 0xec, 0xe5, 0x4f, 0xe0, 0x11, 0x53, 0xd9,
  0x26, 0x57, 0xe0, 0xc4, 0xf1, 0xf1, 0x40, 0x49, 0xc6, 0xdb, 0x20, 0xd5,
  0xd6, 0x17, 0x3a, 0xef, 0xed, 0xfb, 0x25, 0xc7, 0x35, 0xda, 0xe3, 0x4a,
  0x4d, 0x28, 0x11, 0x58, 0xe7, 0x17, 0xcc, 0x31, 0x1c, 0xe4, 0x00, 0x0e,
  0x2d, 0x1a, 0x97, 0x57, 0x92, 0x32, 0x2a, 0xd5, 0xb0, 0xe2, 0x14, 0x68,
  0xe4, 0xe4, 0xf2, 0xd1, 0xa3, 0x43, 0x9e, 0x24, 0xf1, 0x2c, 0xad, 0xf6,
  0x91, 0xf1, 0xbe, 0xdb, 0xc2, 0xcc, 0x0b, 0xef, 0x1d, 0x24, 0xab, 0x0e,
  0xb9, 0xbd, 0xbe, 0x0e, 0x1e, 0xb3, 0xee, 0x45, 0xd1, 0xf5, 0xa4, 0x3c,
  0x87, 0xbe, 0x21, 0x21, 0xca, 0x3b, 0x12, 0xe0, 0xa7, 0xc0, 0xcc, 0x0c,
  0xa5, 0xab, 0xe1, 0x2b, 0xbe, 0x12, 0xf1, 0x25, 0xef, 0xab, 0x33, 0x11,
  0x33, 0x05, 0xc2, 0xac, 0xc5, 0xe8, 0xfe, 0xf3, 0xc9, 0x9f, 0xda, 0xf8,
  0xe1, 0x1b, 0x0c, 0xe6, 0xf4, 0x1a, 0x3d, 0xbe, 0x44, 0xe1, 0x3b, 0xb8,
  0x0a, 0x3b, 0xe0, 0xe9, 0x06, 0x1b, 0xe3, 0xc0, 0x4e, 0x1f, 0xdd, 0x48,
  0x37, 0x4d, 0x60, 0x3d, 0x24, 0x28, 0x29, 0x16, 0x3d, 0x2b, 0x26, 0xcc,
  0x50, 0xc0, 0x15, 0xbd, 0xbe, 0xf0, 0xde, 0xc9, 0x32, 0xcb, 0x57, 0x0e,
  0x40, 0x41, 0x33, 0x59, 0xbd, 0xc9, 0x55, 0xc0, 0xf0, 0xca, 0x09, 0xf4,
  0x3d, 0x4f, 0xde, 0x3e, 0xcc, 0x2b, 0x33, 0x06, 0xd0, 0x50, 0xc3, 0x31,
  0xee, 0x52, 0xd0, 0xba, 0x1c, 0xfe, 0x04, 0x3d, 0xf2, 0xf5, 0x3c, 0xdd,
  0xec, 0xf2, 0x0a, 0x19, 0x39, 0xda, 0xfd, 0xbf, 0x1c, 0xc4, 0x2e, 0xe8,
  0xd0, 0x24, 0x2b, 0xba, 0x52, 0xbf, 0x25, 0xbc, 0xea, 0x1e, 0xca, 0x40,
  0xd0, 0x40, 0x2d, 0xbc, 0xbc, 0x3e, 0x52, 0xd4, 0x0f, 0x2a, 0x51, 0xc8,
  0xc6, 0xdb, 0xe9, 0x4b, 0x1c, 0xdb, 0x25, 0x04, 0x4b, 0x12, 0x56, 0x0e,
  0x3b, 0x2d, 0xef, 0xf2, 0xdc, 0xc3, 0x5c, 0xdc, 0xd6, 0xf6, 0x34, 0x4c,
  0x24, 0xe7, 0x15, 0x25, 0x02, 0xee, 0x12, 0x45, 0xfb, 0xcc, 0xd3, 0xb3,
  0xf2, 0xa7, 0xef, 0x90, 0x47, 0xe2, 0xcb, 0x9e, 0xb4, 0x19, 0xd2, 0x8b,
  0x3c, 0xc7, 0x1c, 0x0f, 0x06, 0xdd, 0x16, 0xf3, 0x2b, 0xf7, 0xd4, 0xed,
  0x12, 0x05, 0x13, 0xf0, 0xd6, 0xe1, 0xa8, 0x44, 0xb4, 0xff, 0x37, 0xe0,
  0x03, 0x3c, 0xc8, 0x15, 0xa3, 0x0b, 0xa3, 0x26, 0xac, 0x52, 0x3d, 0x52,
  0xc7, 0x5d, 0xf9, 0x2b, 0xdd, 0x53, 0x31, 0x2e, 0x2e, 0x3d, 0xa9, 0x7f,
  0x0f, 0xed, 0xeb, 0x57, 0x3d, 0x41, 0x3c, 0xf5, 0xfb, 0xe1, 0xcb, 0x57,
  0x4d, 0xd8, 0x40, 0x6e, 0x18, 0x58, 0x00, 0x47, 0xf5, 0xe3, 0x03, 0xec,
  0xf8, 0x53, 0x32, 0xdc, 0xe0, 0xe8, 0xf4, 0x46, 0x2e, 0xf6, 0x26, 0x13,
  0xd9, 0x3c, 0xf9, 0xd8, 0x21, 0xe4, 0x3e, 0xbb, 0xfd, 0xf6, 0xe6, 0x4a,
  0x5f, 0x01, 0x58, 0xe4, 0x33, 0xdf, 0x25, 0xfe, 0x63, 0xcc, 0x08, 0xff,
  0x45, 0x1f, 0xc7, 0xb2, 0xea, 0xc0, 0xd9, 0x1b, 0xca, 0x29, 0x47, 0xc3,
  0x17, 0x21, 0x04, 0xb7, 0xc7, 0xd5, 0x20, 0xf2, 0xcb, 0x13, 0x11, 0xe6,
  0x0d, 0xea, 0x43, 0xe6, 0xda, 0xe6, 0xdf, 0x32, 0x1b, 0x46, 0xd8, 0x10,
  0xca, 0xde, 0xfc, 0xed, 0x39, 0xef, 0x29, 0xed, 0xc9, 0x33, 0x38, 0x39,
  0xd4, 0xf6, 0x3d, 0x4b, 0x51, 0x1b, 0x1b, 0x22, 0x20, 0x30, 0xb9, 0x0a,
  0x36, 0xc3, 0x3e, 0xfd, 0x1f, 0x4f, 0xf2, 0x2a, 0xc2, 0xdf, 0x3e, 0xd6,
  0xb3, 0xe1, 0x29, 0x23, 0x12, 0xd3, 0x0e, 0x02, 0x16, 0x07, 0xe7, 0xc6,
  0x13, 0xe8, 0x19, 0x21, 0xf3, 0xef, 0x07, 0x60, 0xbd, 0xf2, 0x15, 0x4a,
  0xf6, 0x56, 0xa7, 0x31, 0x0f, 0x28, 0xca, 0xc5, 0xd4, 0xe9, 0x07, 0x55,
  0x15, 0x53, 0x0f, 0x4f, 0x23, 0x0e, 0xf9, 0x45, 0x0c, 0x91, 0x46, 0x15,
  0xfa, 0x04, 0x2f, 0x9c, 0x05, 0x0b, 0x22, 0x01, 0xdc, 0xb5, 0x37, 0x10,
  0x1c, 0xee, 0x1a, 0x1a, 0xde, 0x1d, 0x37, 0xdc, 0xef, 0xe0, 0x2a, 0xd2,
  0xfc, 0x07, 0x27, 0x39, 0xf0, 0x0e, 0xb7, 0x18, 0xfa, 0x37, 0x05, 0xea,
  0x00, 0x59, 0x41, 0x0e, 0x18, 0x4b, 0xb3, 0x50, 0xcf, 0x37, 0xe6, 0x56,
  0x06, 0x2c, 0xf9, 0xfc, 0x24, 0x5c, 0x1c, 0xe8, 0xd6, 0x09, 0x3e, 0x1e,
  0xfe, 0x13, 0xe3, 0xfe, 0xea, 0xd7, 0x1d, 0x68, 0x0c, 0x06, 0x3d, 0x2b,
  0x2c, 0x29, 0x41, 0x68, 0xed, 0x64, 0x29, 0xdc, 0x13, 0x37, 0xc7, 0x0e,
  0xfe, 0x28, 0xe2, 0x5a, 0x02, 0x1e, 0x16, 0xed, 0x25, 0xcf, 0x44, 0x0a,
  0x4a, 0xf7, 0xe4, 0x21, 0xf3, 0x2d, 0xc4, 0xea, 0x4a, 0x23, 0x29, 0xc8,
  0x53, 0xcb, 0x37, 0xd1, 0xdc, 0xd8, 0x26, 0x01, 0x37, 0xdf, 0x09, 0x22,
  0x3c, 0xc4, 0xc5, 0xd5, 0x11, 0x51, 0x08, 0xec, 0xf4, 0x0e, 0x2e, 0x50,
  0xdd, 0xd1, 0xe6, 0x36, 0xf1, 0x1f, 0x60, 0xc8, 0x3c, 0xf4, 0xfd, 0x39,
  0x59, 0x47, 0x12, 0x09, 0x10, 0xcc, 0xca, 0x2b, 0x07, 0x28, 0xf4, 0xd8,
  0x16, 0xef, 0xcc, 0x56, 0x32, 0xd0, 0x37, 0xd3, 0x3c, 0x27, 0xdd, 0xde,
  0xf3, 0x0e, 0xd5, 0x57, 0xd7, 0x23, 0x37, 0x4a, 0xea, 0xf2, 0xe6, 0xbe,
  0xbc, 0x2f, 0xd4, 0x20, 0xcc, 0xbd, 0x48, 0x20, 0x2e, 0xf0, 0x10, 0x2c,
  0x2b, 0x32, 0x55, 0x4f, 0x1d, 0x2b, 0xe1, 0xfd, 0xb9, 0xe1, 0xd4, 0xe8,
  0xbc, 0x2e, 0xc3, 0x1b, 0xfc, 0xf4, 0xbf, 0x39, 0xab, 0xbc, 0x4a, 0x3f,
  0x06, 0x2d, 0xcf, 0xd5, 0xbe, 0x0c, 0xa7, 0xbb, 0xe2, 0xed, 0x19, 0x02,
  0xc6, 0x1c, 0x08, 0xd6, 0xb6, 0xc5, 0x01, 0xd2, 0xe5, 0x54, 0x22, 0x31,
  0xe5, 0xee, 0x08, 0x59, 0x38, 0x17, 0xb8, 0xdb, 0x3d, 0x62, 0xeb, 0xc7,
  0xb1, 0x4a, 0xda, 0x0a, 0xda, 0x53, 0x1c, 0xcf, 0x35, 0x0d, 0xab, 0xe9,
  0x38, 0x36, 0x00, 0xc1, 0xb1, 0x05, 0xce, 0x1e, 0x0f, 0xf5, 0xbb, 0x36,
  0x11, 0xdb, 0xba, 0xde, 0xd8, 0xd5, 0xd7, 0xa1, 0xeb, 0xc4, 0x2a, 0x20,
  0x05, 0xe3, 0x2c, 0xce, 0x34, 0xab, 0x07, 0xbe, 0x17, 0x30, 0x08, 0xaa,
  0x9d, 0x9c, 0xf5, 0x1d, 0x9d, 0x06, 0xd7, 0x16, 0x1f, 0xba, 0x29, 0xb6,
  0x2d, 0x2c, 0x30, 0x07, 0xbf, 0x01, 0xc9, 0x3b, 0xbd, 0x0b, 0x43, 0x4c,
  0x36, 0xb0, 0x06, 0xb7, 0xdf, 0x2c, 0xab, 0x3e, 0xfd, 0x17, 0x40, 0xfd,
  0x14, 0x09, 0x18, 0x3c, 0x35, 0xf7, 0x45, 0x1a, 0xb6, 0x5b, 0xf1, 0x30,
  0xce, 0xcb, 0x1c, 0x2a, 0xfd, 0x27, 0xd5, 0xcc, 0xe3, 0x34, 0x53, 0x20,
  0xeb, 0xfe, 0x05, 0x11, 0xcf, 0xb6, 0x47, 0xf1, 0xdd, 0x16, 0xfc, 0xe5,
  0x4a, 0xfb, 0x45, 0xc1, 0xbd, 0x46, 0xc1, 0xc0, 0x14, 0x40, 0x40, 0xda,
  0xe0, 0xeb, 0x18, 0xce, 0x31, 0x01, 0xec, 0x16, 0x14, 0x15, 0xf9, 0x32,
  0xd2, 0xfc, 0xdb, 0xf6, 0x48, 0x02, 0x3a, 0x09, 0x15, 0x33, 0xf9, 0xf0,
  0xcd, 0xa7, 0xe1, 0x19, 0xd6, 0xde, 0x1e, 0x32, 0xe8, 0xf9, 0xf4, 0xac,
  0x34, 0xed, 0x2f, 0x0f, 0x3c, 0xb3, 0x3f, 0xc2, 0x09, 0x30, 0xb6, 0x24,
  0xee, 0xd8, 0xd4, 0xb4, 0xbd, 0x0c, 0x03, 0xfe, 0x11, 0x24, 0xe3, 0x14,
  0x41, 0x1a, 0x05, 0xf3, 0x24, 0x07, 0xf5, 0x12, 0x0d, 0xde, 0x43, 0xcf,
  0x25, 0x3a, 0xba, 0x3f, 0x4f, 0xd5, 0x03, 0x25, 0xcc, 0xf9, 0xec, 0xbb,
  0xee, 0xd7, 0x39, 0x04, 0xad, 0x58, 0xc0, 0x38, 0xf7, 0x04, 0x07, 0x16,
  0x28, 0x65, 0xd3, 0x0c, 0xc8, 0x54, 0xf8, 0xff, 0xe3, 0x27, 0xdb, 0x61,
  0x25, 0x13, 0xb8, 0x23, 0x43, 0x45, 0xbf, 0x17, 0x1b, 0xf5, 0x41, 0xec,
  0x34, 0x2a, 0x03, 0xc4, 0xbc, 0xea, 0xc3, 0x2a, 0x27, 0x1d, 0xb5, 0xf3,
  0xa6, 0xd6, 0xaa, 0xd0, 0xe4, 0xe2, 0xd5, 0xf9, 0x1c, 0xd3, 0xac, 0x1b,
  0xaf, 0x1c, 0x38, 0xe1, 0xe3, 0xa4, 0xc0, 0xe1, 0x19, 0x10, 0xbb, 0xd9,
  0x44, 0xf3, 0x48, 0x01, 0x04, 0xb3, 0xe0, 0xd4, 0xf3, 0x2a, 0xb0, 0x39,
  0x4d, 0xc4, 0x2f, 0xae, 0xdb, 0xed, 0x18, 0x22, 0xe3, 0xb1, 0x20, 0x47,
  0xd4, 0xf2, 0xe3, 0xd0, 0xeb, 0xdd, 0xfd, 0x15, 0x3c, 0x38, 0x46, 0xfd,
  0xe3, 0xe7, 0x17, 0xed, 0xb9, 0x0f, 0x3c, 0xf6, 0xb7, 0xd7, 0x1a, 0x14,
  0xfe, 0x3d, 0xf3, 0x35, 0xe7, 0x38, 0xca, 0xfa, 0xfc, 0xfe, 0x51, 0x2c,
  0xf5, 0x4d, 0x31, 0x2b, 0x10, 0xc2, 0x0f, 0x0f, 0x3d, 0x18, 0x01, 0xe0,
  0xbb, 0xb4, 0x24, 0xbe, 0x41, 0xfa, 0x20, 0xc9, 0xf4, 0xdd, 0x0f, 0x3e,
  0x43, 0xf3, 0x0c, 0xf1, 0xb6, 0xe5, 0xcb, 0x31, 0xeb, 0xf8, 0x19, 0xcf,
  0x07, 0x08, 0xdc, 0x04, 0x3f, 0x2e, 0xc3, 0xa6, 0xfb, 0x3e, 0xdc, 0x0f,
  0x49, 0xd3, 0x1e, 0xc4, 0x40, 0x29, 0xb0, 0x34, 0xbb, 0x19, 0xea, 0xe7,
  0x3e, 0xd2, 0xb1, 0x3a, 0xd5, 0x4f, 0xb9, 0x1c, 0xe6, 0x3c, 0x48, 0xda,
  0xdb, 0x28, 0xe7, 0xf0, 0x04, 0xd5, 0xeb, 0xb1, 0x4f, 0xef, 0xd7, 0x2f,
  0xd5, 0x31, 0x19, 0xf0, 0xe1, 0xb5, 0x1d, 0x07, 0xd3, 0x12, 0x1d, 0x32,
  0xce, 0x1e, 0x2d, 0x0c, 0x29, 0xfd, 0x25, 0xfd, 0xec, 0x58, 0x36, 0x07,
  0x1a, 0x49, 0x02, 0x50, 0x27, 0x27, 0xc7, 0x10, 0x5e, 0x4a, 0x52, 0xdb,
  0x38, 0xdb, 0xc1, 0x1b, 0x33, 0x5b, 0x3d, 0x1e, 0x4f, 0x62, 0xd8, 0x26,
  0x28, 0x20, 0x3d, 0xc8, 0x00, 0x1d, 0x1b, 0xf8, 0x17, 0x36, 0x11, 0x08,
  0xee, 0xac, 0x20, 0xa8, 0xf6, 0x28, 0x54, 0xf9, 0xec, 0xbe, 0xc7, 0x2a,
  0x2c, 0xd8, 0x20, 0x9d, 0x3e, 0x19, 0x5c, 0xcc, 0x3a, 0x12, 0xd3, 0x9b,
  0x2d, 0xa9, 0xd6, 0x1f, 0x31, 0xec, 0x47, 0xd5, 0xfa, 0xbf, 0x31, 0xbf,
  0x1c, 0x1f, 0xed, 0x0e, 0x36, 0xf8, 0x51, 0xa4, 0xf0, 0xec, 0x0d, 0xf1,
  0xdc, 0xa5, 0x11, 0x1d, 0xfc, 0x1a, 0x3d, 0xde, 0xcc, 0x2e, 0xa9, 0xe8,
  0xa7, 0x3d, 0x3f, 0x05, 0x42, 0x05, 0xc8, 0xf6, 0xd1, 0x26, 0xfb, 0x35,
  0xd7, 0xf5, 0x04, 0xd9, 0x0c, 0x2e, 0xca, 0x50, 0x38, 0xe3, 0xf8, 0xbc,
  0xff, 0xf8, 0xca, 0xff, 0x21, 0x47, 0xe3, 0x0e, 0x17, 0x38, 0xc1, 0xd4,
  0x36, 0xb6, 0x32, 0xf8, 0xb6, 0x06, 0x1f, 0x35, 0xed, 0x28, 0xdb, 0xb1,
  0x2f, 0x49, 0x36, 0x31, 0x16, 0x3d, 0x01, 0xc0, 0xe7, 0x01, 0x07, 0xe5,
  0xc0, 0x36, 0xe2, 0xf7, 0x39, 0x32, 0x10, 0xf3, 0xe0, 0xdd, 0xe2, 0xcc,
  0xbd, 0x13, 0x2a, 0x21, 0x13, 0x3d, 0xb6, 0x07, 0xc0, 0x1a, 0xda, 0x09,
  0xf0, 0xae, 0xea, 0xee, 0x22, 0x11, 0x32, 0x10, 0x15, 0xcd, 0x29, 0xfa,
  0x1c, 0xc3, 0x1b, 0xdc, 0x44, 0x11, 0xcc, 0xeb, 0x00, 0x04, 0x0e, 0x2c,
  0x48, 0xda, 0xfb, 0x24, 0xe7, 0xe1, 0x07, 0x11, 0x05, 0xda, 0xd0, 0xf9,
  0x3e, 0x1b, 0xf2, 0x28, 0x24, 0x18, 0xd5, 0xf3, 0x14, 0xa6, 0xb0, 0xb6,
  0x29, 0x1b, 0x07, 0x31, 0x39, 0xb9, 0xc9, 0xc4, 0xf1, 0xdb, 0xcf, 0x31,
  0x52, 0x07, 0x02, 0xd7, 0xc0, 0x52, 0x36, 0x37, 0xd5, 0xdb, 0x2c, 0xcf,
  0xdf, 0xf9, 0xca, 0x2b, 0xec, 0xff, 0xe2, 0xde, 0x07, 0x1f, 0x2c, 0x26,
  0x03, 0x56, 0x22, 0x09, 0xef, 0x4b, 0xd5, 0x04, 0xd6, 0xbe, 0xd3, 0xec,
  0x30, 0xf4, 0xfa, 0xf0, 0x2f, 0x1a, 0xd5, 0x01, 0xfa, 0xd6, 0x4f, 0xcd,
  0xe7, 0x38, 0xda, 0x30, 0x2e, 0xfe, 0x23, 0xd3, 0x05, 0x4f, 0x57, 0x46,
  0x3f, 0xd2, 0xd3, 0x28, 0x28, 0xb6, 0xc0, 0xc7, 0x27, 0xe1, 0xfd, 0x48,
  0x49, 0x15, 0xdd, 0xf3, 0x30, 0xc2, 0x21, 0x2c, 0x0c, 0x36, 0x1c, 0xbd,
  0x4a, 0xc2, 0xde, 0xd8, 0xed, 0x0e, 0xc1, 0x2f, 0xc9, 0x28, 0xd5, 0x31,
  0x35, 0x05, 0x1b, 0x2f, 0x45, 0x18, 0x0a, 0xcb, 0x3d, 0x3a, 0xca, 0xc3,
  0x1a, 0x1f, 0x4e, 0xf5, 0x2e, 0x19, 0xeb, 0xfc, 0x0b, 0xec, 0xaf, 0xbe,
  0x0b, 0x3a, 0x26, 0xb2, 0xc8, 0x2f, 0xd7, 0xba, 0xb0, 0xd1, 0xcb, 0xbb,
  0x00, 0xc5, 0x1f, 0xc2, 0xc2, 0xd3, 0xa8, 0x29, 0x2a, 0x15, 0xda, 0x26,
  0x00, 0xb4, 0xc2, 0x11, 0xae, 0xb9, 0xa6, 0xd4, 0xda, 0x0c, 0xb5, 0xe2,
  0x1a, 0x08, 0xcd, 0xd8, 0x02, 0x03, 0xfe, 0x09, 0x3b, 0xb9, 0xb1, 0x17,
  0x01, 0x39, 0xaf, 0x54, 0x23, 0x3b, 0x2f, 0xd4, 0xe1, 0x0d, 0x11, 0x21,
  0x47, 0x17, 0xdc, 0x1a, 0xce, 0xd5, 0xcf, 0x49, 0x2b, 0x1c, 0xca, 0xb7,
  0xcc, 0x4a, 0x25, 0xfc, 0xb8, 0x24, 0x2a, 0xe5, 0x04, 0xbf, 0xc2, 0x48,
  0xcc, 0xeb, 0xfd, 0x22, 0x26, 0xf3, 0x43, 0xbc, 0xcc, 0xc7, 0x45, 0x0f,
  0x4f, 0x0d, 0x13, 0x31, 0x16, 0x39, 0x4c, 0xc8, 0xec, 0xca, 0xbc, 0x56,
  0x26, 0xe4, 0x47, 0xee, 0xc2, 0x0e, 0x55, 0xf3, 0xe3, 0xcc, 0x00, 0x3b,
  0x44, 0x54, 0x31, 0x19, 0x0e, 0xed, 0xc0, 0xca, 0x2c, 0x60, 0x53, 0xe0,
  0xc3, 0x39, 0xca, 0x5a, 0xd0, 0x4c, 0x19, 0xc8, 0xe3, 0x3e, 0xfb, 0x3c,
  0xca, 0x20, 0x2b, 0x0c, 0x61, 0x2e, 0xd8, 0x44, 0xf0, 0xf8, 0x47, 0xf8,
  0xfc, 0xb0, 0x5c, 0x1e, 0xd9, 0x22, 0xd6, 0xe4, 0xf1, 0xf7, 0x05, 0xec,
  0xdc, 0xd1, 0x56, 0xc7, 0xd5, 0x01, 0x19, 0xff, 0x5f, 0x0b, 0x32, 0x1a,
  0x41, 0xbd, 0x49, 0x37, 0xea, 0xb3, 0x57, 0x00, 0x28, 0xbf, 0xf0, 0xd6,
  0xc3, 0x05, 0x40, 0x45, 0x24, 0x3a, 0x52, 0x18, 0x25, 0xc3, 0x46, 0x2a,
  0xec, 0xf6, 0xf8, 0x04, 0xd0, 0xe0, 0x16, 0xdc, 0x3e, 0x5d, 0xbd, 0x10,
  0x1e, 0x29, 0x28, 0x60, 0xc8, 0xc6, 0xc0, 0x25, 0x9f, 0x13, 0xd0, 0xee,
  0x3e, 0xfd, 0xdb, 0x4e, 0x01, 0x59, 0x15, 0xf7, 0xa1, 0x12, 0xac, 0x5e,
  0xdb, 0x28, 0xd9, 0xf1, 0xaf, 0x2f, 0xf3, 0xff, 0xfd, 0x39, 0x0a, 0xdf,
  0xf9, 0xeb, 0x2d, 0x28, 0x13, 0xe6, 0x01, 0xf0, 0xa0, 0xba, 0xaa, 0x0f,
  0xe0, 0x1a, 0xf0, 0x19, 0x02, 0x45, 0x32, 0xe7, 0x3e, 0x3c, 0x2d, 0xcd,
  0xc8, 0xd9, 0xd4, 0xdd, 0x0f, 0xc1, 0x2d, 0xad, 0x11, 0xba, 0xd2, 0xac,
  0xd9, 0x38, 0xdf, 0x19, 0xe5, 0xd6, 0xe1, 0x0c, 0xcd, 0xc0, 0x38, 0xab,
  0x4c, 0x46, 0xe3, 0xf1, 0x4f, 0xc9, 0x0a, 0x43, 0xff, 0x0e, 0xba, 0xfc,
  0xbf, 0xb6, 0xec, 0xab, 0x41, 0x3e, 0x23, 0x13, 0xdb, 0x15, 0x44, 0xf1,
  0xc5, 0xf5, 0xdb, 0xad, 0x29, 0x13, 0x0e, 0x3c, 0xf9, 0x1c, 0xeb, 0xdb,
  0x3b, 0x47, 0x1d, 0x17, 0x09, 0x1d, 0xe7, 0xaa, 0x4d, 0xc9, 0xea, 0x3a,
  0x10, 0x30, 0xfd, 0xe4, 0x31, 0x2e, 0x24, 0xe0, 0xfe, 0xb6, 0xf8, 0x24,
  0xcc, 0x8c, 0x2b, 0xa6, 0x03, 0x96, 0xef, 0xd9, 0x02, 0x92, 0x13, 0xf7,
  0xc4, 0xc8, 0x28, 0xd6, 0xee, 0xfd, 0xab, 0x1a, 0xfc, 0x18, 0x10, 0xeb,
  0xfa, 0xdc, 0xb6, 0x21, 0xcb, 0xf7, 0xc6, 0xde, 0xb9, 0xd9, 0xa9, 0xbc,
  0xe0, 0x0e, 0xc8, 0xfd, 0xf8, 0xc5, 0xb4, 0xf0, 0xaf, 0x21, 0x26, 0xd8,
  0xaa, 0xc9, 0xef, 0xcc, 0xc6, 0x57, 0x16, 0xe8, 0x03, 0xdb, 0x46, 0x20,
  0x27, 0xea, 0x1c, 0xe5, 0x29, 0xc8, 0x04, 0xfc, 0xfb, 0x31, 0x1d, 0x4f,
  0xe0, 0xd7, 0xe4, 0xf7, 0x14, 0xdc, 0xdb, 0xe7, 0x6f, 0xc1, 0x3a, 0xbf,
  0xfb, 0x0c, 0x2e, 0x33, 0xed, 0x0b, 0x63, 0xfe, 0x06, 0x14, 0x40, 0xe8,
  0x2b, 0xc0, 0x48, 0x08, 0xec, 0xde, 0x48, 0x20, 0x52, 0x99, 0x3a, 0xc5,
  0x00, 0xe4, 0x3b, 0xea, 0x1a, 0x0a, 0x3a, 0xf6, 0x1d, 0x24, 0xd3, 0x1c,
  0x68, 0xd4, 0x62, 0x0f, 0x5f, 0x11, 0x09, 0xb9, 0x4a, 0xd0, 0x3b, 0x12,
  0x0f, 0x18, 0xf1, 0x14, 0xd4, 0x0b, 0x21, 0xd2, 0x0a, 0xcd, 0x4f, 0x48,
  0x15, 0x40, 0xd1, 0x56, 0x1e, 0xc3, 0x0e, 0xe9, 0x1b, 0x1f, 0x0d, 0xc3,
  0xbb, 0xde, 0x28, 0x11, 0x3e, 0xe9, 0x43, 0x4a, 0xc6, 0xfb, 0x19, 0x1e,
  0x29, 0xdd, 0xdf, 0xfe, 0x03, 0xdc, 0x34, 0xe6, 0xdc, 0xe7, 0xdd, 0xe5,
  0x03, 0x63, 0xe4, 0x35, 0xc7, 0xe8, 0xae, 0x48, 0xec, 0xed, 0xdd, 0x4d,
  0x44, 0x28, 0xe4, 0x0e, 0x4a, 0xff, 0xb4, 0x65, 0xc7, 0x4c, 0xe8, 0x25,
  0xe1, 0xdf, 0x04, 0x63, 0xf8, 0xd5, 0xf5, 0x4e, 0xe4, 0x62, 0xe6, 0x2d,
  0xd6, 0xc9, 0x45, 0x5f, 0xe4, 0xd1, 0xc5, 0x18, 0x26, 0x2d, 0x15, 0x30,
  0xcd, 0x04, 0xd6, 0x61, 0x3c, 0x08, 0x12, 0x46, 0xca, 0xcd, 0xae, 0x1b,
  0x32, 0x54, 0x18, 0x27, 0x27, 0x0a, 0xbf, 0xdb, 0x0f, 0x1a, 0x02, 0x0f,
  0xa0, 0xe2, 0xef, 0xe9, 0xce, 0x06, 0xfe, 0x16, 0x1e, 0xe8, 0x11, 0xf3,
  0x04, 0xf2, 0x1e, 0x44, 0x23, 0xf5, 0xf0, 0xb2, 0xdf, 0xb1, 0xa3, 0xdb,
  0xbe, 0x30, 0xfa, 0x0a, 0xe6, 0xea, 0xd9, 0xd8, 0x9e, 0x0c, 0x23, 0xe0,
  0x16, 0xfb, 0xbc, 0xf6, 0x0a, 0xc6, 0xe1, 0x1f, 0xe9, 0xea, 0x02, 0xb3,
  0x30, 0x06, 0xa5, 0x07, 0xd8, 0xf0, 0xc3, 0x1c, 0xe2, 0xd1, 0x43, 0x0c,
  0x10, 0xd4, 0x04, 0xd2, 0x0e, 0x14, 0xc1, 0xbb, 0x1f, 0x3a, 0xac, 0xea,
  0xfc, 0x19, 0xf8, 0x3d, 0xfd, 0xce, 0x3f, 0xec, 0x0e, 0x13, 0xe6, 0xf7,
  0xb4, 0x23, 0xcf, 0x33, 0xeb, 0xfa, 0xfd, 0x50, 0xe4, 0x38, 0xbb, 0x07,
  0xce, 0x3b, 0x2a, 0x28, 0x23, 0x4d, 0xcf, 0x35, 0xeb, 0xcb, 0xfd, 0x3e,
  0xfb, 0x44, 0x4d, 0x2e, 0xbd, 0xc9, 0x13, 0x1c, 0xf2, 0xfd, 0x3b, 0x5e,
  0x0a, 0xda, 0xd8, 0xfd, 0xd7, 0xf2, 0xf3, 0xcd, 0xdb, 0xbf, 0xf4, 0x1a,
  0xdd, 0x13, 0xae, 0x45, 0x4c, 0xed, 0xdc, 0xfd, 0x24, 0x03, 0x0b, 0xf5,
  0x1f, 0x1e, 0x4e, 0xf0, 0xfb, 0x4c, 0x18, 0x04, 0xeb, 0x1b, 0xe1, 0x16,
  0x20, 0xe1, 0x30, 0xe5, 0xfd, 0xc1, 0xe4, 0xbb, 0x0e, 0xab, 0x53, 0x3f,
  0x58, 0xda, 0x12, 0x18, 0x5a, 0x01, 0x08, 0xe5, 0x3f, 0xaf, 0x52, 0x00,
  0xd4, 0xf4, 0xe3, 0xdc, 0xfc, 0xab, 0x2a, 0xaf, 0xd0, 0xbf, 0x37, 0x30,
  0x12, 0x00, 0x31, 0xdf, 0x4b, 0x14, 0x54, 0xe3, 0x18, 0x12, 0xce, 0x36,
  0xef, 0x3c, 0x4a, 0xb2, 0x49, 0x13, 0x3c, 0xec, 0x14, 0xf5, 0x10, 0xd9,
  0x59, 0x44, 0xde, 0xfd, 0xa5, 0xe7, 0x39, 0x3e, 0xff, 0xed, 0x20, 0xb4,
  0xf0, 0x2a, 0xb3, 0x00, 0x23, 0xeb, 0x2b, 0xdf, 0xc9, 0xdf, 0x09, 0xc6,
  0x04, 0x49, 0x39, 0xdc, 0x15, 0xf4, 0xa8, 0xd6, 0x2c, 0x21, 0xd1, 0x2f,
  0xaf, 0xc7, 0x41, 0x23, 0x45, 0x08, 0xf3, 0x12, 0xee, 0xd4, 0xf3, 0xec,
  0xeb, 0xcb, 0xf0, 0xee, 0xb2, 0xe3, 0x03, 0x23, 0xd0, 0xb1, 0xe7, 0xb1,
  0xaa, 0xe6, 0xd9, 0xe2, 0x26, 0xe2, 0xf6, 0xbd, 0xbc, 0xf6, 0xd2, 0x9d,
  0xb9, 0x06, 0xef, 0xb0, 0x2d, 0xec, 0xf5, 0x1b, 0xb2, 0xe0, 0xab, 0xbb,
  0xbe, 0x2e, 0xd7, 0x07, 0xbc, 0xbc, 0xf3, 0x2e, 0xe2, 0x15, 0x32, 0x22,
  0x34, 0xb0, 0xfe, 0x31, 0xbc, 0xd2, 0x17, 0xbb, 0x1a, 0x1b, 0x0e, 0xba,
  0x34, 0x23, 0xf0, 0x0a, 0xb3, 0xb0, 0xf9, 0xae, 0xe5, 0xb6, 0xaf, 0xf8,
  0x1c, 0x33, 0x29, 0xf1, 0xf8, 0x31, 0x43, 0x4a, 0x1e, 0xd7, 0x3b, 0xda,
  0x1b, 0xd5, 0x23, 0xad, 0xd4, 0x44, 0x43, 0x39, 0xee, 0x11, 0xfe, 0x0f,
  0xc6, 0xc3, 0x34, 0xc5, 0x29, 0x27, 0xdb, 0x22, 0x15, 0xaa, 0xd1, 0xf6,
  0x37, 0xf9, 0x42, 0xb9, 0xc9, 0xb3, 0x42, 0xac, 0xa6, 0xea, 0x19, 0xaa,
  0xce, 0x19, 0xdc, 0x25, 0x3a, 0xdd, 0x3f, 0x12, 0xe6, 0x39, 0xa7, 0x23,
  0x1c, 0x37, 0x06, 0x3d, 0xd5, 0xe0, 0xbe, 0xb1, 0x30, 0x15, 0x11, 0xe2,
  0xef, 0x33, 0x46, 0xf5, 0x0c, 0x12, 0x25, 0x1e, 0xd9, 0xc5, 0x3f, 0xe2,
  0xc2, 0x2f, 0xaf, 0x45, 0x45, 0x14, 0x20, 0xfb, 0xb2, 0x3f, 0xec, 0xf5,
  0xb3, 0x03, 0xb9, 0x1f, 0xdf, 0x45, 0x11, 0x32, 0xc9, 0xc1, 0xb3, 0xe5,
  0xba, 0xdf, 0x13, 0x2d, 0xae, 0xf4, 0x04, 0xf0, 0xd6, 0x31, 0xf6, 0xd0,
  0xce, 0xc6, 0xd4, 0xd6, 0xc6, 0xd8, 0xd3, 0x02, 0x09, 0x21, 0xc7, 0x02,
  0xca, 0x93, 0x23, 0xab, 0xfd, 0xb1, 0xfc, 0xc1, 0xc1, 0x2b, 0xd7, 0xc3,
  0x00, 0xce, 0xed, 0xc2, 0x5e, 0x1e, 0x3b, 0xe9, 0xea, 0xe1, 0xd1, 0x2d,
  0x1a, 0x07, 0xf4, 0xda, 0x64, 0xc5, 0x0f, 0xe1, 0x5a, 0x07, 0xe2, 0xf2,
  0x5d, 0xb3, 0x50, 0x1c, 0x5e, 0x45, 0xc6, 0x29, 0x35, 0x3d, 0x47, 0xde,
  0xec, 0x3a, 0x3f, 0x36, 0xda, 0x05, 0x3d, 0xe3, 0x64, 0x68, 0x57, 0x02,
  0xd4, 0x17, 0x03, 0x25, 0x56, 0x28, 0x07, 0x1b, 0xc9, 0xf5, 0x4b, 0x53,
  0x58, 0x41, 0xce, 0x6d, 0xc9, 0xd4, 0x13, 0x5b, 0x3f, 0x2a, 0xe8, 0xdb,
  0x4a, 0x5f, 0x4a, 0x08, 0xf9, 0xcc, 0x2f, 0xed, 0xdc, 0x26, 0xe2, 0x1f,
  0x41, 0xd6, 0x15, 0xd9, 0xb2, 0x52, 0xb7, 0x20, 0xed, 0x24, 0x29, 0x3e,
  0x1c, 0xd2, 0xab, 0x45, 0xf4, 0xc9, 0xd7, 0x49, 0xa8, 0x37, 0xc1, 0xe5,
  0xe9, 0x1c, 0x33, 0x21, 0x14, 0xfb, 0xc0, 0xd5, 0xbf, 0x15, 0x03, 0x31,
  0xd7, 0xfc, 0xef, 0xe9, 0xd9, 0x44, 0x21, 0x3d, 0xeb, 0x29, 0xf4, 0xc2,
  0x24, 0xda, 0xfe, 0xd7, 0xf7, 0xd9, 0xae, 0xf9, 0x2a, 0x47, 0xf9, 0x4d,
  0x07, 0xb9, 0xb3, 0xe4, 0xf9, 0xe9, 0xff, 0x2e, 0x0b, 0xd2, 0xea, 0x47,
  0xc1, 0xbf, 0xe5, 0xff, 0x24, 0xfb, 0x20, 0x3b, 0xce, 0x32, 0x13, 0xd6,
  0xb3, 0x34, 0x2d, 0xaf, 0xf3, 0xdf, 0xd6, 0x25, 0xb8, 0xc5, 0xb4, 0xc6,
  0xdf, 0x17, 0x39, 0xd3, 0x31, 0xc2, 0x30, 0x1e, 0xde, 0xc6, 0xc6, 0x40,
  0x0d, 0x15, 0x2b, 0xeb, 0xe3, 0x43, 0xc8, 0x12, 0xf4, 0xc1, 0xb9, 0xbc,
  0x43, 0xe9, 0xbd, 0x2f, 0x4d, 0x47, 0xdd, 0x34, 0x17, 0x18, 0x1c, 0x20,
  0x12, 0x38, 0xd9, 0x30, 0x25, 0x43, 0xf3, 0xc8, 0x4f, 0xdc, 0x12, 0xca,
  0x22, 0xbd, 0x3a, 0x36, 0x08, 0x20, 0xc2, 0xb1, 0x56, 0xcb, 0xda, 0xfd,
  0x15, 0x0c, 0x42, 0xee, 0x1b, 0xf0, 0x53, 0x15, 0x10, 0x53, 0x0f, 0x2b,
  0x00, 0xde, 0x66, 0xd4, 0x47, 0x5a, 0xd9, 0x42, 0xd0, 0x55, 0xca, 0x03,
  0xff, 0x10, 0x47, 0xe8, 0xe5, 0x2b, 0x45, 0xee, 0xe9, 0xe4, 0x2b, 0xde,
  0xc9, 0x48, 0x17, 0xf3, 0xff, 0x23, 0x43, 0x3b, 0xe8, 0x56, 0x0d, 0x25,
  0x4c, 0x57, 0xd6, 0x1d, 0xbe, 0xe2, 0xe6, 0x2d, 0x4d, 0x33, 0x4b, 0xed,
  0x1e, 0xf7, 0x01, 0x25, 0xf0, 0xc8, 0x11, 0x26, 0xbb, 0xfc, 0xdb, 0x19,
  0xb0, 0xff, 0x00, 0xc8, 0xde, 0xbf, 0x09, 0x0b, 0xbd, 0xb0, 0xdd, 0xee,
  0x9f, 0xae, 0xfa, 0xb5, 0x2e, 0xdd, 0xf9, 0x13, 0x92, 0x08, 0x92, 0xb7,
  0xd2, 0xca, 0x92, 0xc1, 0xfa, 0x31, 0x22, 0xe9, 0x0a, 0xf3, 0x1c, 0x1c,
  0x0b, 0x35, 0x1f, 0xc8, 0xf9, 0x49, 0xc9, 0x02, 0x13, 0x37, 0x9f, 0xc8,
  0x2b, 0x06, 0x0d, 0xeb, 0xed, 0x1b, 0x06, 0x41, 0xc0, 0x19, 0xdd, 0xf1,
  0xb7, 0x33, 0xae, 0x4f, 0xc6, 0x19, 0xd4, 0x38, 0xde, 0x20, 0x26, 0xed,
  0xf5, 0x10, 0x43, 0x51, 0xe9, 0xe0, 0xee, 0xe2, 0x2b, 0xd2, 0xdc, 0xf0,
  0x20, 0xf0, 0xc8, 0x0e, 0xeb, 0x67, 0x01, 0xfa, 0x57, 0xd2, 0xe3, 0x11,
  0xe2, 0x62, 0x3a, 0x2c, 0xc8, 0x28, 0xc6, 0x5e, 0x12, 0x60, 0x2f, 0xf2,
  0xe0, 0x10, 0x22, 0x4e, 0x37, 0xd3, 0x18, 0xd2, 0xc6, 0xec, 0xdc, 0x17,
  0x4f, 0x47, 0xeb, 0x0a, 0xe2, 0xd9, 0x54, 0xc6, 0xcd, 0x18, 0x22, 0x2d,
  0x39, 0x18, 0xd9, 0x26, 0x1b, 0x51, 0x30, 0xf4, 0x4f, 0xb9, 0xbd, 0x35,
  0xe4, 0xce, 0xef, 0xd7, 0x09, 0xea, 0xbf, 0xba, 0x08, 0xbb, 0x23, 0x0e,
  0x2e, 0x3a, 0xf2, 0x2d, 0x2c, 0x34, 0xe6, 0x24, 0x41, 0xe4, 0x1e, 0xcc,
  0xc6, 0xac, 0xe5, 0x46, 0xe7, 0xf0, 0xda, 0xa6, 0x4f, 0xa6, 0xb6, 0x26,
  0xce, 0xfa, 0xc3, 0x19, 0x2f, 0xd5, 0xc9, 0xf8, 0xc5, 0xaf, 0xe3, 0xfd,
  0xc5, 0xab, 0xd3, 0x26, 0xbd, 0xda, 0x3c, 0xe9, 0x4b, 0x0f, 0xca, 0xcb,
  0x2a, 0xed, 0x0a, 0xa3, 0x38, 0x1a, 0x21, 0x1d, 0x26, 0xac, 0x18, 0x88,
  0x02, 0x8e, 0x06, 0xa6, 0x50, 0xd5, 0x05, 0xbd, 0x24, 0xab, 0xe3, 0x20,
  0xcd, 0xde, 0xf0, 0x0f, 0x4a, 0xa5, 0xca, 0xc0, 0xe3, 0xeb, 0x51, 0xf7,
  0x0f, 0xd6, 0xc6, 0xcd, 0xd6, 0x09, 0xda, 0x09, 0xbe, 0x2d, 0x53, 0xcf,
  0xf7, 0xf6, 0xc5, 0x10, 0xe2, 0x27, 0x0f, 0xb7, 0x17, 0xea, 0xbf, 0xc1,
  0xc0, 0x1e, 0xaf, 0x16, 0xb5, 0x01, 0x31, 0x3a, 0xe8, 0xe9, 0xf7, 0x27,
  0xb5, 0x59, 0xcf, 0x07, 0xcf, 0xd3, 0xfd, 0x22, 0x3b, 0xf7, 0xc8, 0x62,
  0xe4, 0x5f, 0xdb, 0x32, 0x13, 0xe3, 0xd4, 0x0c, 0x34, 0x25, 0xff, 0xe3,
  0xce, 0x5e, 0x2a, 0x01, 0x0c, 0x3c, 0xb2, 0xf9, 0xef, 0xfe, 0xe0, 0x1b,
  0x21, 0x39, 0xf3, 0x44, 0xda, 0xe0, 0xdd, 0x1f, 0xd4, 0x5d, 0xf4, 0x3c,
  0x17, 0x1e, 0xed, 0xf4, 0x35, 0xd0, 0x30, 0x35, 0x4e, 0xee, 0xf3, 0xd0,
  0x2e, 0x47, 0xda, 0x2a, 0x50, 0xcb, 0x3c, 0x30, 0x32, 0x30, 0xdd, 0xcc,
  0xd8, 0x4e, 0x4f, 0x04, 0x39, 0x47, 0x21, 0xf0, 0xd1, 0x1c, 0x27, 0xb9,
  0xc7, 0x47, 0xe6, 0x30, 0x03, 0x2f, 0xc7, 0x3e, 0x3e, 0xb6, 0x52, 0x17,
  0x2c, 0x2d, 0x4f, 0xd5, 0x4e, 0xe2, 0xd0, 0x13, 0xaf, 0x28, 0xfd, 0xe2,
  0xf2, 0xc8, 0xda, 0xf1, 0xf7, 0x44, 0xfe, 0xe2, 0x38, 0xed, 0x45, 0x1b,
  0xce, 0x1d, 0x02, 0x08, 0x0b, 0x32, 0xde, 0x09, 0xf7, 0x4f, 0x0d, 0xd3,
  0x36, 0xe5, 0xdf, 0xbf, 0x1f, 0xd8, 0x13, 0xcc, 0xce, 0xb7, 0x3c, 0x44,
  0x44, 0xd1, 0x4c, 0xe8, 0xf9, 0xb6, 0x07, 0x29, 0x28, 0xf4, 0xea, 0xcd,
  0x38, 0x1a, 0xf4, 0xcc, 0x24, 0xeb, 0x43, 0x1d, 0x18, 0xc9, 0x16, 0xe5,
  0x05, 0xf0, 0x0c, 0x07, 0x0d, 0x33, 0x0a, 0x2c, 0x2e, 0x0f, 0xd7, 0x3c,
  0xf4, 0x08, 0x4f, 0x2d, 0x57, 0x42, 0x3b, 0xf3, 0x40, 0x14, 0x46, 0xdd,
  0x1e, 0x5a, 0xee, 0x4c, 0x18, 0x06, 0x41, 0x16, 0x0b, 0xfb, 0xe6, 0x67,
  0x17, 0xfa, 0xe9, 0x3f, 0x42, 0x5b, 0xb7, 0x15, 0x4f, 0x5c, 0x4a, 0xdd,
  0xe9, 0xcd, 0x37, 0x11, 0x13, 0x19, 0xba, 0x42, 0x01, 0x19, 0xdc, 0x55,
  0x26, 0x38, 0x37, 0x22, 0x48, 0xd8, 0x00, 0x01, 0xb6, 0x21, 0x2a, 0xc7,
  0x07, 0xb7, 0xa7, 0x08, 0xff, 0xc3, 0x24, 0x34, 0x2f, 0xef, 0xb9, 0xab,
  0x0b, 0xa7, 0x0f, 0xd3, 0xac, 0x04, 0xb5, 0x18, 0x0a, 0xc5, 0x15, 0x25,
  0xfa, 0xae, 0x12, 0xc1, 0xc8, 0xad, 0x01, 0xdb, 0x21, 0xfb, 0xb9, 0xea,
  0xf5, 0xb8, 0x40, 0xe0, 0x1b, 0x0a, 0x1a, 0x2d, 0xda, 0xaa, 0x47, 0xe6,
  0x2c, 0xe8, 0x0a, 0x0b, 0xad, 0x04, 0x00, 0x3c, 0x06, 0xf9, 0x31, 0xfd,
  0xbe, 0x25, 0x1b, 0xd5, 0xc2, 0xdf, 0x0f, 0x1f, 0x3b, 0xf8, 0xe2, 0x01,
  0x02, 0x1d, 0xe7, 0xae, 0xb9, 0x07, 0xd1, 0xd2, 0xb9, 0x49, 0xcf, 0xb1,
  0x12, 0x02, 0xf6, 0xc1, 0x09, 0x39, 0x23, 0x17, 0xb6, 0xe8, 0xba, 0xf7,
  0xb5, 0x08, 0xde, 0xff, 0x0e, 0xb0, 0x40, 0x35, 0xc3, 0xfd, 0xd4, 0x23,
  0x32, 0xf0, 0x06, 0xde, 0xed, 0x47, 0xe5, 0xcb, 0xf5, 0x23, 0x1e, 0xaf,
  0xd6, 0x3c, 0x2a, 0xef, 0x0a, 0x39, 0xe7, 0xc2, 0xe2, 0x26, 0x55, 0x05,
  0x06, 0xa8, 0x3f, 0xb4, 0xd6, 0xaf, 0xdf, 0x07, 0x23, 0x43, 0x0f, 0xa8,
  0xec, 0xce, 0xcd, 0xa5, 0x28, 0xe6, 0x22, 0xea, 0x44, 0x23, 0x18, 0x35,
  0x06, 0xce, 0xd1, 0xd3, 0xe6, 0xe1, 0x16, 0x05, 0x43, 0x13, 0xc1, 0xe0,
  0xe8, 0x0f, 0x07, 0x06, 0x0a, 0x28, 0x3b, 0xb8, 0xed, 0xfe, 0x29, 0xbb,
  0x48, 0xc9, 0xfa, 0xd9, 0xde, 0xe7, 0x1e, 0xa6, 0xf4, 0x04, 0xfe, 0xf3,
  0xb5, 0x39, 0x31, 0x09, 0x14, 0xc1, 0xc7, 0x07, 0x08, 0x32, 0xb8, 0xe9,
  0x09, 0xd6, 0xca, 0xda, 0x14, 0xda, 0xb4, 0x3b, 0x35, 0xc7, 0xe0, 0xee,
  0xac, 0xf7, 0xd6, 0x2d, 0xf0, 0x1c, 0xe4, 0xb1, 0xaf, 0x0f, 0xf7, 0xf8,
  0x15, 0x10, 0x0f, 0x43, 0x1f, 0x07, 0xb8, 0x39, 0xfe, 0x4a, 0x1a, 0xd5,
  0x34, 0x06, 0xf6, 0x57, 0xb1, 0xe2, 0x05, 0xd0, 0xbd, 0x4e, 0xd0, 0x3d,
  0xc8, 0x05, 0xae, 0x0d, 0xe0, 0xb8, 0xf9, 0x34, 0xe0, 0xfe, 0xee, 0x4c,
  0x24, 0x29, 0x1e, 0xbb, 0x3e, 0xfb, 0xda, 0xbe, 0xcd, 0xea, 0x49, 0x0b,
  0xf7, 0x49, 0xf3, 0x30, 0x33, 0xee, 0x1a, 0x4e, 0x4e, 0x52, 0xf9, 0xd4,
  0x12, 0xc5, 0xb6, 0xcb, 0x11, 0xc9, 0xf7, 0x43, 0x45, 0x2a, 0xdc, 0x36,
  0x1c, 0xf3, 0xba, 0x06, 0xfc, 0x11, 0x2e, 0x2c, 0xc0, 0x35, 0xaf, 0x2a,
  0xff, 0x15, 0x18, 0x2b, 0xf1, 0xe7, 0x2f, 0xeb, 0x48, 0x35, 0x29, 0x1d,
  0x49, 0x19, 0x2a, 0xae, 0xfa, 0xa6, 0xb9, 0xc1, 0x41, 0xf6, 0x19, 0x2a,
  0xde, 0x44, 0xdf, 0x0c, 0x59, 0x44, 0xce, 0xfd, 0x3b, 0xf8, 0xe3, 0x42,
  0xfa, 0x0a, 0x50, 0x2e, 0x3f, 0xf2, 0x0d, 0x41, 0x14, 0x5b, 0x2b, 0x3a,
  0xf3, 0x43, 0xc7, 0x52, 0x61, 0x17, 0x3d, 0x09, 0xfb, 0xdc, 0x52, 0x2f,
  0x1f, 0x45, 0x2b, 0x41, 0xd2, 0xe3, 0x5b, 0x1e, 0x11, 0xdd, 0xc9, 0x27,
  0xfd, 0x35, 0x04, 0xd2, 0xcb, 0xd1, 0x14, 0x04, 0x0f, 0x58, 0xcd, 0xcf,
  0xdc, 0xf4, 0x2a, 0x09, 0x5a, 0xf9, 0x15, 0x16, 0x51, 0x0d, 0x0e, 0x41,
  0xf5, 0x34, 0xe7, 0xd6, 0x12, 0xe3, 0xe6, 0xe5, 0xe5, 0x1a, 0xf1, 0xdc,
  0x0c, 0xcc, 0xc7, 0x25, 0xf2, 0x1a, 0xca, 0x0c, 0xda, 0x2d, 0x21, 0xe4,
  0x28, 0x27, 0xa7, 0x13, 0xab, 0xc2, 0xc8, 0xba, 0xb6, 0x1e, 0xb6, 0xa5,
  0xd3, 0x05, 0xb0, 0x22, 0xbd, 0xed, 0xd6, 0x25, 0xbe, 0xd9, 0x2b, 0x9c,
  0x99, 0xd7, 0xd1, 0x26, 0xf9, 0x3d, 0xeb, 0xe7, 0xc0, 0xa3, 0xfd, 0x31,
  0x03, 0xb5, 0x20, 0xef, 0xb2, 0x2c, 0xb7, 0x47, 0xc4, 0xb8, 0x28, 0x32,
  0xf8, 0xb5, 0xc8, 0xb1, 0xed, 0x2c, 0xb3, 0x28, 0x9e, 0x0c, 0x1c, 0xc5,
  0x9e, 0x1a, 0xef, 0xce, 0xf0, 0xe3, 0xc6, 0xe2, 0x02, 0x2d, 0x31, 0xff,
  0xc7, 0x56, 0xa7, 0xc7, 0x3a, 0xd7, 0x05, 0x57, 0x01, 0x13, 0xd2, 0x08,
  0x24, 0x40, 0xe9, 0xc8, 0xf4, 0x0b, 0xe5, 0xdf, 0x02, 0x05, 0x3e, 0xec,
  0x29, 0x1f, 0x02, 0xfd, 0xf5, 0x45, 0x34, 0x48, 0xe8, 0x13, 0x07, 0xce,
  0x14, 0x25, 0x03, 0xd6, 0xd2, 0xe3, 0x25, 0xfd, 0x3c, 0x23, 0x22, 0xca,
  0x23, 0x29, 0x18, 0xb4, 0xc5, 0xe7, 0x37, 0x3f, 0xd1, 0xe6, 0x52, 0xd1,
  0x2f, 0x15, 0x0c, 0x13, 0xd9, 0xb8, 0xca, 0xf7, 0xe9, 0xee, 0x2e, 0xe4,
  0x0e, 0x0d, 0xf3, 0x93, 0x5e, 0xb5, 0xca, 0x15, 0x0d, 0xdd, 0x35, 0x8d,
  0x2c, 0xba, 0xc3, 0xa2, 0xf0, 0xb6, 0xc9, 0xa0, 0x55, 0xbb, 0xfe, 0xaa,
  0xeb, 0x26, 0x08, 0xcd, 0x4d, 0xf5, 0xb2, 0xd5, 0xca, 0xf5, 0xc6, 0xb8,
  0xf1, 0xf6, 0xc8, 0xd4, 0x2f, 0x29, 0x2f, 0xc3, 0xc1, 0x27, 0xd3, 0xf4,
  0x1a, 0x60, 0xf4, 0x44, 0x25, 0x32, 0x11, 0x20, 0xe2, 0x02, 0x29, 0x04,
  0x13, 0x73, 0x32, 0x30, 0x11, 0xea, 0x5a, 0x42, 0x47, 0x0b, 0x35, 0x68,
  0x45, 0xf9, 0x2a, 0xe6, 0xee, 0x54, 0x12, 0x50, 0x24, 0x4b, 0xe2, 0x09,
  0xc2, 0xc6, 0x2d, 0x03, 0x21, 0x09, 0x38, 0x59, 0xbb, 0xf0, 0x24, 0xd4,
  0x54, 0x4d, 0x0b, 0x47, 0xf7, 0x38, 0x2d, 0xae, 0xf0, 0x1d, 0x3c, 0x09,
  0x39, 0x09, 0x27, 0xb6, 0x18, 0xdd, 0xd5, 0x1e, 0x52, 0x3d, 0xd3, 0xcb,
  0xe1, 0xa7, 0x44, 0xc8, 0xfa, 0xf9, 0xc5, 0xdf, 0x56, 0xec, 0x55, 0xdd,
  0x30, 0x10, 0xf7, 0x27, 0xd5, 0xba, 0xcc, 0x38, 0x5c, 0xc6, 0x32, 0x15,
  0xec, 0xee, 0xec, 0xde, 0x4c, 0x09, 0x39, 0xfb, 0xfd, 0x0e, 0xdf, 0x5e,
  0x0c, 0x47, 0x21, 0x47, 0x30, 0xc0, 0xd6, 0x11, 0xcf, 0x34, 0x34, 0xc8,
  0xd0, 0x05, 0xc6, 0xfc, 0x36, 0xfe, 0xf1, 0xe9, 0x42, 0x07, 0xc2, 0x4d,
  0x18, 0x04, 0xc8, 0x1c, 0xf6, 0x47, 0xf5, 0xf6, 0xe4, 0xce, 0x35, 0x57,
  0xdb, 0x2e, 0x0c, 0xfc, 0xd8, 0xff, 0x48, 0x12, 0xf7, 0x51, 0x3b, 0xe1,
  0xda, 0x31, 0xa9, 0x26, 0xff, 0x31, 0x3b, 0xe7, 0xbf, 0xd1, 0xd5, 0xd8,
  0xa3, 0xee, 0xb1, 0xb7, 0x40, 0x41, 0xe8, 0xe4, 0xa6, 0x07, 0x32, 0x16,
  0xeb, 0xd9, 0x18, 0x07, 0x2c, 0x1a, 0xaf, 0x2b, 0xdf, 0xf9, 0x35, 0x3d,
  0x49, 0x18, 0x4d, 0xdc, 0xf5, 0x2b, 0xcc, 0x09, 0xd0, 0xc5, 0x0e, 0x35,
  0x36, 0x37, 0x3a, 0xec, 0x4d, 0xd1, 0x20, 0x49, 0x01, 0x10, 0x08, 0x2f,
  0x49, 0x2a, 0xcf, 0x3a, 0x4d, 0xf4, 0x69, 0x1e, 0x34, 0x1a, 0xca, 0x0e,
  0xef, 0xd3, 0x64, 0x0e, 0x14, 0x23, 0x35, 0xde, 0x00, 0x2c, 0xf0, 0x28,
  0x0a, 0x36, 0x25, 0x3c, 0x4e, 0xc4, 0x05, 0x46, 0xdf, 0xcc, 0x42, 0x4a,
  0x36, 0xd5, 0x1d, 0x1f, 0x34, 0xe2, 0x4f, 0x18, 0x1a, 0x16, 0xc4, 0xc4,
  0x13, 0x1d, 0xc6, 0x01, 0x4d, 0xc6, 0xaf, 0x1b, 0x19, 0x12, 0x20, 0x1a,
  0xce, 0xe0, 0xa1, 0xc0, 0xba, 0x2c, 0xee, 0x45, 0x13, 0x41, 0x1d, 0xc8,
  0xe3, 0x17, 0xfb, 0x0a, 0xca, 0xee, 0xce, 0x1a, 0xea, 0xec, 0x34, 0xd6,
  0xb5, 0x1f, 0x24, 0x19, 0x2d, 0x1c, 0xd0, 0xb3, 0x01, 0xcc, 0x10, 0xc4,
  0xa6, 0xc9, 0xd9, 0x11, 0x2b, 0xd4, 0xf0, 0xa6, 0x25, 0xfd, 0xbf, 0x22,
  0x00, 0xdd, 0x03, 0xad, 0xeb, 0x13, 0xe5, 0xda, 0xc8, 0xab, 0xe1, 0xd2,
  0xa2, 0xd6, 0xd3, 0xf3, 0xca, 0x13, 0xb8, 0xd9, 0xec, 0x35, 0x99, 0xb2,
  0xd7, 0xfb, 0x1d, 0x4e, 0xcc, 0x11, 0x33, 0x3d, 0x13, 0x18, 0x3a, 0x09,
  0x34, 0xde, 0xaf, 0x29, 0x36, 0xf1, 0xc9, 0x2f, 0x32, 0x4e, 0xa8, 0x15,
  0xe1, 0xdd, 0xbf, 0xe3, 0xf8, 0xe3, 0x2d, 0xc4, 0x45, 0xcc, 0x39, 0x1b,
  0x1b, 0x45, 0x2a, 0xfe, 0xd0, 0xf5, 0x45, 0x2d, 0xd8, 0xd7, 0xd3, 0x35,
  0xd9, 0x17, 0xf7, 0x0d, 0xdc, 0x41, 0xfd, 0xd7, 0xdb, 0x4a, 0x0f, 0x08,
  0xe5, 0x4e, 0xe5, 0x15, 0x4e, 0x08, 0x1e, 0xd8, 0x4a, 0xd5, 0xe4, 0xed,
  0x1c, 0x21, 0x42, 0xfd, 0x01, 0x1c, 0xbc, 0x3b, 0x04, 0xad, 0xc0, 0xb8,
  0xda, 0x41, 0xe5, 0x44, 0xdb, 0xed, 0xf1, 0x33, 0x2f, 0xc5, 0xfd, 0x25,
  0x0d, 0xb0, 0xc6, 0xe0, 0x11, 0x2c, 0x3d, 0xe1, 0x42, 0x27, 0xdf, 0x3e,
  0x0a, 0xd3, 0xc3, 0xd8, 0xc8, 0xdb, 0x1b, 0xb7, 0xe7, 0xb2, 0x4c, 0x31,
  0xff, 0xf2, 0xf4, 0x20, 0xf4, 0xe7, 0x4e, 0x02, 0xfe, 0xbc, 0x24, 0xc7,
  0x19, 0x25, 0xd4, 0x0f, 0xfb, 0xd9, 0x08, 0x1c, 0x40, 0xf5, 0x35, 0xeb,
  0xe3, 0xc6, 0x14, 0xb4, 0xd0, 0x1f, 0xbe, 0xc1, 0xe7, 0x1f, 0x3f, 0x10,
  0xde, 0x38, 0x01, 0xb1, 0xd8, 0x2e, 0xd7, 0xcd, 0x14, 0xc8, 0x35, 0xc2,
  0x05, 0xbd, 0xd2, 0xe3, 0x2d, 0x1a, 0xd9, 0xf8, 0xe5, 0x08, 0xda, 0x53,
  0xef, 0x1e, 0xa0, 0xc9, 0x07, 0xd1, 0xc6, 0xce, 0xd2, 0x29, 0x15, 0xc3,
  0xf2, 0x3c, 0xc4, 0x43, 0xb2, 0x49, 0x97, 0x32, 0x96, 0xae, 0x1b, 0x1d,
  0xbd, 0xe0, 0xa6, 0xab, 0xb5, 0xe0, 0x0d, 0xd2, 0x03, 0xdd, 0xe3, 0xcd,
  0xb7, 0x23, 0xa6, 0x07, 0xcb, 0x22, 0x2a, 0xf4, 0x20, 0xf3, 0xc9, 0xbb,
  0x12, 0xfa, 0xab, 0x31, 0x29, 0x0c, 0xc9, 0xea, 0x0d, 0x2f, 0xc5, 0xff,
  0xd7, 0xf3, 0xcd, 0xf5, 0x0e, 0x32, 0x29, 0x3c, 0x2f, 0x16, 0x4f, 0x23,
  0x16, 0xd2, 0x23, 0x03, 0xd9, 0xfa, 0x22, 0x36, 0x1d, 0x30, 0xbb, 0xac,
  0x1c, 0xd4, 0x0a, 0x16, 0x06, 0xbc, 0x12, 0xbe, 0xdc, 0x1c, 0xe2, 0xce,
  0xf9, 0xb3, 0xee, 0xfe, 0x06, 0xd1, 0xba, 0xc1, 0x2b, 0xd1, 0xed, 0x2d,
  0xbb, 0x36, 0x30, 0x18, 0xbe, 0xe4, 0xe7, 0xac, 0xa9, 0xc3, 0x2d, 0xb0,
  0xc8, 0xb0, 0x40, 0xbf, 0x3f, 0xd9, 0x40, 0xcd, 0x17, 0xea, 0xb0, 0x04,
  0x3b, 0x35, 0xc4, 0xed, 0x28, 0xa4, 0x3a, 0xf9, 0x06, 0x6f, 0x47, 0x22,
  0x23, 0xe8, 0xd6, 0x1c, 0x49, 0x29, 0x08, 0x0c, 0x56, 0x03, 0xde, 0x0b,
  0x3b, 0x0f, 0xdd, 0x5c, 0x00, 0xcb, 0xdb, 0xe5, 0xc1, 0xd1, 0xd3, 0x13,
  0x41, 0x16, 0x2c, 0xc6, 0xda, 0x01, 0xc0, 0x44, 0xe6, 0x24, 0xef, 0x3d,
  0x00, 0xd2, 0xf8, 0xc1, 0x22, 0x0a, 0xe6, 0x36, 0xb0, 0xb3, 0x3f, 0x2a,
  0x24, 0xbc, 0x32, 0xcb, 0x43, 0xb7, 0xfd, 0x8e, 0xaf, 0x0f, 0x28, 0xbd,
  0xb5, 0xe8, 0xb3, 0x91, 0x1c, 0xea, 0x11, 0xb3, 0xbe, 0xba, 0xd3, 0x1b,
  0x48, 0xc6, 0xea, 0xe0, 0x17, 0xe4, 0x54, 0xbc, 0x2f, 0x16, 0xdf, 0xa6,
  0xea, 0xdf, 0x12, 0xd0, 0xea, 0x11, 0x38, 0xae, 0x20, 0xe5, 0x35, 0x33,
  0x53, 0x17, 0xb7, 0x16, 0x25, 0xc6, 0xc0, 0x29, 0x3d, 0xa7, 0x07, 0xbd,
  0xf7, 0x3c, 0x0e, 0xe3, 0xfc, 0xc8, 0xac, 0x21, 0xa6, 0x3f, 0xd9, 0x26,
  0xb6, 0xf4, 0xda, 0xfc, 0x0f, 0x3a, 0x33, 0xda, 0x22, 0x16, 0x23, 0xdd,
  0xa4, 0x28, 0xd8, 0xac, 0xf4, 0x3f, 0x3f, 0xd1, 0xe3, 0xee, 0xac, 0xfe,
  0xa8, 0x3d, 0xd2, 0xd0, 0x24, 0xcd, 0xf8, 0x30, 0xee, 0x0a, 0x43, 0xe1,
  0x09, 0x5d, 0x00, 0xd8, 0xf9, 0xf3, 0x1c, 0xd7, 0x29, 0x46, 0x4b, 0xef,
  0xed, 0xd7, 0xf3, 0x46, 0xe3, 0xd0, 0x25, 0x02, 0xcb, 0x0c, 0xd8, 0x37,
  0x2b, 0x08, 0x30, 0x57, 0xdf, 0xee, 0x01, 0x46, 0x0a, 0x2c, 0x26, 0x0a,
  0x03, 0xd5, 0xec, 0xc8, 0xe9, 0x0b, 0x3d, 0x32, 0xdd, 0xe9, 0xfa, 0x38,
  0xfa, 0x31, 0x5a, 0x56, 0x1b, 0x25, 0x4e, 0x39, 0x45, 0xdf, 0xe7, 0x0a,
  0x13, 0xf8, 0x38, 0xfa, 0x57, 0xf0, 0xd9, 0xfc, 0x55, 0x32, 0x3b, 0xc9,
  0xd7, 0xdc, 0x04, 0x0a, 0xf2, 0xe5, 0x0c, 0x21, 0xc5, 0xcf, 0x19, 0x34,
  0x50, 0xd7, 0xba, 0xee, 0x31, 0xdd, 0xe9, 0xe0, 0x04, 0x1c, 0x01, 0xfd,
  0xe7, 0xcb, 0x39, 0x07, 0x3c, 0x44, 0x55, 0x33, 0x09, 0xec, 0xd9, 0x09,
  0xd3, 0xc6, 0xf1, 0x09, 0xb8, 0xb8, 0x52, 0x19, 0x23, 0x16, 0x33, 0x31,
  0x54, 0x10, 0x43, 0x20, 0x25, 0xf5, 0x2c, 0xd7, 0xcf, 0xe6, 0x43, 0xeb,
  0xfc, 0x25, 0xff, 0xb0, 0xd5, 0xfd, 0x0f, 0xd4, 0x09, 0xb5, 0x11, 0xf9,
  0x0c, 0x14, 0xdd, 0x27, 0xf2, 0xb7, 0x29, 0xd6, 0x31, 0xb0, 0xce, 0xaf,
  0x44, 0xbd, 0xe8, 0x0e, 0xc2, 0x18, 0x42, 0x9c, 0xd4, 0x1d, 0xe3, 0x10,
  0x23, 0xae, 0x40, 0x26, 0x43, 0xc4, 0x0c, 0xc8, 0xad, 0x1d, 0xff, 0x16,
  0x33, 0x23, 0x2a, 0xe5, 0x23, 0xb7, 0xb6, 0x2e, 0xd0, 0x3d, 0x9f, 0x21,
  0xf3, 0x3a, 0x96, 0x24, 0x20, 0x1b, 0x2d, 0x04, 0xa7, 0xeb, 0x21, 0xa5,
  0xfd, 0xd1, 0xe5, 0xdb, 0xf6, 0xec, 0xa8, 0x42, 0x0d, 0x33, 0x1f, 0x25,
  0xfb, 0xfd, 0xa2, 0xfb, 0xfb, 0x33, 0xe1, 0x19, 0xf7, 0xf0, 0x35, 0xf5,
  0xcd, 0x0f, 0x33, 0x19, 0xbe, 0xfb, 0xa0, 0x50, 0x42, 0x0e, 0x28, 0xf7,
  0x16, 0x05, 0x19, 0xbb, 0xe6, 0xc2, 0xe0, 0x43, 0x46, 0x3e, 0x2c, 0x21,
  0x0a, 0x12, 0x4c, 0x1a, 0x20, 0x18, 0xd6, 0x3c, 0xbd, 0xc9, 0xf8, 0xbc,
  0xc6, 0xee, 0xb7, 0x20, 0xf6, 0xd8, 0x30, 0x4d, 0xe1, 0x38, 0xc0, 0xb6,
  0x17, 0x21, 0xb9, 0x07, 0x41, 0x2c, 0xd7, 0xe0, 0xf6, 0x34, 0x31, 0xd7,
  0x08, 0x4a, 0xfd, 0x44, 0x3a, 0x05, 0xe8, 0xbb, 0x0a, 0xe5, 0xd3, 0xde,
  0xc6, 0x31, 0x42, 0xf8, 0xfc, 0x1d, 0xe5, 0x08, 0xef, 0x42, 0x1a, 0x08,
  0x2b, 0xb7, 0xe4, 0x34, 0x08, 0xe6, 0x10, 0x09, 0xea, 0xfc, 0x48, 0xcb,
  0xcd, 0x12, 0xfc, 0xb6, 0xa8, 0xac, 0x11, 0xb4, 0xad, 0xec, 0xda, 0xa3,
  0x25, 0x3d, 0xb5, 0xde, 0xbf, 0x3d, 0xdc, 0xc5, 0x8f, 0xd7, 0x03, 0xb6,
  0xff, 0xfd, 0x96, 0xbd, 0x9c, 0xb5, 0x1c, 0xd6, 0xb4, 0x2d, 0xe6, 0xda,
  0x8f, 0x5d, 0x23, 0x5b, 0xa3, 0xf8, 0x1c, 0x33, 0x25, 0xd7, 0x1f, 0x2a,
  0x1d, 0x2d, 0xca, 0x2f, 0x04, 0xdb, 0xae, 0x1d, 0x25, 0x4a, 0xb3, 0xe2,
  0x34, 0x25, 0x38, 0xe7, 0xb3, 0x17, 0x0d, 0x14, 0xf6, 0x5e, 0xcf, 0x57,
  0x1a, 0xe9, 0xef, 0xbb, 0x03, 0xff, 0x3d, 0xdb, 0x49, 0xe0, 0xc9, 0xec,
  0xd1, 0xc6, 0x06, 0x30, 0x40, 0xad, 0xce, 0xbe, 0x13, 0xba, 0x23, 0xfb,
  0xf9, 0x32, 0x27, 0x20, 0x5a, 0xea, 0xf5, 0xbf, 0x1a, 0x3c, 0x3f, 0x2c,
  0x5f, 0x35, 0x6a, 0x26, 0x46, 0xb0, 0xe3, 0xf6, 0x58, 0xf2, 0xe4, 0xd9,
  0x49, 0x12, 0x02, 0x2b, 0x56, 0x2f, 0xec, 0xe6, 0x46, 0xf2, 0xf2, 0xff,
  0x33, 0x26, 0xd8, 0xcb, 0x1d, 0x3d, 0x30, 0x35, 0x5b, 0xb7, 0xef, 0xd7,
  0x2e, 0x1f, 0x16, 0x27, 0x2f, 0xc1, 0xfb, 0xc8, 0x4b, 0x42, 0x6f, 0xf4,
  0xe3, 0xee, 0x44, 0xbf, 0xca, 0xed, 0xe5, 0xee, 0x02, 0x48, 0x08, 0xed,
  0xc3, 0x51, 0xf6, 0x00, 0xf7, 0xef, 0xff, 0x51, 0x13, 0x38, 0xf0, 0x05,
  0x1d, 0xf3, 0x19, 0x56, 0x0d, 0xe4, 0xe3, 0xd1, 0xe0, 0xfe, 0x51, 0x0d,
  0x18, 0x03, 0xed, 0xea, 0xcf, 0xd0, 0xf4, 0xe7, 0x40, 0x28, 0xaa, 0x36,
  0xd8, 0xc9, 0xdd, 0x24, 0xd7, 0x58, 0xfb, 0xdf, 0xe9, 0xd6, 0x2c, 0x46,
  0x39, 0x1d, 0x3a, 0x53, 0xa3, 0x05, 0xf3, 0xfa, 0x0f, 0x4d, 0x29, 0x22,
  0xbd, 0xc2, 0xe3, 0xb8, 0xdf, 0xa0, 0xdb, 0xf2, 0xdd, 0x1b, 0xd2, 0xd9,
  0xeb, 0xa7, 0x48, 0x9f, 0x09, 0x2c, 0x58, 0x13, 0x02, 0x0d, 0x24, 0xdd,
  0xff, 0x07, 0x36, 0xd6, 0xf1, 0xb6, 0x30, 0xbe, 0xec, 0x21, 0x44, 0xed,
  0xf4, 0xa9, 0xc9, 0xbe, 0xca, 0x16, 0x06, 0xab, 0xe9, 0x04, 0x61, 0xe4,
  0xee, 0xd8, 0x56, 0x1c, 0x43, 0x03, 0x3e, 0xd0, 0x19, 0x4c, 0x0e, 0xbf,
  0x39, 0xc2, 0x38, 0xc1, 0x58, 0x0d, 0x0c, 0xb7, 0x1c, 0xdd, 0x52, 0x16,
  0xc5, 0x36, 0xbe, 0x03, 0x55, 0xfd, 0x38, 0xef, 0x36, 0xfb, 0xe7, 0xab,
  0xf6, 0x2b, 0xd7, 0xdc, 0xfe, 0xdd, 0x05, 0x2d, 0xf2, 0xd8, 0xe5, 0x1f,
  0xed, 0x0c, 0xdb, 0xa1, 0x05, 0x19, 0xae, 0x13, 0xcc, 0x9e, 0xf1, 0xba,
  0xb4, 0xb8, 0xbc, 0x09, 0xb7, 0xd0, 0xb0, 0xc3, 0xf7, 0xdf, 0xa9, 0xc6,
  0x16, 0xbb, 0x1d, 0xc2, 0xe5, 0x18, 0xd5, 0xe1, 0xa1, 0x03, 0xf0, 0xe7,
  0xca, 0x20, 0xde, 0x39, 0x02, 0x3e, 0xcb, 0x07, 0xfd, 0x39, 0x07, 0x30,
  0x07, 0xd0, 0xdb, 0x48, 0xc4, 0x2e, 0xc7, 0x02, 0xe5, 0x4b, 0xf3, 0xcb,
  0xa9, 0xed, 0x25, 0xd9, 0xb3, 0x52, 0xf6, 0x40, 0xee, 0xc6, 0xcb, 0x47,
  0xef, 0x3c, 0x23, 0xd4, 0x02, 0xe1, 0x1e, 0xee, 0xe9, 0x0c, 0x10, 0xea,
  0xdf, 0xda, 0x1c, 0x18, 0x2d, 0x1f, 0xa2, 0x2a, 0x45, 0x23, 0xb5, 0xd7,
  0xe7, 0xc8, 0xa5, 0xeb, 0xb8, 0x43, 0xaa, 0xb8, 0xb0, 0x52, 0xf4, 0xcd,
  0x22, 0x0d, 0xb8, 0x50, 0xc7, 0x23, 0xaf, 0xda, 0x2a, 0xc4, 0x24, 0xbf,
  0xb1, 0xd0, 0x12, 0x1b, 0xfa, 0x34, 0xb6, 0x18, 0xf8, 0x35, 0x17, 0xfe,
  0x35, 0x0b, 0xc8, 0xf0, 0xb0, 0xcd, 0xaf, 0xdb, 0x16, 0xfd, 0x3b, 0xa7,
  0xb9, 0xec, 0x17, 0x0c, 0xc6, 0x2a, 0x35, 0xd4, 0xa5, 0xca, 0x2b, 0x46,
  0xcf, 0x24, 0xe4, 0xd4, 0xd7, 0xdd, 0x0b, 0x36, 0xa7, 0x56, 0x3e, 0x41,
  0x17, 0xe0, 0xab, 0x0d, 0xc6, 0x31, 0xeb, 0x53, 0x36, 0x0e, 0x30, 0xee,
  0x02, 0xe8, 0xa7, 0xec, 0xc0, 0xcc, 0xc4, 0xc4, 0x41, 0x0c, 0xfb, 0xf6,
  0x0e, 0x05, 0x2e, 0xda, 0x15, 0x15, 0x22, 0x04, 0x29, 0xe7, 0x07, 0xf9,
  0x08, 0xb9, 0xd0, 0x1f, 0x06, 0x1f, 0x26, 0x9f, 0xda, 0xaa, 0xf5, 0x2a,
  0xbe, 0xd5, 0xbc, 0xa5, 0x09, 0xe0, 0xd3, 0xbb, 0x3b, 0xd3, 0xe4, 0xb9,
  0x20, 0x3a, 0x3f, 0x2b, 0xf0, 0x3a, 0xc5, 0xc6, 0x26, 0x0e, 0xc3, 0xb3,
  0x13, 0x45, 0xd1, 0xd5, 0xfb, 0xe9, 0xe4, 0x28, 0x33, 0x20, 0x2d, 0x01,
  0x4e, 0xd1, 0x37, 0x48, 0xea, 0x06, 0x2e, 0xe9, 0xd3, 0xf6, 0x19, 0xef,
  0xbb, 0xd9, 0xf4, 0x3e, 0xdd, 0x2e, 0xe3, 0xf9, 0xec, 0xe9, 0x13, 0x46,
  0x1e, 0x4f, 0x4f, 0x46, 0x25, 0x4f, 0x22, 0x39, 0x34, 0xb7, 0xcd, 0xcc,
  0x0f, 0xf3, 0x2c, 0xad, 0x0d, 0xd3, 0x49, 0x31, 0xc1, 0xd6, 0x2a, 0xc3,
  0xf6, 0xbf, 0x2c, 0xc1, 0x01, 0xf1, 0x06, 0xd8, 0x4c, 0x1b, 0xf6, 0xf0,
  0xc3, 0xbc, 0x03, 0xf0, 0x3a, 0xf2, 0xd2, 0xac, 0xfb, 0x36, 0xc9, 0x13,
  0x35, 0x15, 0xe0, 0xbf, 0xc5, 0xe7, 0x15, 0xe4, 0x20, 0xdd, 0xb8, 0xbe,
  0x23, 0x40, 0x04, 0x1c, 0x21, 0x1d, 0x3b, 0x08, 0x0a, 0x25, 0xd0, 0x23,
  0x4d, 0x3c, 0x50, 0xe8, 0x1d, 0x03, 0x04, 0x26, 0x4b, 0xde, 0x00, 0x3b,
  0xf4, 0x18, 0x4b, 0x4a, 0x20, 0x4c, 0xf8, 0x2d, 0xde, 0xb2, 0xfc, 0x40,
  0x10, 0xff, 0xc7, 0x1c, 0xf1, 0xb9, 0xff, 0x22, 0xd4, 0xc6, 0x3e, 0x5a,
  0xca, 0x5d, 0xf7, 0x24, 0xe7, 0x36, 0xb3, 0x52, 0xee, 0xe3, 0xbd, 0xe2,
  0x2a, 0x32, 0xff, 0x1c, 0x31, 0xca, 0x1c, 0x3a, 0xcc, 0x16, 0xe3, 0xcc,
  0xb5, 0x2c, 0xf9, 0xfb, 0x16, 0xbf, 0x03, 0x14, 0xff, 0xb8, 0x45, 0xc7,
  0x10, 0x25, 0xb5, 0x12, 0x42, 0xfd, 0x13, 0x38, 0xcf, 0xdf, 0x28, 0xcc,
  0xe1, 0x07, 0xc1, 0xd5, 0xd9, 0x1a, 0x58, 0xcb, 0x3e, 0xe4, 0xe0, 0xff,
  0xe2, 0x36, 0x0c, 0xca, 0x27, 0x44, 0x51, 0x0d, 0x54, 0x40, 0xd2, 0xc0,
  0xd9, 0x51, 0xfb, 0x31, 0x0c, 0x63, 0x4a, 0x5a, 0xfe, 0xe3, 0xe1, 0xf6,
  0x43, 0x03, 0xff, 0xd7, 0x2b, 0x59, 0xd5, 0x0a, 0xcb, 0x41, 0xfc, 0x1c,
  0x07, 0x33, 0xc1, 0x53, 0xe8, 0x06, 0x37, 0xf0, 0x4d, 0x2e, 0x05, 0x13,
  0xef, 0x6a, 0x04, 0xe7, 0x11, 0x30, 0xdf, 0xd3, 0xcf, 0x69, 0x0e, 0x46,
  0x04, 0x53, 0xb7, 0x3d, 0x22, 0x60, 0x27, 0x3a, 0xc6, 0xee, 0xd5, 0xfa,
  0xfc, 0x21, 0x44, 0xce, 0x5d, 0x24, 0xcb, 0x30, 0xc2, 0x3f, 0x5e, 0xf8,
  0x27, 0xd4, 0xe0, 0xb0, 0x47, 0xa0, 0x21, 0xcc, 0xfb, 0xb2, 0xe4, 0xe8,
  0x0d, 0x0e, 0x2a, 0xcf, 0x2f, 0xc7, 0x0a, 0x08, 0x48, 0x9d, 0xe8, 0xe7,
  0xd7, 0xda, 0xd5, 0x93, 0x2f, 0x95, 0xcd, 0x92, 0xc1, 0x9c, 0xf5, 0x9c,
  0xbd, 0xec, 0xc4, 0xa2, 0xf8, 0xa8, 0x41, 0x0a, 0xd6, 0xbf, 0x29, 0xc3,
  0xc5, 0xe5, 0x27, 0x36, 0xd3, 0x03, 0xf9, 0x2b, 0xec, 0x33, 0xef, 0x04,
  0xef, 0x47, 0x51, 0xf5, 0x4a, 0xf3, 0x09, 0xd9, 0xf3, 0x29, 0x04, 0x2b,
  0x2d, 0x4d, 0xeb, 0xd3, 0xd0, 0xfe, 0xe4, 0xfc, 0x31, 0x38, 0xe6, 0x17,
  0x11, 0xe1, 0x1a, 0x0f, 0x1c, 0xda, 0xc7, 0x07, 0xd9, 0x87, 0x2a, 0x89,
  0x2f, 0x02, 0xfe, 0xb0, 0x03, 0x90, 0xd9, 0xed, 0x2c, 0xe9, 0xca, 0xba,
  0xf7, 0x9d, 0xeb, 0x19, 0x0a, 0xc1, 0xd4, 0x1c, 0x07, 0x3c, 0x0d, 0xc2,
  0x4c, 0x3c, 0x46, 0x17, 0x03, 0xbb, 0x4d, 0x1d, 0x27, 0x20, 0x26, 0xd6,
  0xe2, 0x14, 0x13, 0x51, 0x61, 0x02, 0xf5, 0xe0, 0x1e, 0x31, 0x07, 0xf1,
  0xc9, 0x0a, 0xc8, 0xfb, 0xd6, 0x3f, 0x53, 0xf0, 0xf9, 0x06, 0x1b, 0x1b,
  0x16, 0x0c, 0xdd, 0x1a, 0x46, 0x77, 0x01, 0xed, 0x4d, 0xf5, 0xdd, 0x05,
  0x2c, 0x4f, 0x03, 0x01, 0xf8, 0x1e, 0x1d, 0x12, 0x15, 0x42, 0xff, 0xee,
  0x3d, 0x08, 0x0c, 0xb9, 0x2c, 0x12, 0xdd, 0x36, 0xfe, 0xce, 0xf6, 0xad,
  0x2f, 0xcc, 0x3e, 0xf6, 0x16, 0x2e, 0x4a, 0xa1, 0xf1, 0xd1, 0xd4, 0x26,
  0xe3, 0xa2, 0xc4, 0xba, 0xeb, 0x29, 0xda, 0x3a, 0xfa, 0xed, 0xd7, 0x00,
  0x00, 0xee, 0x56, 0x25, 0xce, 0xc0, 0x35, 0x09, 0x45, 0xf4, 0xba, 0x34,
  0x36, 0x28, 0x4a, 0xf6, 0xcb, 0x1f, 0x2a, 0xef, 0xb7, 0xc4, 0xf5, 0x13,
  0x17, 0x1a, 0x49, 0xdd, 0xf4, 0x4c, 0x31, 0x43, 0x23, 0x0d, 0xc7, 0x4c,
  0x46, 0xf2, 0xd7, 0x57, 0x1c, 0xe5, 0xf9, 0x20, 0x0c, 0xe9, 0xda, 0x45,
  0x2e, 0xbd, 0x01, 0x4f, 0x0a, 0xfb, 0xb1, 0xdb, 0xf9, 0x51, 0x03, 0xf5,
  0xe7, 0x55, 0x0c, 0x47, 0x11, 0x36, 0xe8, 0x02, 0x47, 0xd4, 0x4c, 0x2d,
  0xfb, 0x1a, 0x27, 0xc9, 0xe7, 0x0a, 0x0f, 0x0c, 0x0f, 0xd2, 0xe3, 0xc8,
  0x00, 0x47, 0xfe, 0x05, 0xc0, 0x29, 0xe5, 0xe9, 0xf7, 0xe8, 0xec, 0xd8,
  0xcc, 0xc4, 0xb5, 0x2d, 0xcf, 0xe4, 0x44, 0x24, 0x02, 0xc4, 0x05, 0x29,
  0x40, 0x22, 0xeb, 0x06, 0xe5, 0x4e, 0xfa, 0x03, 0x12, 0xdf, 0xe8, 0x36,
  0x0a, 0x44, 0x33, 0x4e, 0xde, 0x20, 0x33, 0xcf, 0x01, 0xfc, 0x25, 0x0c,
  0xc4, 0x57, 0x37, 0x1d, 0x16, 0xdd, 0x3c, 0x12, 0xd5, 0xca, 0xd9, 0x39,
  0x41, 0x39, 0x52, 0xd3, 0xf2, 0xfd, 0x1e, 0xea, 0x33, 0x2b, 0xde, 0x1e,
  0x5f, 0xc7, 0xce, 0x1e, 0x51, 0x99, 0x15, 0x23, 0xe0, 0xda, 0x16, 0x14,
  0x56, 0xdf, 0xfe, 0x13, 0x1c, 0xf2, 0x42, 0xc0, 0xde, 0x13, 0xde, 0x2c,
  0xe0, 0x11, 0xd7, 0xc6, 0x23, 0x9c, 0xc4, 0xe3, 0xe4, 0xa3, 0x09, 0xad,
  0x01, 0xd6, 0xac, 0xd2, 0xf8, 0xdf, 0xb8, 0xf9, 0xc0, 0x28, 0x1e, 0xbc,
  0x32, 0x3f, 0xaf, 0x57, 0x0a, 0xc7, 0x14, 0xfc, 0xa9, 0x2b, 0xb1, 0x4a,
  0xbb, 0x13, 0xc8, 0xd2, 0x19, 0x52, 0x2d, 0x54, 0xd6, 0x17, 0xe4, 0x37,
  0x03, 0x19, 0xff, 0xc4, 0x03, 0x50, 0x05, 0xfe, 0xf6, 0xd5, 0xcc, 0xec,
  0xc6, 0x1d, 0x0b, 0x58, 0xb5, 0x16, 0xfe, 0x5d, 0xf1, 0x21, 0xf2, 0x19,
  0x07, 0xf2, 0xdb, 0x4a, 0x11, 0x19, 0x50, 0xd5, 0xf1, 0x20, 0xbb, 0x55,
  0x01, 0xf3, 0x3a, 0xbf, 0x51, 0x1c, 0x4c, 0x52, 0x38, 0xc9, 0xef, 0x3f,
  0x2d, 0xc6, 0x0a, 0x36, 0x47, 0xce, 0xce, 0x07, 0x4f, 0xe6, 0xd9, 0x0b,
  0xec, 0x29, 0xb9, 0xd8, 0x0b, 0xd8, 0x1e, 0xfe, 0xba, 0x2a, 0x1d, 0x38,
  0x20, 0xc7, 0x06, 0xde, 0x3e, 0x10, 0x0e, 0xb0, 0x22, 0xf7, 0xbf, 0xdc,
  0xd6, 0x3a, 0xf3, 0xea, 0x2b, 0x2e, 0xca, 0x2d, 0xd7, 0x3f, 0xcf, 0xd7,
  0x19, 0x1c, 0xe9, 0xbd, 0xea, 0xe6, 0x14, 0xdc, 0xe4, 0xdd, 0x1f, 0xbd,
  0x17, 0x13, 0x2c, 0x2e, 0x14, 0x05, 0x3a, 0xd5, 0xcd, 0x36, 0xe8, 0xcf,
  0x41, 0x00, 0xf3, 0xdc, 0xc5, 0xf8, 0xca, 0x00, 0x08, 0x03, 0xea, 0x30,
  0xde, 0x29, 0x27, 0xdf, 0xab, 0xe1, 0xde, 0xcd, 0x17, 0xdc, 0x1c, 0xfe,
  0x18, 0x13, 0xc7, 0xf4, 0x3b, 0x25, 0xec, 0x3f, 0xaf, 0x4f, 0xee, 0xd4,
  0xb4, 0xc3, 0xc7, 0xad, 0xbf, 0xe5, 0x24, 0x30, 0xd1, 0x14, 0xbe, 0x08,
  0xbf, 0xfb, 0x09, 0xcf, 0xc9, 0x91, 0x30, 0xa3, 0x4b, 0x1f, 0xd0, 0xd6,
  0xe0, 0x9b, 0xdd, 0xd5, 0xbe, 0xbf, 0x0d, 0xe8, 0xa8, 0x88, 0x45, 0xa3,
  0x45, 0x1e, 0x3d, 0xd8, 0xb7, 0x09, 0x12, 0x35, 0xc5, 0x1a, 0xc8, 0xb4,
  0xc4, 0x37, 0x02, 0x49, 0x10, 0xb2, 0x39, 0x1d, 0xfe, 0x4d, 0xc8, 0x5f,
  0x0f, 0x23, 0x42, 0x33, 0xe4, 0x53, 0x38, 0x37, 0xdb, 0xfe, 0xde, 0x22,
  0x1b, 0x15, 0xc3, 0x16, 0xb4, 0x46, 0xda, 0x73, 0x38, 0xf6, 0xb6, 0x53,
  0x2b, 0xe7, 0x45, 0x74, 0x24, 0xea, 0xfb, 0x02, 0x09, 0xfd, 0xd8, 0x19,
  0xe8, 0xef, 0xe1, 0x0c, 0xc7, 0x23, 0x07, 0xf1, 0x1e, 0xdd, 0x20, 0xc5,
  0x10, 0xe2, 0xdd, 0xbc, 0xd6, 0xb4, 0x14, 0xf5, 0x3c, 0xd7, 0xea, 0xe1,
  0x39, 0xea, 0x1b, 0x14, 0xf1, 0x1c, 0x24, 0xfd, 0xc1, 0xc5, 0x34, 0xb8,
  0xe7, 0xb2, 0xf4, 0xf6, 0x0b, 0x26, 0x2c, 0xbe, 0x18, 0x93, 0x44, 0xb8,
  0xee, 0x23, 0xc7, 0x25, 0xca, 0x9b, 0x2f, 0xfb, 0xdd, 0xd7, 0x4c, 0xce,
  0xee, 0xdb, 0xe7, 0x13, 0xe7, 0x10, 0x47, 0xc5, 0xd6, 0xc2, 0x34, 0x01,
  0x50, 0xb5, 0xe2, 0xb2, 0xf0, 0xb8, 0xc3, 0x19, 0xe2, 0xa1, 0xbb, 0xb2,
  0x56, 0x0f, 0xea, 0x20, 0x4f, 0xcf, 0xc4, 0xe3, 0xfe, 0xb6, 0xb8, 0xac,
  0xc1, 0xc6, 0xfe, 0xb2, 0x16, 0x29, 0xbb, 0xee, 0xc8, 0xd5, 0x2e, 0x23,
  0xd3, 0xe5, 0xce, 0xf4, 0xc8, 0x1b, 0xe1, 0x40, 0x3b, 0x31, 0xd3, 0x59,
  0xe5, 0xf2, 0xf6, 0x00, 0x31, 0x67, 0x3c, 0xe7, 0x5a, 0xc9, 0x15, 0x0f,
  0x4a, 0xc9, 0x17, 0x27, 0x71, 0xd3, 0x3d, 0xd4, 0x46, 0x21, 0x29, 0xc3,
  0x1b, 0x24, 0x52, 0x37, 0xf1, 0xa9, 0x76, 0xdd, 0x14, 0x0a, 0x46, 0x03,
  0x13, 0x2a, 0x6b, 0xd4, 0x5c, 0xaa, 0xe5, 0xf5, 0x69, 0xaf, 0x57, 0xb4,
  0x0f, 0x36, 0xcd, 0x9f, 0xdc, 0xfc, 0x4d, 0x23, 0xd2, 0x1c, 0x2c, 0x13,
  0x0b, 0x15, 0xf8, 0xf6, 0xd0, 0x32, 0x22, 0xd8, 0xf5, 0xcb, 0xe0, 0xb3,
  0x0e, 0xc0, 0x95, 0x29, 0xea, 0xcc, 0x9d, 0xc2, 0x88, 0xf6, 0x23, 0x39,
  0x9f, 0x09, 0xfe, 0xeb, 0xcd, 0x21, 0x22, 0x55, 0xd1, 0xc7, 0x8b, 0x2d,
  0xc6, 0xe6, 0x1b, 0x3f, 0xa5, 0xc3, 0x99, 0xff, 0xbb, 0xc6, 0xba, 0xcc,
  0xaa, 0x16, 0xbe, 0x2d, 0x1d, 0x35, 0x18, 0xe7, 0x13, 0x1f, 0xa7, 0xe9,
  0x25, 0x41, 0xcb, 0xba, 0x8a, 0xba, 0xb9, 0x13, 0xad, 0xf8, 0xa1, 0xd1,
  0xb2, 0xf2, 0x15, 0xdb, 0x03, 0xcb, 0x00, 0xd5, 0x2f, 0x34, 0xf3, 0xf6,
  0xff, 0x1f, 0xe3, 0x22, 0xde, 0x2b, 0xdf, 0xce, 0xc5, 0x1e, 0x19, 0x9f,
  0x16, 0xf9, 0xba, 0x3a, 0xbd, 0xa6, 0x39, 0xfa, 0x08, 0xde, 0xf3, 0x29,
  0xdb, 0x18, 0x1c, 0x9b, 0x38, 0xc0, 0xa8, 0xac, 0xda, 0xce, 0xbe, 0xc7,
  0xf9, 0xfc, 0xf7, 0xe7, 0x27, 0xc0, 0x3c, 0x13, 0xce, 0x02, 0xcf, 0x9f,
  0xb7, 0xbd, 0x19, 0xab, 0xe6, 0xf9, 0x45, 0xc0, 0xec, 0xa7, 0xcf, 0x14,
  0xce, 0xe6, 0x0e, 0xc7, 0xed, 0x29, 0xef, 0xa1, 0xe2, 0xaf, 0xbb, 0xff,
  0xd9, 0x1a, 0xed, 0xf5, 0x33, 0xed, 0xc4, 0xdf, 0xfa, 0x04, 0xc6, 0xbc,
  0x04, 0x48, 0xe1, 0x0c, 0xb5, 0x23, 0xa2, 0xee, 0x03, 0x1d, 0xe7, 0xdf,
  0xfb, 0x3d, 0xc4, 0xd6, 0xb3, 0xcb, 0xbf, 0xda, 0xfb, 0xc6, 0x30, 0x10,
  0x00, 0xe7, 0xd6, 0xfb, 0x40, 0xea, 0x12, 0x15, 0xc4, 0xf2, 0x4a, 0xba,
  0xe4, 0x34, 0x14, 0x1c, 0xce, 0x27, 0x22, 0x18, 0xcb, 0xd8, 0xe6, 0xbc,
  0xcf, 0x49, 0x0b, 0xb8, 0x08, 0x3a, 0xdc, 0xeb, 0xc3, 0x28, 0x02, 0x44,
  0x4a, 0xb2, 0xc7, 0xb0, 0xc6, 0xf4, 0x26, 0xd2, 0xd9, 0xdf, 0x1d, 0xe9,
  0xcd, 0xc0, 0x3b, 0x34, 0x54, 0x62, 0xe6, 0x4d, 0x46, 0x64, 0xd1, 0xf1,
  0x32, 0xf6, 0x32, 0x21, 0xf1, 0x4a, 0xca, 0x65, 0x23, 0xd5, 0xe8, 0x38,
  0xb8, 0xde, 0x4f, 0xf7, 0x25, 0x6f, 0x3d, 0x05, 0xec, 0xdf, 0xc4, 0x02,
  0x4c, 0x32, 0x2a, 0x23, 0x0c, 0x0d, 0x22, 0x75, 0x58, 0x79, 0xc8, 0x47,
  0x04, 0xfb, 0xcf, 0x61, 0xde, 0x72, 0x0e, 0x0f, 0xf6, 0x4a, 0xf1, 0x30,
  0xd2, 0xf3, 0x01, 0x00, 0x39, 0x20, 0x37, 0xdc, 0x59, 0xd9, 0x3d, 0x21,
  0xe4, 0x07, 0x01, 0x3e, 0xd7, 0xcb, 0x5f, 0x40, 0xfa, 0xf6, 0xfd, 0xf3,
  0xda, 0xe5, 0xe2, 0xb0, 0x0b, 0x9b, 0x51, 0xe5, 0x2d, 0x0b, 0xe0, 0xa4,
  0x1d, 0xb0, 0x08, 0xec, 0xe9, 0xdf, 0x34, 0x95, 0xc1, 0x00, 0x4d, 0xa4,
  0x4f, 0xfd, 0xc4, 0x89, 0x11, 0xf9, 0x4c, 0xae, 0x0a, 0xb0, 0x3b, 0xaf,
  0xc3, 0x94, 0x34, 0x05, 0xda, 0x1b, 0x41, 0xdc, 0xbb, 0xbb, 0x39, 0x37,
  0xe9, 0x01, 0xe1, 0xff, 0x1e, 0xa7, 0x4e, 0x0c, 0xc3, 0x2b, 0xd8, 0xf6,
  0x2a, 0xc4, 0x24, 0x27, 0xf5, 0x40, 0x47, 0xff, 0xf5, 0x41, 0x18, 0xed,
  0x5c, 0xb2, 0x58, 0xca, 0xd7, 0xe8, 0xf2, 0xe8, 0xf8, 0xd7, 0xd6, 0x2c,
  0x1c, 0xb8, 0x23, 0xff, 0xe8, 0xc3, 0x2a, 0x39, 0xf9, 0xe3, 0x11, 0xda,
  0x1b, 0x0c, 0x09, 0xb5, 0xe4, 0xe7, 0x49, 0x25, 0xf7, 0x05, 0xf4, 0xcf,
  0x3c, 0xd7, 0x52, 0xf3, 0xe2, 0xe5, 0x14, 0x04, 0xec, 0xdb, 0xf1, 0x42,
  0x35, 0x1b, 0xee, 0x44, 0x2f, 0x0e, 0xe2, 0x32, 0xc6, 0x54, 0x2b, 0x2f,
  0xe5, 0xdc, 0x2a, 0xea, 0xd0, 0x2a, 0x31, 0xcf, 0xf4, 0x3b, 0x53, 0x5a,
  0xf6, 0x38, 0x27, 0x67, 0x3a, 0x5c, 0x4d, 0x29, 0xb2, 0x5e, 0xf8, 0x66,
  0xd1, 0x26, 0x02, 0x34, 0x1b, 0x63, 0xb4, 0x5b, 0xd7, 0x18, 0x36, 0xfb,
  0xce, 0x39, 0xc3, 0xdc, 0xaa, 0x46, 0xf6, 0xf5, 0xdc, 0x20, 0x33, 0x3f,
  0x42, 0xee, 0xd3, 0xbe, 0x0d, 0x29, 0x41, 0x18, 0x24, 0xe1, 0x32, 0xd2,
  0xfe, 0x26, 0xd2, 0xd7, 0x13, 0x02, 0xe8, 0xcf, 0xa2, 0x27, 0xad, 0xdb,
  0xb1, 0x29, 0xee, 0xcb, 0xbc, 0x18, 0xe3, 0xd3, 0xfd, 0xd5, 0xe3, 0x28,
  0xd7, 0x1b, 0xc9, 0xca, 0xc2, 0x29, 0xd5, 0x40, 0x2d, 0x11, 0x07, 0xb4,
  0xbe, 0x29, 0x18, 0x06, 0xc6, 0xca, 0x18, 0x38, 0x1a, 0xe2, 0xc5, 0xe3,
  0xb8, 0xf1, 0xcc, 0xe2, 0x02, 0xe7, 0xcc, 0xe9, 0xc9, 0xed, 0xe2, 0xfa,
  0x2b, 0x3f, 0xee, 0x3a, 0x0f, 0x22, 0xc3, 0x44, 0xeb, 0xf9, 0xc3, 0x4d,
  0x00, 0x27, 0xc9, 0xca, 0x48, 0x0b, 0x08, 0xbf, 0x3e, 0x2f, 0x33, 0x20,
  0x0f, 0xfa, 0xb9, 0xbf, 0xd8, 0x32, 0xc6, 0xb8, 0x47, 0xec, 0xe7, 0xb9,
  0x2f, 0x19, 0xd7, 0xf2, 0xfd, 0x4a, 0xd5, 0x58, 0xea, 0xff, 0xb9, 0xff,
  0x24, 0x1b, 0x4b, 0xbd, 0x1f, 0x58, 0x11, 0xf4, 0xf5, 0x49, 0xb3, 0xe1,
  0xcb, 0xcf, 0xb7, 0xe1, 0x07, 0x47, 0xe2, 0x32, 0x20, 0x10, 0x48, 0xdd,
  0xc9, 0x1e, 0xc4, 0x2d, 0x06, 0xac, 0xfb, 0x22, 0x26, 0x37, 0x50, 0xea,
  0xec, 0x32, 0xc6, 0x2f, 0x3e, 0xe2, 0xf4, 0xed, 0x0d, 0x24, 0x07, 0x16,
  0xc0, 0x4b, 0xaf, 0x26, 0x27, 0xc0, 0xf4, 0x0b, 0xaf, 0x41, 0xc4, 0x2f,
  0xb2, 0x0b, 0xda, 0x43, 0xe8, 0xcd, 0xd7, 0xff, 0xfb, 0x32, 0xe0, 0xc6,
  0xdd, 0xe1, 0x31, 0x2a, 0xaa, 0x0b, 0x29, 0x09, 0xc4, 0x50, 0xec, 0xfc,
  0x32, 0xee, 0x0d, 0x5c, 0xf2, 0xc8, 0x27, 0xcf, 0xfb, 0xbe, 0xe7, 0xd6,
  0xd0, 0xc7, 0xf1, 0x24, 0x18, 0xf2, 0xf0, 0xef, 0xe9, 0xc0, 0xe6, 0xc0,
  0xf4, 0xf1, 0x19, 0xbb, 0x08, 0x42, 0x07, 0xdf, 0x37, 0x3e, 0x1c, 0x48,
  0x00, 0x05, 0x3f, 0x11, 0xc8, 0xcf, 0x00, 0x35, 0x31, 0xc0, 0x0e, 0xce,
  0xda, 0x07, 0xf6, 0x1c, 0xbf, 0xfb, 0xd1, 0xe1, 0xaf, 0xce, 0x0a, 0x3a,
  0x37, 0xd0, 0x39, 0xb7, 0x0b, 0x3b, 0xe0, 0x40, 0x0f, 0x0d, 0xd4, 0xbe,
  0x0d, 0xc5, 0x4b, 0xc5, 0xec, 0x2d, 0x35, 0xc3, 0x04, 0x48, 0x25, 0x37,
  0x00, 0xe0, 0xf4, 0xdd, 0xc7, 0x3b, 0x3a, 0xdd, 0xf3, 0xb7, 0xe4, 0x49,
  0xd4, 0xe7, 0x17, 0x33, 0xeb, 0xeb, 0x12, 0xb2, 0xed, 0x0c, 0x12, 0xfb,
  0xb0, 0xd3, 0x1b, 0x36, 0x29, 0xe9, 0x2b, 0xdd, 0x44, 0xe3, 0x2f, 0x33,
  0x3c, 0xaf, 0x2e, 0xac, 0x2f, 0xe0, 0x0d, 0x08, 0x42, 0xc1, 0x29, 0xd3,
  0xbf, 0xf1, 0xd0, 0x06, 0x28, 0x3e, 0xfb, 0x28, 0x01, 0xe1, 0x40, 0x45,
  0x3f, 0x06, 0x3f, 0x45, 0xb8, 0x36, 0x3b, 0xcd, 0xdc, 0x2f, 0x3b, 0xf5,
  0xac, 0xc6, 0xf1, 0x3d, 0xaf, 0xbf, 0xb5, 0x20, 0x04, 0x06, 0xd6, 0xcc,
  0xdc, 0xba, 0xba, 0x47, 0x46, 0x3f, 0x25, 0xfa, 0xdf, 0xd5, 0x29, 0xec,
  0x45, 0x10, 0xd3, 0x2f, 0xfa, 0xdd, 0x24, 0x17, 0x3a, 0x1b, 0x49, 0x28,
  0x36, 0x4c, 0xde, 0xc6, 0xc6, 0xc8, 0x4d, 0xc4, 0xce, 0x04, 0xe6, 0x57,
  0x1b, 0xfb, 0xdd, 0xd1, 0x44, 0x3f, 0x0d, 0xff, 0x2e, 0xf5, 0x46, 0xe0,
  0x02, 0x6f, 0x11, 0xda, 0xf9, 0xfc, 0xd6, 0xed, 0xdb, 0xd9, 0xf1, 0xdb,
  0xdc, 0x2b, 0xd4, 0x43, 0x0c, 0x4d, 0x22, 0xe9, 0xbd, 0x1d, 0x1f, 0xe6,
  0x28, 0xdc, 0xac, 0x43, 0x34, 0x66, 0xbb, 0x6c, 0x1e, 0x28, 0x02, 0x04,
  0x38, 0xfe, 0xd8, 0x35, 0xef, 0x42, 0xb9, 0x44, 0x01, 0x3a, 0xb4, 0x47,
  0xf6, 0xfc, 0xc8, 0x55, 0xd4, 0xe2, 0xd3, 0x0a, 0x46, 0xdf, 0xee, 0xcf,
  0xcb, 0xc8, 0x2e, 0xcc, 0x27, 0xda, 0xe5, 0x15, 0xe2, 0xff, 0xc9, 0xf7,
  0x12, 0xf3, 0x37, 0x2a, 0xd6, 0xb4, 0x28, 0x0f, 0xd4, 0xce, 0x44, 0xf0,
  0x41, 0x16, 0x05, 0xcb, 0xe3, 0xdf, 0x45, 0xef, 0xf0, 0xf0, 0xeb, 0xf1,
  0x36, 0x0e, 0xb8, 0x45, 0x3e, 0x19, 0xd4, 0x18, 0x39, 0x21, 0x31, 0xf4,
  0x1c, 0xb6, 0x07, 0xcb, 0xe3, 0x49, 0x1d, 0xc1, 0x3d, 0x29, 0xe7, 0x0d,
  0xe7, 0x45, 0x0a, 0x41, 0x20, 0xf0, 0x00, 0x22, 0x36, 0xf6, 0xde, 0xf3,
  0xbb, 0xb7, 0xf8, 0xfb, 0x4e, 0x09, 0x50, 0x08, 0xc4, 0x10, 0xca, 0x02,
  0x13, 0x36, 0x3d, 0x55, 0xd1, 0x2d, 0xdd, 0x18, 0xe1, 0x07, 0x21, 0x42,
  0xe3, 0x13, 0xed, 0xcf, 0xb3, 0xdd, 0xd8, 0x50, 0x0f, 0x37, 0x40, 0xd1,
  0x23, 0xea, 0x1b, 0x0c, 0xbc, 0x1c, 0x24, 0xd9, 0x14, 0xeb, 0x32, 0xbe,
  0xbf, 0xe5, 0xb2, 0x0a, 0x3f, 0xbb, 0x36, 0x29, 0xb6, 0x45, 0xb8, 0x42,
  0xd5, 0xde, 0xb8, 0xc9, 0xaf, 0xf9, 0xb6, 0xfb, 0x1a, 0x2f, 0x28, 0xcb,
  0x31, 0xea, 0xaa, 0x3d, 0x43, 0xc8, 0x06, 0x1e, 0xe8, 0x2a, 0x41, 0xb7,
  0x23, 0x37, 0x28, 0xda, 0x1c, 0xf8, 0x44, 0xd2, 0x4a, 0x43, 0xe7, 0x42,
  0xed, 0xd5, 0xf2, 0xaf, 0x2b, 0xdd, 0x18, 0x08, 0x2f, 0xc2, 0x28, 0x33,
  0xf7, 0xca, 0x41, 0x2c, 0xec, 0xdc, 0x3e, 0xcc, 0xe8, 0xef, 0x35, 0xea,
  0x19, 0x15, 0x22, 0xc3, 0xbb, 0x44, 0x2e, 0x2e, 0x26, 0x02, 0x3c, 0x1d,
  0xc7, 0x31, 0xc2, 0xf6, 0x2a, 0xc9, 0x09, 0x20, 0xb7, 0x0a, 0xf8, 0xef,
  0xb7, 0x24, 0x33, 0x46, 0x1a, 0xdd, 0x16, 0x2c, 0xc5, 0x01, 0xd5, 0x5b,
  0x23, 0xe3, 0x14, 0x21, 0x43, 0x41, 0x05, 0x0a, 0xbb, 0xef, 0x42, 0x2b,
  0x30, 0x16, 0x0f, 0x4c, 0x1f, 0x31, 0xd3, 0x48, 0xce, 0xcd, 0x13, 0x30,
  0x13, 0xb8, 0xe2, 0xd7, 0x1b, 0x24, 0x21, 0xd3, 0xc9, 0xd0, 0xdd, 0x3b,
  0xb8, 0xc7, 0x40, 0x4c, 0x33, 0xb3, 0xc1, 0x07, 0x3c, 0x28, 0x1d, 0x48,
  0xf8, 0xc5, 0xe3, 0x1f, 0xe2, 0xab, 0xb7, 0x10, 0x34, 0x0b, 0x4a, 0x3f,
  0xd0, 0x03, 0xcf, 0xbe, 0xf2, 0xd7, 0xe9, 0x45, 0xe2, 0xe2, 0x23, 0x03,
  0x34, 0x29, 0x07, 0xa8, 0x3f, 0xfb, 0xac, 0x26, 0xff, 0xc2, 0x1c, 0x43,
  0x16, 0x10, 0xe0, 0x0b, 0x28, 0xad, 0xdc, 0xba, 0x06, 0xb5, 0xda, 0x07,
  0x25, 0x0f, 0x3c, 0x38, 0x34, 0x25, 0xc9, 0x0b, 0x2d, 0xf4, 0xf6, 0x10,
  0x3c, 0xde, 0x1f, 0xed, 0x48, 0x43, 0xe0, 0xf0, 0xe9, 0xbf, 0x29, 0xfd,
  0xe3, 0x2f, 0xf9, 0x2e, 0x3c, 0xb0, 0x24, 0x35, 0x38, 0xc2, 0xd6, 0xd1,
  0x31, 0x31, 0xba, 0x13, 0xf0, 0xe3, 0x46, 0xd8, 0xd4, 0xdd, 0xa9, 0x49,
  0xc9, 0x20, 0x19, 0x2b, 0xdf, 0xc2, 0xfb, 0xff, 0xf0, 0xfb, 0xea, 0xf1,
  0x41, 0xd1, 0x32, 0xe9, 0xd9, 0xe3, 0xe6, 0x39, 0x41, 0x2f, 0x04, 0x0a,
  0x65, 0xbc, 0x44, 0x2b, 0x74, 0xf2, 0xe6, 0x34, 0x3b, 0x3a, 0x35, 0xf6,
  0xd8, 0x0f, 0x62, 0xf8, 0x74, 0x1a, 0x62, 0xbd, 0x73, 0x31, 0x49, 0xd4,
  0x37, 0xb0, 0x24, 0x1a, 0x50, 0xfc, 0x06, 0xbd, 0xe3, 0x02, 0xd7, 0x2b,
  0xf8, 0xb3, 0x13, 0xac, 0x58, 0x2c, 0x1c, 0xc0, 0x01, 0x2b, 0x32, 0x0f,
  0x4f, 0xcf, 0x00, 0xc9, 0x02, 0x11, 0x2a, 0xcd, 0x1e, 0x01, 0x0a, 0xdf,
  0x33, 0x47, 0x0d, 0x56, 0x14, 0x1f, 0xfb, 0x28, 0x28, 0x06, 0x21, 0x27,
  0xff, 0xf7, 0xc4, 0x14, 0x9c, 0x1b, 0x2f, 0xef, 0x9f, 0x69, 0xfd, 0x0e,
  0xbd, 0xec, 0xa5, 0x6e, 0xaa, 0xd3, 0xae, 0x2e, 0xd3, 0x26, 0xe6, 0x3f,
  0xea, 0x2b, 0x2d, 0x40, 0xc1, 0x4f, 0x31, 0x64, 0x2c, 0x43, 0x24, 0x2c,
  0xd7, 0xfa, 0x46, 0xda, 0xd9, 0x63, 0x04, 0xf7, 0xf6, 0x25, 0x17, 0x2e,
  0xfa, 0x46, 0x18, 0xc7, 0x1f, 0xd7, 0x47, 0x18, 0xe0, 0xdf, 0xeb, 0xbc,
  0x1d, 0x15, 0x4f, 0xc2, 0xfa, 0x31, 0xc2, 0x00, 0x2a, 0x16, 0xca, 0x0c,
  0x32, 0x20, 0x3f, 0xd2, 0x0e, 0x9a, 0x2e, 0x2e, 0x37, 0xd3, 0x06, 0xe9,
  0x00, 0x2d, 0xb6, 0x98, 0x1a, 0x33, 0x43, 0xbe, 0x31, 0xd8, 0x25, 0x1d,
  0xae, 0x2b, 0xe8, 0x21, 0xe1, 0x9c, 0xb6, 0xe5, 0x4c, 0xdf, 0xfd, 0x2f,
  0xfd, 0xb9, 0x50, 0x39, 0xfd, 0xc7, 0xf6, 0x09, 0xc8, 0xba, 0x47, 0x07,
  0xfe, 0xa0, 0x2f, 0xd5, 0xe9, 0xb9, 0x23, 0x05, 0x4a, 0x0a, 0xd8, 0xfb,
  0x23, 0x1f, 0xc2, 0xf6, 0x1b, 0x33, 0xe3, 0xba, 0x33, 0xc5, 0xed, 0xd6,
  0xd1, 0x1f, 0xf4, 0x17, 0xef, 0x25, 0xbf, 0x48, 0x32, 0x51, 0xd5, 0xd9,
  0xb3, 0xff, 0x2e, 0xdb, 0x1c, 0xce, 0xe6, 0xc6, 0x0b, 0x5d, 0x2b, 0x45,
  0xfe, 0xe9, 0xbb, 0x50, 0x08, 0xbd, 0x23, 0xe8, 0x22, 0x4b, 0xbb, 0x02,
  0xe0, 0xbf, 0x0a, 0x36, 0xea, 0xf3, 0xa6, 0x45, 0xf5, 0x28, 0xd4, 0x47,
  0xbd, 0x32, 0xff, 0x0d, 0xb6, 0xd2, 0x17, 0x0a, 0xcc, 0x08, 0xee, 0x03,
  0x28, 0x09, 0xb1, 0xa5, 0x18, 0xac, 0x04, 0xe7, 0x20, 0xd3, 0x06, 0x28,
  0xdd, 0xfe, 0xe1, 0xa9, 0x0c, 0x09, 0xf7, 0xf0, 0xba, 0xb9, 0xa9, 0x1d,
  0xaa, 0x1e, 0x27, 0xcd, 0xd7, 0x32, 0xaf, 0xce, 0xd1, 0x13, 0x35, 0xe4,
  0x1d, 0x20, 0x21, 0x00, 0xcd, 0x15, 0x3c, 0xcd, 0xed, 0x12, 0x22, 0x03,
  0x13, 0xf9, 0x5b, 0x2c, 0xe3, 0xe6, 0x08, 0x45, 0xf1, 0xc3, 0xf9, 0x19,
  0xbd, 0xbe, 0xeb, 0x51, 0x1b, 0x2b, 0x0e, 0x50, 0x57, 0xf7, 0x35, 0x2d,
  0xbc, 0x18, 0xd5, 0x3d, 0x30, 0xe2, 0xc6, 0xd2, 0xfe, 0xd3, 0x59, 0x43,
  0xb7, 0xbc, 0xd5, 0x48, 0x1a, 0x3f, 0xb7, 0xcb, 0x10, 0x3a, 0x42, 0xf9,
  0xd5, 0x15, 0x35, 0xe4, 0x28, 0xde, 0xb7, 0xc8, 0x28, 0xae, 0xc7, 0xcc,
  0x0e, 0xfa, 0xd4, 0xfa, 0x0d, 0x36, 0x4e, 0xb2, 0xf3, 0xb7, 0x0b, 0x18,
  0x07, 0x20, 0xbe, 0x0e, 0x09, 0xf0, 0xee, 0x48, 0x1f, 0x15, 0xd3, 0x40,
  0xd0, 0xf1, 0x37, 0xd0, 0x3a, 0xae, 0x34, 0x2f, 0xcd, 0x07, 0x21, 0xf1,
  0x40, 0xe5, 0x53, 0xe7, 0x05, 0xb8, 0x49, 0x05, 0x06, 0x33, 0x16, 0xc3,
  0x24, 0x02, 0x2c, 0xca, 0xe3, 0xb2, 0x4c, 0x04, 0xcc, 0x3c, 0xef, 0xd0,
  0xce, 0x13, 0x58, 0x55, 0x5e, 0x17, 0x3d, 0xdf, 0x3c, 0xd3, 0xfd, 0xce,
  0x4c, 0x2e, 0x4e, 0xe0, 0x28, 0x00, 0xc1, 0x48, 0xc8, 0x3a, 0x4a, 0xe0,
  0x5c, 0x0c, 0x16, 0x41, 0xcb, 0xba, 0x19, 0x4d, 0x18, 0xc0, 0xea, 0x54,
  0x13, 0xc1, 0x18, 0x10, 0x08, 0x5c, 0xec, 0x53, 0x17, 0xfb, 0x3f, 0x3c,
  0x5c, 0x2c, 0x5b, 0x24, 0x46, 0x35, 0xcc, 0x06, 0x1a, 0xd2, 0x34, 0x4b,
  0x24, 0xcd, 0xf1, 0x38, 0xcf, 0x10, 0xe9, 0x2b, 0x1e, 0x24, 0x23, 0xf2,
  0x62, 0xf4, 0x50, 0x29, 0xce, 0xc0, 0xda, 0xf8, 0xc7, 0x1e, 0xd9, 0xe7,
  0x53, 0x04, 0xd1, 0x25, 0x3b, 0x0a, 0x33, 0x2b, 0xe1, 0x26, 0xca, 0xc0,
  0xbe, 0xde, 0xdb, 0xfa, 0xe2, 0x21, 0x28, 0xe3, 0xb8, 0xb7, 0xc8, 0x05,
  0x2a, 0xe0, 0xb3, 0xfd, 0xeb, 0x0f, 0x1d, 0xfe, 0xb8, 0xed, 0x29, 0xa6,
  0xae, 0xfc, 0x30, 0x99, 0xe1, 0x36, 0xfc, 0xb6, 0xfd, 0xfe, 0x11, 0xef,
  0x9a, 0x33, 0x10, 0xa9, 0x27, 0xb5, 0xda, 0xcd, 0xa2, 0xf3, 0x04, 0xda,
  0xc6, 0xe2, 0xd1, 0xeb, 0xce, 0x41, 0x99, 0xe8, 0xe0, 0x2e, 0xd2, 0x28,
  0xfc, 0xe6, 0xa2, 0xbd, 0xbe, 0x52, 0xa5, 0xc1, 0xf9, 0x09, 0xde, 0xf4,
  0xa9, 0xe1, 0xca, 0x57, 0xc9, 0x2f, 0x05, 0x5c, 0xb1, 0xd4, 0xf9, 0x32,
  0xc4, 0xfb, 0x19, 0x23, 0xd9, 0x47, 0xbb, 0xf1, 0x04, 0x02, 0xb9, 0x39,
  0x0e, 0x08, 0x39, 0xdf, 0xfa, 0x20, 0xed, 0x25, 0x3b, 0xd0, 0xe4, 0xf0,
  0xf0, 0x3d, 0x47, 0xd7, 0x38, 0xe5, 0x0a, 0x3e, 0x19, 0x3e, 0xbd, 0xe6,
  0x1b, 0x4a, 0xe2, 0x42, 0xe3, 0x53, 0x4a, 0x3b, 0x02, 0xcb, 0x3a, 0x4c,
  0x36, 0x3a, 0xe8, 0xcd, 0xef, 0xbf, 0x5f, 0x36, 0x3f, 0x38, 0x20, 0x48,
  0xcb, 0x04, 0x31, 0xd1, 0x10, 0x16, 0xeb, 0xd8, 0x45, 0x42, 0x2c, 0x48,
  0x35, 0x21, 0xc0, 0xe4, 0x1c, 0xf9, 0xba, 0xbb, 0x4c, 0x4b, 0x40, 0xd1,
  0x15, 0xe9, 0x09, 0x3e, 0x40, 0x2f, 0xf9, 0xcf, 0xe3, 0xce, 0x28, 0x03,
  0xdb, 0x0f, 0xde, 0xfc, 0xf0, 0xcd, 0x5b, 0x1d, 0xd9, 0x2f, 0x60, 0xb8,
  0x52, 0xd3, 0x26, 0xfa, 0xd9, 0xbd, 0x0c, 0x2b, 0x56, 0x19, 0x17, 0xd3,
  0xd6, 0x2f, 0x39, 0x26, 0x41, 0xd6, 0xf7, 0xc7, 0x67, 0xbd, 0x35, 0x97,
  0x15, 0xd2, 0x4c, 0xcd, 0xdd, 0xc6, 0x40, 0x94, 0xf3, 0x97, 0xfb, 0xa7,
  0x1f, 0x2b, 0xfd, 0x2d, 0x65, 0x15, 0xe0, 0xe5, 0xcf, 0x08, 0x19, 0xf4,
  0x5b, 0xa2, 0x3a, 0x0c, 0x4a, 0xd6, 0x30, 0xa0, 0xc2, 0xaa, 0xe3, 0xc8,
  0xf4, 0x3f, 0x0c, 0xf4, 0x1a, 0xe0, 0x16, 0x2a, 0xd9, 0xba, 0xe9, 0xaf,
  0xb1, 0x21, 0xf7, 0xcd, 0xf8, 0x12, 0x14, 0xf5, 0x3a, 0x39, 0xe0, 0xf8,
  0xb7, 0xd1, 0xaf, 0xce, 0xac, 0x29, 0xd8, 0xc2, 0x29, 0x4b, 0xbf, 0x3c,
  0xce, 0xc8, 0xe9, 0xdf, 0xe6, 0x1c, 0x22, 0x3c, 0x2f, 0x2b, 0xcd, 0xdd,
  0x0e, 0x41, 0xa7, 0x56, 0xa3, 0x1b, 0x02, 0x16, 0xc6, 0x0a, 0xbe, 0x3e,
  0x9a, 0x5b, 0xe0, 0x1a, 0xea, 0x48, 0x03, 0xdf, 0xa2, 0xf5, 0xf0, 0xfe,
  0xa5, 0x28, 0xc0, 0x2b, 0xc3, 0x3e, 0xf8, 0xdd, 0x18, 0x13, 0xf2, 0xf7,
  0xd3, 0xd3, 0xea, 0x4a, 0x51, 0xdb, 0xe5, 0x3f, 0xf7, 0xf9, 0xe3, 0x13,
  0x05, 0x10, 0x35, 0x59, 0x2d, 0xdc, 0x14, 0x3d, 0x00, 0xdd, 0xce, 0x10,
  0xf9, 0xec, 0xd6, 0x1b, 0xcf, 0xf2, 0xce, 0xbc, 0x04, 0x09, 0xef, 0xee,
  0xf1, 0xbf, 0x60, 0x30, 0xe8, 0xf2, 0xf6, 0x0c, 0x53, 0x34, 0xd8, 0xca,
  0xd4, 0x25, 0x22, 0x22, 0xfd, 0xe8, 0xe9, 0xf5, 0x08, 0x46, 0x23, 0xf6,
  0x0c, 0x2e, 0x35, 0xe4, 0xee, 0x48, 0x40, 0x26, 0xe7, 0x42, 0x0a, 0xf9,
  0xfd, 0xf6, 0xea, 0x4b, 0x3d, 0xd9, 0x25, 0x28, 0x2b, 0xea, 0x00, 0x3f,
  0x25, 0xc3, 0x39, 0xe7, 0xde, 0xff, 0xd0, 0xf9, 0x35, 0x0f, 0x07, 0x3e,
  0xab, 0x3e, 0x27, 0x1e, 0xb3, 0x2c, 0xff, 0x3a, 0x11, 0xe2, 0x13, 0x28,
  0x05, 0x1c, 0xb4, 0xd4, 0x9b, 0x2f, 0xff, 0x12, 0xcf, 0xd2, 0x0e, 0x28,
  0x0c, 0x2b, 0xea, 0x14, 0xbd, 0xf9, 0xcb, 0x26, 0x13, 0xdb, 0xe4, 0xb0,
  0x17, 0x15, 0x34, 0xf7, 0x23, 0x04, 0x11, 0x29, 0xef, 0xf8, 0x42, 0xd3,
  0x34, 0xdb, 0x42, 0x3d, 0xde, 0xc6, 0xd8, 0x3d, 0xe0, 0x4d, 0x44, 0x1c,
  0xbe, 0xcc, 0x45, 0x32, 0x03, 0x22, 0xc5, 0x44, 0x3f, 0x1a, 0x51, 0xf6,
  0xc0, 0x28, 0x12, 0xf2, 0xc0, 0xc7, 0xfe, 0x45, 0xc1, 0xcd, 0x34, 0xff,
  0x07, 0x20, 0xd3, 0xe6, 0x09, 0x24, 0x18, 0xf9, 0x1e, 0x1c, 0xe6, 0x05,
  0x55, 0x06, 0x62, 0xcc, 0x18, 0x4b, 0x04, 0x43, 0xc9, 0x07, 0xc6, 0xc7,
  0xdb, 0xaa, 0x58, 0xe6, 0xc8, 0xba, 0xea, 0xaf, 0x41, 0x21, 0x20, 0xe8,
  0xc8, 0x22, 0x26, 0x36, 0xf9, 0xd5, 0xe8, 0xf4, 0xaa, 0xe7, 0x36, 0x31,
  0x40, 0x02, 0xd4, 0xc1, 0xe5, 0x1e, 0xeb, 0xec, 0xd8, 0xac, 0x25, 0x10,
  0x0b, 0xbc, 0x2a, 0x13, 0xaa, 0x2f, 0x2a, 0xc1, 0xe1, 0xf5, 0xe6, 0xbe,
  0xfd, 0xe6, 0xa9, 0x13, 0x1f, 0xa5, 0x11, 0xc2, 0xc5, 0xe6, 0xfb, 0x30,
  0x13, 0xbc, 0xff, 0xb7, 0x1c, 0xfa, 0xe9, 0xd1, 0xc6, 0xcc, 0xac, 0x27,
  0xac, 0x1b, 0x34, 0xf2, 0x23, 0x04, 0x2c, 0xbb, 0xeb, 0x27, 0x03, 0x49,
  0x2a, 0x01, 0x9b, 0xd6, 0xe7, 0x4f, 0xe7, 0xfd, 0xc1, 0x60, 0xd7, 0x3c,
  0xe1, 0x4e, 0x0f, 0x46, 0x15, 0x33, 0xe0, 0x3c, 0x0d, 0x54, 0xd7, 0x54,
  0x07, 0x13, 0xc7, 0xf6, 0xcb, 0x36, 0x15, 0x09, 0xf9, 0x19, 0xf1, 0x0b,
  0xb1, 0xdf, 0x0e, 0xd5, 0xe6, 0x09, 0xa6, 0x2b, 0xf4, 0xdc, 0x2c, 0x41,
  0xe8, 0xc3, 0x46, 0xe5, 0x00, 0xd8, 0xfd, 0x26, 0x15, 0x16, 0x22, 0xf8,
  0xac, 0x29, 0xf2, 0xe5, 0x1c, 0x9c, 0xd8, 0xc3, 0xc4, 0x2c, 0x11, 0xa7,
  0xb9, 0x00, 0x47, 0x25, 0xb2, 0xf9, 0xf4, 0x06, 0xec, 0xde, 0x3d, 0xf2,
  0xc5, 0xc0, 0xc2, 0x26, 0x2a, 0x3f, 0x57, 0x23, 0xd1, 0x11, 0x24, 0xd9,
  0xfa, 0xf7, 0xbe, 0x14, 0xe5, 0x16, 0xff, 0xed, 0x02, 0x21, 0xef, 0x51,
  0xdc, 0xe9, 0x0a, 0x67, 0x2e, 0x0f, 0x1c, 0x20, 0x3a, 0x67, 0x0c, 0xf4,
  0x5a, 0x42, 0x3a, 0x4b, 0x15, 0x35, 0x18, 0xf2, 0x30, 0x11, 0xe5, 0xdb,
  0xc6, 0xfa, 0x13, 0x53, 0xfa, 0x2a, 0x11, 0x32, 0x35, 0x27, 0xd2, 0xf9,
  0x3c, 0xf1, 0x5d, 0x2e, 0x5f, 0xca, 0x12, 0xb8, 0xc2, 0xaf, 0xd7, 0x04,
  0xd7, 0xc1, 0x4e, 0xf4, 0x15, 0xb6, 0xec, 0xc2, 0x30, 0xa9, 0x47, 0x9b,
  0x11, 0xde, 0x14, 0xae, 0xf5, 0xd3, 0xe1, 0x24, 0x0d, 0x18, 0x1e, 0xda,
  0xe9, 0xc3, 0x06, 0x37, 0xdf, 0x22, 0xdc, 0xbd, 0xcc, 0xdd, 0xdd, 0xdb,
  0x35, 0x08, 0x16, 0xc5, 0xd9, 0xd0, 0xed, 0x30, 0x2d, 0x33, 0xdd, 0xb4,
  0xf3, 0x29, 0xd6, 0xd8, 0x3f, 0xe1, 0x21, 0x2f, 0x28, 0x10, 0xbc, 0xcb,
  0xd6, 0xdf, 0x10, 0xf0, 0x06, 0x0c, 0x3b, 0xca, 0x0d, 0xdc, 0xdf, 0xc4,
  0xbc, 0x19, 0xd3, 0xcb, 0x1b, 0xeb, 0x5d, 0x35, 0xf8, 0x46, 0xd9, 0x2d,
  0xfd, 0xcd, 0xe0, 0x60, 0x59, 0x23, 0x35, 0x4b, 0x54, 0x2e, 0xd5, 0x02,
  0x3d, 0x2a, 0x09, 0xff, 0xf0, 0x08, 0xce, 0xea, 0xd8, 0x54, 0xd7, 0x13,
  0x5c, 0x2b, 0x1d, 0xf5, 0x1b, 0x56, 0x08, 0x4c, 0x23, 0x3e, 0x1a, 0x2a,
  0x54, 0x3b, 0x0e, 0x15, 0x51, 0x5f, 0x24, 0xe0, 0xeb, 0x61, 0xc9, 0xd8,
  0x0d, 0x62, 0xab, 0xe9, 0x27, 0xe4, 0x00, 0xca, 0xbb, 0x3d, 0x46, 0x26,
  0xa7, 0xd0, 0xd0, 0x55, 0x28, 0x4f, 0x1e, 0x14, 0x3f, 0xc1, 0x34, 0xfb,
  0xc0, 0xe7, 0xc5, 0xee, 0x1b, 0x2d, 0xb5, 0x12, 0xf7, 0x08, 0xf8, 0xcc,
  0x2d, 0xae, 0x2b, 0xb2, 0xea, 0xfe, 0xbe, 0x21, 0x21, 0x24, 0xe3, 0xa8,
  0xfd, 0xc3, 0xaf, 0xd6, 0x0d, 0xc2, 0xcc, 0xab, 0xc9, 0xce, 0x0a, 0x14,
  0xe1, 0xbd, 0xba, 0x05, 0x14, 0x3b, 0xb5, 0xe2, 0xf7, 0xd2, 0x31, 0xe7,
  0xe8, 0xe0, 0x4e, 0x10, 0xb4, 0xda, 0x18, 0xed, 0xda, 0x4c, 0xe7, 0xc3,
  0x0b, 0x4c, 0x30, 0xb6, 0x32, 0x4d, 0x22, 0xbf, 0xb2, 0xe6, 0x16, 0x3b,
  0xbf, 0xde, 0xe0, 0x34, 0xf0, 0xf7, 0x1e, 0xe4, 0xd4, 0x3f, 0x47, 0xdb,
  0x13, 0xce, 0x36, 0x57, 0x3d, 0xcd, 0x06, 0x4d, 0xf5, 0x46, 0x0d, 0xfd,
  0x3c, 0xc2, 0xdc, 0x21, 0xa7, 0x56, 0x43, 0xbc, 0x34, 0xe9, 0xa1, 0xe3,
  0x0f, 0xff, 0x0c, 0xda, 0xcb, 0x0c, 0x39, 0xf3, 0xef, 0x0c, 0xcb, 0x21,
  0xcc, 0x3f, 0x14, 0x1f, 0x47, 0xd6, 0x45, 0x04, 0xee, 0xd3, 0x07, 0x16,
  0x34, 0xcd, 0xcc, 0xc7, 0xb7, 0x34, 0x0d, 0xcb, 0xf2, 0xc7, 0x21, 0xe4,
  0xdb, 0xc3, 0x42, 0xdd, 0x04, 0x00, 0xfc, 0x48, 0xd7, 0xac, 0x05, 0x41,
  0xfd, 0xdf, 0xd2, 0xfc, 0xbc, 0xae, 0x38, 0x4b, 0x44, 0x01, 0x1e, 0x2b,
  0xa6, 0x06, 0xc7, 0x45, 0x1b, 0xc9, 0xac, 0x55, 0x31, 0x1b, 0x03, 0x14,
  0x05, 0xdd, 0x99, 0xc7, 0xbb, 0x20, 0x30, 0xff, 0xbf, 0xd3, 0xae, 0xf1,
  0xda, 0xcb, 0xeb, 0xf5, 0xa7, 0x3b, 0x96, 0xd8, 0xdc, 0xfe, 0xf1, 0x38,
  0xa6, 0xed, 0xe6, 0x22, 0xad, 0xdc, 0xfe, 0x32, 0x96, 0xb8, 0xaf, 0xa7,
  0x02, 0x1a, 0xf7, 0xe0, 0xed, 0xe0, 0xee, 0x24, 0x13, 0xf0, 0x9a, 0xc8,
  0xf9, 0x06, 0x06, 0x07, 0xc3, 0x36, 0xf0, 0x2a, 0xcc, 0x39, 0x16, 0x2b,
  0xee, 0xb4, 0x15, 0xfa, 0xdd, 0xc5, 0xc1, 0x0c, 0xf6, 0xf2, 0x11, 0xc0,
  0xb6, 0xb6, 0xbf, 0x02, 0x1e, 0x23, 0x28, 0xd6, 0xd9, 0xc7, 0xba, 0xde,
  0x22, 0x32, 0x18, 0xfe, 0x4a, 0xc2, 0x40, 0x09, 0xfe, 0x47, 0xe5, 0xdd,
  0x41, 0xd3, 0xf0, 0xcf, 0x07, 0x19, 0x42, 0x49, 0xe3, 0xdd, 0x3b, 0x36,
  0xf6, 0x25, 0x48, 0x25, 0x33, 0x1a, 0x3a, 0x14, 0x59, 0x4f, 0x4a, 0xf8,
  0x19, 0x4c, 0xe4, 0x47, 0x14, 0x42, 0x48, 0x32, 0xce, 0xaf, 0x36, 0x29,
  0x38, 0x38, 0x1c, 0x0a, 0xd5, 0x01, 0x3d, 0xbc, 0xc9, 0x0c, 0x30, 0xb4,
  0x5e, 0xe2, 0xcc, 0x12, 0xed, 0x31, 0x1e, 0x2c, 0x48, 0x25, 0xec, 0xef,
  0x05, 0x18, 0x40, 0xf7, 0xc6, 0xa8, 0x03, 0xc7, 0x12, 0xb4, 0x16, 0xf2,
  0x31, 0xb6, 0xfb, 0xe1, 0xd5, 0xc7, 0x5a, 0x2c, 0xe0, 0x44, 0xf1, 0xc0,
  0xc4, 0xbf, 0x2b, 0x38, 0x22, 0x28, 0xfc, 0x18, 0x06, 0x0e, 0xc8, 0xda,
  0x0f, 0x0e, 0x55, 0x34, 0xca, 0x0c, 0x38, 0xd2, 0x57, 0xbf, 0x4a, 0x39,
  0xec, 0xe2, 0x19, 0xf0, 0x57, 0x03, 0x26, 0x12, 0x53, 0xe3, 0x55, 0x0d,
  0x26, 0xd5, 0x51, 0x10, 0x16, 0xe4, 0x2a, 0x3b, 0xd3, 0x0e, 0x30, 0xdb,
  0xf9, 0x39, 0xe2, 0x53, 0x2c, 0xeb, 0xfb, 0x44, 0xf5, 0x38, 0xf8, 0x14,
  0x3f, 0x19, 0xea, 0x51, 0x5a, 0xd2, 0x23, 0x08, 0x2d, 0x2c, 0xfe, 0x5a,
  0x59, 0x0b, 0xfc, 0x41, 0xfb, 0xf8, 0x0f, 0x23, 0x1c, 0xb6, 0x56, 0xde,
  0x69, 0xac, 0x22, 0xcb, 0xc8, 0xba, 0x0d, 0xa7, 0x0d, 0xa0, 0x3d, 0xdb,
  0x40, 0x10, 0x34, 0x2a, 0xf8, 0xe9, 0xff, 0xd4, 0x2c, 0xb6, 0x51, 0x08,
  0x37, 0xc9, 0x55, 0x2d, 0x0d, 0x01, 0x2c, 0xda, 0x09, 0x22, 0x0e, 0x32,
  0xcb, 0x04, 0x3c, 0xae, 0x44, 0xda, 0xc8, 0xf3, 0xd7, 0x0a, 0x1a, 0xc7,
  0x07, 0xc9, 0xb9, 0xb0, 0x1b, 0xf7, 0xc0, 0xca, 0xf6, 0xb4, 0x3a, 0x11,
  0xf8, 0xad, 0x26, 0xa0, 0x23, 0xad, 0x29, 0xb2, 0x9b, 0xe6, 0x24, 0xab,
  0x38, 0xdb, 0x1d, 0x16, 0xea, 0x39, 0x1e, 0x12, 0xd1, 0xc0, 0xfd, 0x1a,
  0xe3, 0xe1, 0xec, 0xff, 0xdd, 0x30, 0x2d, 0xad, 0x1a, 0xee, 0xc9, 0x17,
  0x33, 0xeb, 0x0d, 0x41, 0x2a, 0x3b, 0xd4, 0x04, 0xbb, 0xae, 0xcf, 0x10,
  0xde, 0xdf, 0x0d, 0xeb, 0xe3, 0x35, 0xda, 0x2a, 0xaa, 0xaf, 0xf9, 0xbd,
  0xb6, 0x2c, 0x1b, 0xed, 0x9e, 0xe0, 0xf2, 0x0d, 0xf5, 0x04, 0xb0, 0x21,
  0x28, 0x00, 0xe0, 0x39, 0xc1, 0x19, 0xd0, 0xcf, 0xc3, 0xdc, 0x22, 0xe1,
  0x49, 0x2d, 0xd2, 0x17, 0xd8, 0x48, 0xb0, 0xc2, 0xd1, 0xc1, 0xb7, 0x29,
  0x4b, 0x44, 0xeb, 0xf0, 0xba, 0x3d, 0x3c, 0xba, 0xfc, 0x37, 0x11, 0xf3,
  0x25, 0xca, 0x46, 0x40, 0xff, 0x03, 0x3e, 0xe5, 0xc2, 0x18, 0x38, 0xe2,
  0x13, 0x0e, 0xec, 0xed, 0x01, 0x33, 0x5d, 0x02, 0xd9, 0x07, 0xe8, 0xe3,
  0xe9, 0x1c, 0x3a, 0xac, 0xe2, 0x36, 0xfa, 0xdf, 0xc2, 0xf7, 0xff, 0xff,
  0x04, 0x00, 0x00, 0x00, 0xc8, 0x00, 0x00, 0x00, 0xf9, 0x06, 0x00, 0x00,
  0x0f, 0xff, 0xff, 0xff, 0x09, 0x01, 0x00, 0x00, 0xa0, 0xfc, 0xff, 0xff,
  0x2d, 0xff, 0xff, 0xff, 0x50, 0x03, 0x00, 0x00, 0xf7, 0x07, 0x00, 0x00,
  0x32, 0x03, 0x00, 0x00, 0xfd, 0x04, 0x00, 0x00, 0x97, 0xff, 0xff, 0xff,
  0x8e, 0x02, 0x00, 0x00, 0xbf, 0xfa, 0xff, 0xff, 0x93, 0x03, 0x00, 0x00,
  0x18, 0x06, 0x00, 0x00, 0x74, 0x02, 0x00, 0x00, 0x6f, 0xfd, 0xff, 0xff,
  0x2b, 0xf6, 0xff, 0xff, 0x14, 0x06, 0x00, 0x00, 0xed, 0x04, 0x00, 0x00,
  0xb9, 0xf8, 0xff, 0xff, 0x21, 0x04, 0x00, 0x00, 0x5b, 0xf6, 0xff, 0xff,
  0x29, 0xfe, 0xff, 0xff, 0xa8, 0x00, 0x00, 0x00, 0x4c, 0xfe, 0xff, 0xff,
  0xc4, 0xf5, 0xff, 0xff, 0x44, 0xfd, 0xff, 0xff, 0x62, 0xf4, 0xff, 0xff,
  0x6f, 0xfd, 0xff, 0xff, 0x07, 0xf2, 0xff, 0xff, 0x3c, 0xff, 0xff, 0xff,
  0x51, 0x10, 0x00, 0x00, 0x5e, 0x00, 0x00, 0x00, 0xb8, 0x00, 0x00, 0x00,
  0x98, 0x02, 0x00, 0x00, 0x00, 0xf9, 0xff, 0xff, 0x16, 0x10, 0x00, 0x00,
  0x06, 0x0b, 0x00, 0x00, 0xa8, 0xfd, 0xff, 0xff, 0x54, 0x06, 0x00, 0x00,
  0x1b, 0xfc, 0xff, 0xff, 0x3f, 0x08, 0x00, 0x00, 0xb6, 0x00, 0x00, 0x00,
  0xde, 0x05, 0x00, 0x00, 0x71, 0xff, 0xff, 0xff, 0xad, 0xfb, 0xff, 0xff,
  0x76, 0x0a, 0x00, 0x00, 0xe6, 0x05, 0x00, 0x00, 0xf7, 0x06, 0x00, 0x00,
  0xc7, 0xf8, 0xff, 0xff, 0x96, 0xf8, 0xff, 0xff, 0x04, 0x00, 0x00, 0x00,
  0xe2, 0x04, 0x00, 0x00, 0x64, 0x44, 0x35, 0x4e, 0x1c, 0x9d, 0x26, 0x07,
  0x17, 0xbd, 0xd4, 0x48, 0x63, 0x35, 0x1c, 0xa8, 0x04, 0x63, 0xd3, 0xa8,
  0xfa, 0xa9, 0x3a, 0xb3, 0x0f, 0xe3, 0xc3, 0x41, 0xff, 0xbd, 0x2b, 0x43,
  0x29, 0xd0, 0xf2, 0x3a, 0xfa, 0x46, 0x19, 0xfb, 0x46, 0x11, 0x08, 0x27,
  0xae, 0xf8, 0x12, 0x19, 0xd3, 0x9c, 0x00, 0xf8, 0x3c, 0x5a, 0xd7, 0x10,
  0xb2, 0x07, 0x15, 0xb5, 0xf9, 0xce, 0xea, 0xa0, 0xfc, 0xa2, 0xad, 0xfa,
  0x36, 0x44, 0xb9, 0xf5, 0x23, 0x65, 0x61, 0x46, 0x57, 0x41, 0xf5, 0x24,
  0xd5, 0x26, 0xe0, 0xb2, 0xcf, 0xf2, 0xcd, 0x31, 0x56, 0x41, 0x48, 0xcc,
  0x1a, 0x4a, 0x9e, 0x24, 0xa9, 0xc4, 0xd2, 0xed, 0x30, 0xbc, 0x41, 0xb2,
  0x08, 0xfe, 0xf7, 0x34, 0xfc, 0x10, 0x56, 0x22, 0x65, 0xdc, 0xbf, 0x26,
  0x41, 0x10, 0xf4, 0xe5, 0xec, 0xa9, 0x5b, 0x29, 0x01, 0x5b, 0x03, 0x03,
  0x0a, 0x1c, 0x45, 0x3a, 0xc0, 0x12, 0x2d, 0x26, 0xe4, 0xbd, 0xd7, 0x25,
  0xc8, 0x46, 0xb8, 0xc5, 0xe0, 0xdf, 0xdd, 0x50, 0x1b, 0x62, 0x0d, 0x26,
  0x10, 0x22, 0x02, 0xf4, 0x4c, 0x48, 0x23, 0xcd, 0xe3, 0xe5, 0xf0, 0x06,
  0x1e, 0x32, 0xab, 0xe6, 0xec, 0x48, 0xed, 0x05, 0x8d, 0x25, 0x92, 0xde,
  0xaf, 0x25, 0x3b, 0xa4, 0x77, 0x31, 0x28, 0xb4, 0xa7, 0xdc, 0xc2, 0xd0,
  0x54, 0x4d, 0xc8, 0x32, 0xc5, 0x00, 0xe6, 0x3d, 0x01, 0x81, 0x3f, 0xed,
  0x37, 0x04, 0x36, 0x94, 0x54, 0xf2, 0x43, 0xc4, 0x10, 0x1e, 0x4c, 0x07,
  0xda, 0x33, 0xcf, 0x15, 0x49, 0x08, 0xd7, 0xfd, 0x54, 0x20, 0xf5, 0xc7,
  0x23, 0x03, 0xcc, 0xb9, 0xc8, 0xfb, 0xc4, 0x28, 0x2b, 0xdf, 0x4d, 0xfa,
  0xfb, 0xf9, 0x05, 0xdc, 0x4d, 0x31, 0x41, 0xf0, 0xb3, 0x01, 0x43, 0xea,
  0x40, 0xb4, 0xbb, 0xce, 0x3b, 0x17, 0xda, 0xcf, 0xb0, 0xf4, 0xe5, 0xf1,
  0x10, 0x10, 0x07, 0x5c, 0xd4, 0xfe, 0xb4, 0x6b, 0x0b, 0x05, 0x2e, 0xac,
  0xd0, 0xb9, 0x29, 0xca, 0xf9, 0xf5, 0xc9, 0xea, 0xe9, 0xda, 0x53, 0x58,
  0x4f, 0x13, 0xc8, 0x69, 0xf7, 0xe7, 0x1b, 0x60, 0x23, 0xdd, 0x42, 0x12,
  0xb7, 0x6d, 0xf0, 0x64, 0x18, 0xfe, 0xea, 0xfa, 0xab, 0x06, 0x42, 0xd7,
  0xc0, 0x18, 0x67, 0xb3, 0xe4, 0x45, 0x31, 0x4d, 0x4b, 0xe6, 0xeb, 0x00,
  0x0c, 0xff, 0x0a, 0x9f, 0x3d, 0x22, 0x43, 0xb7, 0xea, 0xa8, 0x33, 0xb0,
  0xb7, 0xd0, 0x31, 0xd7, 0xe7, 0x40, 0x55, 0xee, 0x9f, 0xb6, 0x48, 0x10,
  0xc5, 0x4f, 0x74, 0x41, 0x02, 0x54, 0x0e, 0x51, 0x73, 0x3a, 0xdc, 0xf0,
  0xea, 0x39, 0xd5, 0x29, 0xb6, 0xf2, 0x00, 0x21, 0x4e, 0x49, 0x41, 0x0e,
  0xb9, 0x95, 0x13, 0x27, 0xb3, 0x7b, 0x2c, 0x14, 0x20, 0xae, 0x43, 0xc9,
  0x4f, 0x1d, 0xe7, 0xcc, 0x42, 0xd7, 0x60, 0x1d, 0x06, 0x58, 0xff, 0x5f,
  0xd4, 0xb2, 0x41, 0xdb, 0x55, 0xb9, 0xcd, 0x01, 0xa5, 0x36, 0x06, 0x33,
  0xfc, 0x3c, 0x46, 0x00, 0xed, 0x38, 0x24, 0x0d, 0x0b, 0xf2, 0xe0, 0x09,
  0xe4, 0xbc, 0xe0, 0x33, 0x0e, 0xd9, 0xc9, 0x8e, 0xf1, 0x34, 0x4a, 0xc1,
  0xe9, 0xd3, 0xf0, 0x1e, 0xc4, 0x09, 0x16, 0x27, 0x0a, 0x02, 0x5b, 0xeb,
  0x33, 0xfa, 0xd1, 0xb0, 0x22, 0x25, 0x2f, 0x2e, 0x1b, 0xeb, 0xd3, 0xc6,
  0xdd, 0x4f, 0xb5, 0x1a, 0x1b, 0x26, 0xe9, 0xdb, 0x01, 0x42, 0xe5, 0x12,
  0x3b, 0x15, 0xff, 0xf1, 0xdd, 0x46, 0x1c, 0x00, 0xf4, 0xd1, 0x01, 0x9c,
  0xea, 0xf7, 0xf7, 0xf6, 0x26, 0x94, 0xbb, 0x8f, 0xe9, 0xce, 0x9a, 0xfb,
  0xb0, 0xd6, 0x13, 0xda, 0x1d, 0x3a, 0xf9, 0xf6, 0xaa, 0xc5, 0x45, 0xe0,
  0xc2, 0xa9, 0x21, 0xd4, 0xac, 0xe0, 0x91, 0xcb, 0xac, 0x37, 0xb6, 0x5e,
  0xb1, 0x05, 0xe9, 0x37, 0xbf, 0xd7, 0x0d, 0xe7, 0xcb, 0x38, 0x62, 0x0c,
  0xdd, 0xce, 0x43, 0x59, 0xef, 0x03, 0x57, 0xc6, 0x48, 0x61, 0x51, 0x2e,
  0x1d, 0x94, 0x14, 0x12, 0x24, 0x51, 0xe0, 0x5d, 0x2e, 0x4d, 0xba, 0xe2,
  0xd0, 0x25, 0xf2, 0xae, 0xbb, 0xbe, 0xe0, 0xcc, 0xd5, 0xc9, 0xc4, 0x11,
  0x3a, 0x00, 0x45, 0x2a, 0x38, 0xe3, 0xa3, 0xe9, 0xd5, 0x41, 0xf0, 0xb8,
  0x32, 0xbf, 0x3e, 0xfb, 0xf6, 0x41, 0x05, 0xf1, 0x5d, 0x39, 0xa9, 0x73,
  0x18, 0x4d, 0x2c, 0x8e, 0xa1, 0x0e, 0xdb, 0x2b, 0x34, 0xed, 0x03, 0xf8,
  0x25, 0x4f, 0x50, 0x17, 0x1d, 0xd2, 0xd1, 0x2a, 0x00, 0xbe, 0xec, 0x5c,
  0x32, 0x0d, 0xd6, 0xcd, 0x03, 0xfc, 0x28, 0x35, 0xaf, 0x57, 0xbf, 0x19,
  0xc8, 0xce, 0x3b, 0x55, 0xfd, 0x02, 0xb1, 0x53, 0xe3, 0xec, 0xb4, 0x5e,
  0x67, 0xb5, 0xbe, 0x24, 0x47, 0x69, 0x36, 0x15, 0xba, 0x32, 0xb8, 0x0c,
  0x39, 0xc8, 0xc8, 0xee, 0xd2, 0x0f, 0x0f, 0xb9, 0xf7, 0x0b, 0x5f, 0xb2,
  0x02, 0xcc, 0x44, 0x02, 0x34, 0x1b, 0x19, 0xf1, 0x17, 0x56, 0xbd, 0x07,
  0xec, 0x30, 0xe0, 0x1c, 0xc9, 0x3d, 0x3a, 0xb3, 0x4e, 0x39, 0xed, 0x3c,
  0xaf, 0xa2, 0x19, 0xb7, 0xb9, 0xa0, 0xa1, 0xff, 0x0e, 0xa3, 0x45, 0xf5,
  0x26, 0x08, 0x5f, 0xac, 0xff, 0xc6, 0xb3, 0xe7, 0x07, 0xe6, 0x14, 0xc5,
  0xa6, 0xeb, 0x52, 0x44, 0xd0, 0xaa, 0xe1, 0xca, 0xf8, 0xd4, 0x3b, 0xd0,
  0xde, 0xe6, 0x30, 0xd9, 0xad, 0xa1, 0xdd, 0x2f, 0xfb, 0x33, 0xb2, 0xdf,
  0x1e, 0xf6, 0xa6, 0x9c, 0x48, 0x1e, 0xc4, 0xba, 0xf0, 0x0d, 0x4d, 0xfd,
  0x3f, 0xc9, 0xc2, 0x0c, 0x28, 0xbd, 0x10, 0x48, 0xf9, 0xa8, 0xaa, 0xd0,
  0x26, 0xd0, 0x3b, 0x03, 0x39, 0xdb, 0xaa, 0x3d, 0x50, 0xb7, 0x61, 0xfa,
  0xd7, 0xb2, 0x52, 0x23, 0x68, 0xb9, 0x1e, 0x1c, 0x46, 0x0a, 0x6e, 0xda,
  0x34, 0xd9, 0x2c, 0x06, 0x23, 0x3f, 0x24, 0xb1, 0xa1, 0x3b, 0xd7, 0x48,
  0x23, 0x2f, 0xe8, 0xcc, 0x3d, 0x29, 0x43, 0xe2, 0x9f, 0x60, 0xf7, 0x3f,
  0x25, 0x52, 0x01, 0x32, 0xd1, 0x56, 0xd4, 0x22, 0xa8, 0x0d, 0xee, 0x1c,
  0xcc, 0xdb, 0xff, 0x35, 0xec, 0xb4, 0xad, 0xc9, 0x68, 0xb5, 0xb9, 0xca,
  0xcf, 0x9f, 0x04, 0xf7, 0xc2, 0xdc, 0x01, 0x5e, 0x8f, 0xdd, 0xab, 0xaf,
  0x63, 0x4a, 0x3d, 0x40, 0x32, 0xf8, 0xdc, 0x62, 0xbb, 0x5f, 0x66, 0x55,
  0xc7, 0x14, 0x47, 0x10, 0xec, 0xa6, 0x32, 0xc6, 0x2a, 0xc7, 0xc7, 0x0d,
  0xca, 0x23, 0x04, 0xe2, 0xe4, 0xfa, 0xac, 0xd4, 0x2d, 0xd4, 0x5b, 0xd5,
  0x0f, 0x2e, 0x02, 0xb2, 0xa8, 0xc7, 0xc6, 0x02, 0xb4, 0x33, 0x25, 0x9b,
  0xb5, 0xc2, 0x3f, 0x30, 0xaa, 0x19, 0x1b, 0x22, 0xaf, 0x69, 0xae, 0x39,
  0x29, 0x1a, 0xc7, 0xbb, 0xab, 0x3c, 0x3a, 0x5d, 0x0a, 0x19, 0x58, 0x38,
  0x0b, 0x52, 0x66, 0xa0, 0x2b, 0xd2, 0x7e, 0x46, 0xcb, 0xcb, 0x9f, 0x1f,
  0xd6, 0xc9, 0x99, 0x1d, 0xf9, 0x89, 0x37, 0x1f, 0x6c, 0xb0, 0x19, 0xde,
  0x26, 0xa2, 0x24, 0xcd, 0x56, 0x3d, 0xde, 0xbf, 0x1a, 0xe4, 0x5a, 0xb0,
  0xd3, 0xaf, 0x3a, 0xfa, 0x46, 0xfb, 0x08, 0x1d, 0xd4, 0xeb, 0xcd, 0xa9,
  0x20, 0xb6, 0xa0, 0xb7, 0xda, 0x00, 0xf2, 0x4d, 0x3a, 0x14, 0x0e, 0xbc,
  0x51, 0x4f, 0xa5, 0x57, 0x35, 0xf6, 0x4e, 0x51, 0x0e, 0x2d, 0xa0, 0xe3,
  0xc8, 0xd1, 0x0d, 0xb4, 0xc1, 0x14, 0xff, 0xa9, 0xc9, 0xbf, 0x12, 0x06,
  0xd2, 0x65, 0x15, 0xaa, 0x31, 0xd7, 0xc6, 0x59, 0x38, 0x68, 0x66, 0xc1,
  0x30, 0xd1, 0x07, 0x4f, 0x2a, 0xe8, 0xe1, 0x99, 0xf4, 0x47, 0xf5, 0xe0,
  0x50, 0x57, 0x64, 0xbc, 0x52, 0xb5, 0x06, 0xf4, 0x4e, 0xab, 0xe7, 0xa8,
  0xdb, 0x3f, 0x1a, 0xcf, 0xb1, 0xf3, 0xf1, 0x16, 0xcd, 0xe7, 0xfa, 0x0f,
  0xe6, 0xed, 0x31, 0x5b, 0xab, 0xb4, 0xe7, 0x3e, 0xe7, 0xb2, 0x4f, 0xbe,
  0x33, 0x49, 0xd6, 0xe1, 0x0c, 0x60, 0x17, 0x3b, 0x33, 0xcc, 0xd6, 0xe6,
  0x72, 0xb0, 0x12, 0x6e, 0x20, 0x43, 0xdc, 0xcd, 0xcb, 0x54, 0xc8, 0xa5,
  0x13, 0xbb, 0x5d, 0xa3, 0xc7, 0xcd, 0x2c, 0x17, 0xc0, 0xad, 0xef, 0x09,
  0xb8, 0x0f, 0xb7, 0x03, 0xdc, 0xc3, 0x35, 0x33, 0xee, 0xf0, 0x13, 0xcf,
  0x03, 0xdf, 0xaf, 0xc4, 0xf6, 0xc2, 0x4c, 0x09, 0xf5, 0xc4, 0xb4, 0xb1,
  0xdb, 0x06, 0xeb, 0x38, 0x40, 0xae, 0x1b, 0xd7, 0xb3, 0xc0, 0x36, 0x98,
  0xb1, 0xb5, 0x11, 0x37, 0x4a, 0xbd, 0x46, 0x4c, 0xb5, 0xf8, 0x1b, 0xb0,
  0xf4, 0xfe, 0x46, 0x95, 0xb4, 0xe1, 0x29, 0x38, 0xc4, 0x32, 0xc4, 0xbb,
  0x15, 0xbb, 0x5b, 0xcb, 0xf7, 0x21, 0xd0, 0x36, 0xb4, 0xb9, 0x27, 0xb3,
  0x02, 0x27, 0xb6, 0xc3, 0x0f, 0x1a, 0xdb, 0x20, 0x4d, 0x1c, 0xe7, 0x2e,
  0xb6, 0x09, 0x3d, 0x16, 0xb0, 0xc2, 0xd1, 0x5d, 0xbf, 0xc7, 0x52, 0x43,
  0x49, 0xfa, 0x5d, 0x44, 0x1b, 0x22, 0x49, 0x2c, 0xbf, 0xab, 0x20, 0x1b,
  0xd9, 0xf9, 0xb0, 0xea, 0x19, 0xe4, 0x37, 0x46, 0x5e, 0x49, 0x22, 0x59,
  0xbd, 0xb9, 0x53, 0xdd, 0x12, 0xbd, 0x3c, 0xcd, 0x5c, 0xce, 0xcd, 0xca,
  0xf9, 0xe5, 0xa2, 0x4c, 0xa1, 0x2e, 0xeb, 0x03, 0xdb, 0x47, 0x3d, 0xb9,
  0x07, 0x06, 0xf9, 0xbd, 0xf8, 0xee, 0x48, 0x1b, 0xdb, 0x03, 0xc3, 0xb1,
  0xf6, 0x49, 0xfd, 0x02, 0x44, 0xe4, 0x00, 0x00, 0x86, 0xfd, 0xff, 0xff,
  0x04, 0x00, 0x00, 0x00, 0x64, 0x00, 0x00, 0x00, 0x1c, 0xff, 0xff, 0xff,
  0x3b, 0x01, 0x00, 0x00, 0x6d, 0xfe, 0xff, 0xff, 0x00, 0x07, 0x00, 0x00,
  0x8a, 0x01, 0x00, 0x00, 0xab, 0x01, 0x00, 0x00, 0x58, 0x01, 0x00, 0x00,
  0x4a, 0x01, 0x00, 0x00, 0x54, 0x01, 0x00, 0x00, 0xdc, 0x00, 0x00, 0x00,
  0x9d, 0x00, 0x00, 0x00, 0x2d, 0x03, 0x00, 0x00, 0x36, 0x01, 0x00, 0x00,
  0xb7, 0x01, 0x00, 0x00, 0xb7, 0xff, 0xff, 0xff, 0x4d, 0x00, 0x00, 0x00,
  0x38, 0x01, 0x00, 0x00, 0x10, 0x01, 0x00, 0x00, 0x30, 0x03, 0x00, 0x00,
  0x99, 0xff, 0xff, 0xff, 0x57, 0x00, 0x00, 0x00, 0xa3, 0x02, 0x00, 0x00,
  0x87, 0x01, 0x00, 0x00, 0x60, 0xff, 0xff, 0xff, 0x7a, 0x01, 0x00, 0x00,
  0xf6, 0xfd, 0xff, 0xff, 0x04, 0x00, 0x00, 0x00, 0x7d, 0x00, 0x00, 0x00,
  0x50, 0x55, 0xd5, 0xbc, 0xf4, 0x47, 0x35, 0x30, 0x07, 0xf2, 0x91, 0x8c,
  0x59, 0xab, 0x30, 0x56, 0x22, 0x50, 0xa8, 0xb0, 0x68, 0xe4, 0xd0, 0x6c,
  0x90, 0xfe, 0x89, 0x2d, 0xf4, 0x6e, 0x31, 0x43, 0x2f, 0x68, 0xf7, 0xe6,
  0x49, 0xe6, 0x9c, 0xa9, 0xf9, 0x33, 0xf9, 0xe7, 0x98, 0x81, 0x91, 0x62,
  0x1b, 0xdd, 0xec, 0x02, 0xe1, 0x2d, 0x9e, 0x09, 0x81, 0x39, 0xb1, 0x45,
  0xc6, 0x8b, 0x0e, 0x18, 0xf6, 0xf0, 0xe1, 0x8c, 0x02, 0x2c, 0xf3, 0x14,
  0xd1, 0x36, 0x46, 0xb9, 0xa2, 0x65, 0xc0, 0xca, 0x61, 0x11, 0xc3, 0xa4,
  0x27, 0x27, 0x36, 0xc8, 0x63, 0x8a, 0x3e, 0xa5, 0xca, 0x93, 0x77, 0xce,
  0xc3, 0xae, 0xca, 0x30, 0xdf, 0x9c, 0x02, 0x02, 0xa2, 0xab, 0x7d, 0xbb,
  0x3b, 0x6e, 0xcb, 0x0d, 0x9b, 0xfb, 0xb8, 0x4b, 0x01, 0xe9, 0x00, 0xd6,
  0x27, 0xe6, 0xec, 0xce, 0x32, 0x00, 0x00, 0x00, 0x82, 0xfe, 0xff, 0xff,
  0x04, 0x00, 0x00, 0x00, 0x14, 0x00, 0x00, 0x00, 0xbc, 0xfe, 0xff, 0xff,
  0x2f, 0x01, 0x00, 0x00, 0x69, 0x01, 0x00, 0x00, 0xee, 0xfe, 0xff, 0xff,
  0x20, 0x00, 0x00, 0x00, 0x60, 0xfe, 0xff, 0xff, 0x64, 0xfe, 0xff, 0xff,
  0x0f, 0x00, 0x00, 0x00, 0x4d, 0x4c, 0x49, 0x52, 0x20, 0x43, 0x6f, 0x6e,
  0x76, 0x65, 0x72, 0x74, 0x65, 0x64, 0x2e, 0x00, 0x01, 0x00, 0x00, 0x00,
  0x14, 0x00, 0x00, 0x00, 0x00, 0x00, 0x0e, 0x00, 0x18, 0x00, 0x14, 0x00,
  0x10, 0x00, 0x0c, 0x00, 0x08, 0x00, 0x04, 0x00, 0x0e, 0x00, 0x00, 0x00,
  0x14, 0x00, 0x00, 0x00, 0x1c, 0x00, 0x00, 0x00, 0x80, 0x01, 0x00, 0x00,
  0x84, 0x01, 0x00, 0x00, 0x88, 0x01, 0x00, 0x00, 0x04, 0x00, 0x00, 0x00,
  0x6d, 0x61, 0x69, 0x6e, 0x00, 0x00, 0x00, 0x00, 0x06, 0x00, 0x00, 0x00,
  0x30, 0x01, 0x00, 0x00, 0xe4, 0x00, 0x00, 0x00, 0xa0, 0x00, 0x00, 0x00,
  0x6c, 0x00, 0x00, 0x00, 0x38, 0x00, 0x00, 0x00, 0x04, 0x00, 0x00, 0x00,
  0x3e, 0xff, 0xff, 0xff, 0x14, 0x00, 0x00, 0x00, 0x00, 0x00, 0x00, 0x09,
  0x14, 0x00, 0x00, 0x00, 0x18, 0x00, 0x00, 0x00, 0x02, 0x00, 0x00, 0x00,
  0x2e, 0xff, 0xff, 0xff, 0x00, 0x00, 0x80, 0x3f, 0x01, 0x00, 0x00, 0x00,
  0x0c, 0x00, 0x00, 0x00, 0x01, 0x00, 0x00, 0x00, 0x0b, 0x00, 0x00, 0x00,
  0x26, 0xff, 0xff, 0xff, 0x10, 0x00, 0x00, 0x00, 0x00, 0x00, 0x00, 0x08,
  0x0c, 0x00, 0x00, 0x00, 0x10, 0x00, 0x00, 0x00, 0x18, 0xff, 0xff, 0xff,
  0x01, 0x00, 0x00, 0x00, 0x0b, 0x00, 0x00, 0x00, 0x03, 0x00, 0x00, 0x00,
  0x0a, 0x00, 0x00, 0x00, 0x02, 0x00, 0x00, 0x00, 0x01, 0x00, 0x00, 0x00,
  0x9e, 0xff, 0xff, 0xff, 0x14, 0x00, 0x00, 0x00, 0x00, 0x00, 0x00, 0x4b,
  0x14, 0x00, 0x00, 0x00, 0x18, 0x00, 0x00, 0x00, 0x01, 0x00, 0x00, 0x00,
  0x8e, 0xff, 0xff, 0xff, 0xcd, 0xcc, 0xcc, 0x3d, 0x01, 0x00, 0x00, 0x00,
  0x0a, 0x00, 0x00, 0x00, 0x01, 0x00, 0x00, 0x00, 0x09, 0x00, 0x00, 0x00,
  0x86, 0xff, 0xff, 0xff, 0x10, 0x00, 0x00, 0x00, 0x00, 0x00, 0x00, 0x08,
  0x0c, 0x00, 0x00, 0x00, 0x10, 0x00, 0x00, 0x00, 0x78, 0xff, 0xff, 0xff,
  0x01, 0x00, 0x00, 0x00, 0x09, 0x00, 0x00, 0x00, 0x03, 0x00, 0x00, 0x00,
  0x08, 0x00, 0x00, 0x00, 0x04, 0x00, 0x00, 0x00, 0x03, 0x00, 0x00, 0x00,
  0x00, 0x00, 0x0e, 0x00, 0x1a, 0x00, 0x14, 0x00, 0x10, 0x00, 0x0c, 0x00,
  0x0b, 0x00, 0x04, 0x00, 0x0e, 0x00, 0x00, 0x00, 0x1c, 0x00, 0x00, 0x00,
  0x00, 0x00, 0x00, 0x4b, 0x1c, 0x00, 0x00, 0x00, 0x20, 0x00, 0x00, 0x00,
  0x01, 0x00, 0x00, 0x00, 0x00, 0x00, 0x06, 0x00, 0x08, 0x00, 0x04, 0x00,
  0x06, 0x00, 0x00, 0x00, 0xcd, 0xcc, 0xcc, 0x3d, 0x01, 0x00, 0x00, 0x00,
  0x08, 0x00, 0x00, 0x00, 0x01, 0x00, 0x00, 0x00, 0x07, 0x00, 0x00, 0x00,
  0x00, 0x00, 0x0e, 0x00, 0x14, 0x00, 0x00, 0x00, 0x10, 0x00, 0x0c, 0x00,
  0x0b, 0x00, 0x04, 0x00, 0x0e, 0x00, 0x00, 0x00, 0x14, 0x00, 0x00, 0x00,
  0x00, 0x00, 0x00, 0x08, 0x10, 0x00, 0x00, 0x00, 0x14, 0x00, 0x00, 0x00,
  0x04, 0x00, 0x04, 0x00, 0x04, 0x00, 0x00, 0x00, 0x01, 0x00, 0x00, 0x00,
  0x07, 0x00, 0x00, 0x00, 0x03, 0x00, 0x00, 0x00, 0x00, 0x00, 0x00, 0x00,
  0x06, 0x00, 0x00, 0x00, 0x05, 0x00, 0x00, 0x00, 0x01, 0x00, 0x00, 0x00,
  0x0c, 0x00, 0x00, 0x00, 0x01, 0x00, 0x00, 0x00, 0x00, 0x00, 0x00, 0x00,
  0x0d, 0x00, 0x00, 0x00, 0x40, 0x06, 0x00, 0x00, 0xb0, 0x05, 0x00, 0x00,
  0x2c, 0x05, 0x00, 0x00, 0xb0, 0x04, 0x00, 0x00, 0x44, 0x04, 0x00, 0x00,
  0xd0, 0x03, 0x00, 0x00, 0x64, 0x03, 0x00, 0x00, 0xd0, 0x02, 0x00, 0x00,
  0x44, 0x02, 0x00, 0x00, 0xa8, 0x01, 0x00, 0x00, 0x1c, 0x01, 0x00, 0x00,
  0x80, 0x00, 0x00, 0x00, 0x04, 0x00, 0x00, 0x00, 0x0a, 0xfa, 0xff, 0xff,
  0x00, 0x00, 0x00, 0x01, 0x18, 0x00, 0x00, 0x00, 0x20, 0x00, 0x00, 0x00,
  0x3c, 0x00, 0x00, 0x00, 0x0d, 0x00, 0x00, 0x00, 0x00, 0x00, 0x00, 0x09,
  0x50, 0x00, 0x00, 0x00, 0x02, 0x00, 0x00, 0x00, 0xff, 0xff, 0xff, 0xff,
  0x05, 0x00, 0x00, 0x00, 0xf4, 0xf9, 0xff, 0xff, 0x08, 0x00, 0x00, 0x00,
  0x10, 0x00, 0x00, 0x00, 0x01, 0x00, 0x00, 0x00, 0x80, 0xff, 0xff, 0xff,
  0xff, 0xff, 0xff, 0xff, 0x01, 0x00, 0x00, 0x00, 0x00, 0x00, 0x80, 0x3b,
  0x19, 0x00, 0x00, 0x00, 0x53, 0x74, 0x61, 0x74, 0x65, 0x66, 0x75, 0x6c,
  0x50, 0x61, 0x72, 0x74, 0x69, 0x74, 0x69, 0x6f, 0x6e, 0x65, 0x64, 0x43,
  0x61, 0x6c, 0x6c, 0x3a, 0x30, 0x00, 0x00, 0x00, 0x02, 0x00, 0x00, 0x00,
  0x01, 0x00, 0x00, 0x00, 0x05, 0x00, 0x00, 0x00, 0x82, 0xfa, 0xff, 0xff,
  0x00, 0x00, 0x00, 0x01, 0x18, 0x00, 0x00, 0x00, 0x20, 0x00, 0x00, 0x00,
  0x40, 0x00, 0x00, 0x00, 0x0c, 0x00, 0x00, 0x00, 0x00, 0x00, 0x00, 0x09,
  0x70, 0x00, 0x00, 0x00, 0x02, 0x00, 0x00, 0x00, 0xff, 0xff, 0xff, 0xff,
  0x05, 0x00, 0x00, 0x00, 0x6c, 0xfa, 0xff, 0xff, 0x08, 0x00, 0x00, 0x00,
  0x14, 0x00, 0x00, 0x00, 0x01, 0x00, 0x00, 0x00, 0x01, 0x00, 0x00, 0x00,
  0x00, 0x00, 0x00, 0x00, 0x00, 0x00, 0x00, 0x00, 0x01, 0x00, 0x00, 0x00,
  0xba, 0x9e, 0x4d, 0x3d, 0x34, 0x00, 0x00, 0x00, 0x73, 0x65, 0x71, 0x75,
  0x65, 0x6e, 0x74, 0x69, 0x61, 0x6c, 0x2f, 0x64, 0x65, 0x6e, 0x73, 0x65,
  0x5f, 0x32, 0x2f, 0x4d, 0x61, 0x74, 0x4d, 0x75, 0x6c, 0x3b, 0x73, 0x65,
  0x71, 0x75, 0x65, 0x6e, 0x74, 0x69, 0x61, 0x6c, 0x2f, 0x64, 0x65, 0x6e,
  0x73, 0x65, 0x5f, 0x32, 0x2f, 0x42, 0x69, 0x61, 0x73, 0x41, 0x64, 0x64,
  0x00, 0x00, 0x00, 0x00, 0x02, 0x00, 0x00, 0x00, 0x01, 0x00, 0x00, 0x00,
  0x05, 0x00, 0x00, 0x00, 0x1a, 0xfb, 0xff, 0xff, 0x00, 0x00, 0x00, 0x01,
  0x18, 0x00, 0x00, 0x00, 0x20, 0x00, 0x00, 0x00, 0x3c, 0x00, 0x00, 0x00,
  0x0b, 0x00, 0x00, 0x00, 0x00, 0x00, 0x00, 0x09, 0x60, 0x00, 0x00, 0x00,
  0x02, 0x00, 0x00, 0x00, 0xff, 0xff, 0xff, 0xff, 0x19, 0x00, 0x00, 0x00,
  0x04, 0xfb, 0xff, 0xff, 0x08, 0x00, 0x00, 0x00, 0x10, 0x00, 0x00, 0x00,
  0x01, 0x00, 0x00, 0x00, 0x90, 0xff, 0xff, 0xff, 0xff, 0xff, 0xff, 0xff,
  0x01, 0x00, 0x00, 0x00, 0x3f, 0xc9, 0xad, 0x3c, 0x28, 0x00, 0x00, 0x00,
  0x73, 0x65, 0x71, 0x75, 0x65, 0x6e, 0x74, 0x69, 0x61, 0x6c, 0x2f, 0x64,
  0x65, 0x6e, 0x73, 0x65, 0x5f, 0x31, 0x2f, 0x6c, 0x65, 0x61, 0x6b, 0x79,
  0x5f, 0x72, 0x65, 0x5f, 0x6c, 0x75, 0x2f, 0x4c, 0x65, 0x61, 0x6b, 0x79,
  0x52, 0x65, 0x6c, 0x75, 0x00, 0x00, 0x00, 0x00, 0x02, 0x00, 0x00, 0x00,
  0x01, 0x00, 0x00, 0x00, 0x19, 0x00, 0x00, 0x00, 0xa2, 0xfb, 0xff, 0xff,
  0x00, 0x00, 0x00, 0x01, 0x18, 0x00, 0x00, 0x00, 0x20, 0x00, 0x00, 0x00,
  0x40, 0x00, 0x00, 0x00, 0x0a, 0x00, 0x00, 0x00, 0x00, 0x00, 0x00, 0x09,
  0x70, 0x00, 0x00, 0x00, 0x02, 0x00, 0x00, 0x00, 0xff, 0xff, 0xff, 0xff,
  0x19, 0x00, 0x00, 0x00, 0x8c, 0xfb, 0xff, 0xff, 0x08, 0x00, 0x00, 0x00,
  0x14, 0x00, 0x00, 0x00, 0x01, 0x00, 0x00, 0x00, 0xe6, 0xff, 0xff, 0xff,
  0xff, 0xff, 0xff, 0xff, 0x00, 0x00, 0x00, 0x00, 0x01, 0x00, 0x00, 0x00,
  0x51, 0x8b, 0x07, 0x3d, 0x34, 0x00, 0x00, 0x00, 0x73, 0x65, 0x71, 0x75,
  0x65, 0x6e, 0x74, 0x69, 0x61, 0x6c, 0x2f, 0x64, 0x65, 0x6e, 0x73, 0x65,
  0x5f, 0x31, 0x2f, 0x4d, 0x61, 0x74, 0x4d, 0x75, 0x6c, 0x3b, 0x73, 0x65,
  0x71, 0x75, 0x65, 0x6e, 0x74, 0x69, 0x61, 0x6c, 0x2f, 0x64, 0x65, 0x6e,
  0x73, 0x65, 0x5f, 0x31, 0x2f, 0x42, 0x69, 0x61, 0x73, 0x41, 0x64, 0x64,
  0x00, 0x00, 0x00, 0x00, 0x02, 0x00, 0x00, 0x00, 0x01, 0x00, 0x00, 0x00,
  0x19, 0x00, 0x00, 0x00, 0x3a, 0xfc, 0xff, 0xff, 0x00, 0x00, 0x00, 0x01,
  0x18, 0x00, 0x00, 0x00, 0x20, 0x00, 0x00, 0x00, 0x40, 0x00, 0x00, 0x00,
  0x09, 0x00, 0x00, 0x00, 0x00, 0x00, 0x00, 0x09, 0x60, 0x00, 0x00, 0x00,
  0x02, 0x00, 0x00, 0x00, 0xff, 0xff, 0xff, 0xff, 0x32, 0x00, 0x00, 0x00,
  0x24, 0xfc, 0xff, 0xff, 0x08, 0x00, 0x00, 0x00, 0x14, 0x00, 0x00, 0x00,
  0x01, 0x00, 0x00, 0x00, 0xa6, 0xff, 0xff, 0xff, 0xff, 0xff, 0xff, 0xff,
  0x00, 0x00, 0x00, 0x00, 0x01, 0x00, 0x00, 0x00, 0x6b, 0x74, 0x87, 0x3c,
  0x26, 0x00, 0x00, 0x00, 0x73, 0x65, 0x71, 0x75, 0x65, 0x6e, 0x74, 0x69,
  0x61, 0x6c, 0x2f, 0x64, 0x65, 0x6e, 0x73, 0x65, 0x2f, 0x6c, 0x65, 0x61,
  0x6b, 0x79, 0x5f, 0x72, 0x65, 0x5f, 0x6c, 0x75, 0x2f, 0x4c, 0x65, 0x61,
  0x6b, 0x79, 0x52, 0x65, 0x6c, 0x75, 0x00, 0x00, 0x02, 0x00, 0x00, 0x00,
  0x01, 0x00, 0x00, 0x00, 0x32, 0x00, 0x00, 0x00, 0xc2, 0xfc, 0xff, 0xff,
  0x00, 0x00, 0x00, 0x01, 0x18, 0x00, 0x00, 0x00, 0x20, 0x00, 0x00, 0x00,
  0x3c, 0x00, 0x00, 0x00, 0x08, 0x00, 0x00, 0x00, 0x00, 0x00, 0x00, 0x09,
  0x68, 0x00, 0x00, 0x00, 0x02, 0x00, 0x00, 0x00, 0xff, 0xff, 0xff, 0xff,
  0x32, 0x00, 0x00, 0x00, 0xac, 0xfc, 0xff, 0xff, 0x08, 0x00, 0x00, 0x00,
  0x10, 0x00, 0x00, 0x00, 0x01, 0x00, 0x00, 0x00, 0x22, 0x00, 0x00, 0x00,
  0x00, 0x00, 0x00, 0x00, 0x01, 0x00, 0x00, 0x00, 0xa4, 0x30, 0x1e, 0x3d,
  0x30, 0x00, 0x00, 0x00, 0x73, 0x65, 0x71, 0x75, 0x65, 0x6e, 0x74, 0x69,
  0x61, 0x6c, 0x2f, 0x64, 0x65, 0x6e, 0x73, 0x65, 0x2f, 0x4d, 0x61, 0x74,
  0x4d, 0x75, 0x6c, 0x3b, 0x73, 0x65, 0x71, 0x75, 0x65, 0x6e, 0x74, 0x69,
  0x61, 0x6c, 0x2f, 0x64, 0x65, 0x6e, 0x73, 0x65, 0x2f, 0x42, 0x69, 0x61,
  0x73, 0x41, 0x64, 0x64, 0x00, 0x00, 0x00, 0x00, 0x02, 0x00, 0x00, 0x00,
  0x01, 0x00, 0x00, 0x00, 0x32, 0x00, 0x00, 0x00, 0xde, 0xfd, 0xff, 0xff,
  0x00, 0x00, 0x00, 0x01, 0x14, 0x00, 0x00, 0x00, 0x34, 0x00, 0x00, 0x00,
  0x07, 0x00, 0x00, 0x00, 0x00, 0x00, 0x00, 0x09, 0x44, 0x00, 0x00, 0x00,
  0x2c, 0xfd, 0xff, 0xff, 0x08, 0x00, 0x00, 0x00, 0x14, 0x00, 0x00, 0x00,
  0x01, 0x00, 0x00, 0x00, 0x00, 0x00, 0x00, 0x00, 0x00, 0x00, 0x00, 0x00,
  0x00, 0x00, 0x00, 0x00, 0x01, 0x00, 0x00, 0x00, 0x75, 0x89, 0xe8, 0x3a,
  0x17, 0x00, 0x00, 0x00, 0x73, 0x65, 0x71, 0x75, 0x65, 0x6e, 0x74, 0x69,
  0x61, 0x6c, 0x2f, 0x64, 0x65, 0x6e, 0x73, 0x65, 0x2f, 0x4d, 0x61, 0x74,
  0x4d, 0x75, 0x6c, 0x00, 0x02, 0x00, 0x00, 0x00, 0x32, 0x00, 0x00, 0x00,
  0xee, 0x00, 0x00, 0x00, 0x46, 0xfe, 0xff, 0xff, 0x00, 0x00, 0x00, 0x01,
  0x14, 0x00, 0x00, 0x00, 0x30, 0x00, 0x00, 0x00, 0x06, 0x00, 0x00, 0x00,
  0x00, 0x00, 0x00, 0x02, 0x50, 0x00, 0x00, 0x00, 0x94, 0xfd, 0xff, 0xff,
  0x08, 0x00, 0x00, 0x00, 0x10, 0x00, 0x00, 0x00, 0x01, 0x00, 0x00, 0x00,
  0x00, 0x00, 0x00, 0x00, 0x00, 0x00, 0x00, 0x00, 0x01, 0x00, 0x00, 0x00,
  0xe9, 0x72, 0xe9, 0x36, 0x27, 0x00, 0x00, 0x00, 0x73, 0x65, 0x71, 0x75,
  0x65, 0x6e, 0x74, 0x69, 0x61, 0x6c, 0x2f, 0x64, 0x65, 0x6e, 0x73, 0x65,
  0x2f, 0x42, 0x69, 0x61, 0x73, 0x41, 0x64, 0x64, 0x2f, 0x52, 0x65, 0x61,
  0x64, 0x56, 0x61, 0x72, 0x69, 0x61, 0x62, 0x6c, 0x65, 0x4f, 0x70, 0x00,
  0x01, 0x00, 0x00, 0x00, 0x32, 0x00, 0x00, 0x00, 0xb6, 0xfe, 0xff, 0xff,
  0x00, 0x00, 0x00, 0x01, 0x14, 0x00, 0x00, 0x00, 0x30, 0x00, 0x00, 0x00,
  0x05, 0x00, 0x00, 0x00, 0x00, 0x00, 0x00, 0x09, 0x44, 0x00, 0x00, 0x00,
  0x04, 0xfe, 0xff, 0xff, 0x08, 0x00, 0x00, 0x00, 0x10, 0x00, 0x00, 0x00,
  0x01, 0x00, 0x00, 0x00, 0x00, 0x00, 0x00, 0x00, 0x00, 0x00, 0x00, 0x00,
  0x01, 0x00, 0x00, 0x00, 0x7e, 0x51, 0x48, 0x3b, 0x19, 0x00, 0x00, 0x00,
  0x73, 0x65, 0x71, 0x75, 0x65, 0x6e, 0x74, 0x69, 0x61, 0x6c, 0x2f, 0x64,
  0x65, 0x6e, 0x73, 0x65, 0x5f, 0x31, 0x2f, 0x4d, 0x61, 0x74, 0x4d, 0x75,
  0x6c, 0x00, 0x00, 0x00, 0x02, 0x00, 0x00, 0x00, 0x19, 0x00, 0x00, 0x00,
  0x32, 0x00, 0x00, 0x00, 0x1e, 0xff, 0xff, 0xff, 0x00, 0x00, 0x00, 0x01,
  0x14, 0x00, 0x00, 0x00, 0x34, 0x00, 0x00, 0x00, 0x04, 0x00, 0x00, 0x00,
  0x00, 0x00, 0x00, 0x02, 0x58, 0x00, 0x00, 0x00, 0x6c, 0xfe, 0xff, 0xff,
  0x08, 0x00, 0x00, 0x00, 0x14, 0x00, 0x00, 0x00, 0x01, 0x00, 0x00, 0x00,
  0x00, 0x00, 0x00, 0x00, 0x00, 0x00, 0x00, 0x00, 0x00, 0x00, 0x00, 0x00,
  0x01, 0x00, 0x00, 0x00, 0x24, 0xfc, 0x53, 0x38, 0x29, 0x00, 0x00, 0x00,
  0x73, 0x65, 0x71, 0x75, 0x65, 0x6e, 0x74, 0x69, 0x61, 0x6c, 0x2f, 0x64,
  0x65, 0x6e, 0x73, 0x65, 0x5f, 0x31, 0x2f, 0x42, 0x69, 0x61, 0x73, 0x41,
  0x64, 0x64, 0x2f, 0x52, 0x65, 0x61, 0x64, 0x56, 0x61, 0x72, 0x69, 0x61,
  0x62, 0x6c, 0x65, 0x4f, 0x70, 0x00, 0x00, 0x00, 0x01, 0x00, 0x00, 0x00,
  0x19, 0x00, 0x00, 0x00, 0x96, 0xff, 0xff, 0xff, 0x00, 0x00, 0x00, 0x01,
  0x14, 0x00, 0x00, 0x00, 0x30, 0x00, 0x00, 0x00, 0x03, 0x00, 0x00, 0x00,
  0x00, 0x00, 0x00, 0x09, 0x44, 0x00, 0x00, 0x00, 0xe4, 0xfe, 0xff, 0xff,
  0x08, 0x00, 0x00, 0x00, 0x10, 0x00, 0x00, 0x00, 0x01, 0x00, 0x00, 0x00,
  0x00, 0x00, 0x00, 0x00, 0x00, 0x00, 0x00, 0x00, 0x01, 0x00, 0x00, 0x00,
  0xfb, 0xff, 0x80, 0x3b, 0x19, 0x00, 0x00, 0x00, 0x73, 0x65, 0x71, 0x75,
  0x65, 0x6e, 0x74, 0x69, 0x61, 0x6c, 0x2f, 0x64, 0x65, 0x6e, 0x73, 0x65,
  0x5f, 0x32, 0x2f, 0x4d, 0x61, 0x74, 0x4d, 0x75, 0x6c, 0x00, 0x00, 0x00,
  0x02, 0x00, 0x00, 0x00, 0x05, 0x00, 0x00, 0x00, 0x19, 0x00, 0x00, 0x00,
  0x00, 0x00, 0x16, 0x00, 0x1c, 0x00, 0x18, 0x00, 0x17, 0x00, 0x10, 0x00,
  0x0c, 0x00, 0x08, 0x00, 0x00, 0x00, 0x00, 0x00, 0x00, 0x00, 0x07, 0x00,
  0x16, 0x00, 0x00, 0x00, 0x00, 0x00, 0x00, 0x01, 0x14, 0x00, 0x00, 0x00,
  0x30, 0x00, 0x00, 0x00, 0x02, 0x00, 0x00, 0x00, 0x00, 0x00, 0x00, 0x02,
  0x54, 0x00, 0x00, 0x00, 0x64, 0xff, 0xff, 0xff, 0x08, 0x00, 0x00, 0x00,
  0x10, 0x00, 0x00, 0x00, 0x01, 0x00, 0x00, 0x00, 0x00, 0x00, 0x00, 0x00,
  0x00, 0x00, 0x00, 0x00, 0x01, 0x00, 0x00, 0x00, 0xcb, 0x24, 0xaf, 0x38,
  0x29, 0x00, 0x00, 0x00, 0x73, 0x65, 0x71, 0x75, 0x65, 0x6e, 0x74, 0x69,
  0x61, 0x6c, 0x2f, 0x64, 0x65, 0x6e, 0x73, 0x65, 0x5f, 0x32, 0x2f, 0x42,
  0x69, 0x61, 0x73, 0x41, 0x64, 0x64, 0x2f, 0x52, 0x65, 0x61, 0x64, 0x56,
  0x61, 0x72, 0x69, 0x61, 0x62, 0x6c, 0x65, 0x4f, 0x70, 0x00, 0x00, 0x00,
