const unsigned char model[] = {
  0x1c, 0x00, 0x00, 0x00, 0x54, 0x46, 0x4c, 0x33, 0x14, 0x00, 0x20, 0x00,
  0x1c, 0x00, 0x18, 0x00, 0x14, 0x00, 0x10, 0x00, 0x0c, 0x00, 0x00, 0x00,
  0x08, 0x00, 0x04, 0x00, 0x14, 0x00, 0x00, 0x00, 0x1c, 0x00, 0x00, 0x00,
  0x88, 0x00, 0x00, 0x00, 0xe0, 0x00, 0x00, 0x00, 0x7c, 0x2b, 0x00, 0x00,
  0x8c, 0x2b, 0x00, 0x00, 0x18, 0x43, 0x00, 0x00, 0x03, 0x00, 0x00, 0x00,
  0x01, 0x00, 0x00, 0x00, 0x04, 0x00, 0x00, 0x00, 0x46, 0xd3, 0xff, 0xff,
  0x0c, 0x00, 0x00, 0x00, 0x1c, 0x00, 0x00, 0x00, 0x38, 0x00, 0x00, 0x00,
  0x0f, 0x00, 0x00, 0x00, 0x73, 0x65, 0x72, 0x76, 0x69, 0x6e, 0x67, 0x5f,
  0x64, 0x65, 0x66, 0x61, 0x75, 0x6c, 0x74, 0x00, 0x01, 0x00, 0x00, 0x00,
  0x04, 0x00, 0x00, 0x00, 0x94, 0xff, 0xff, 0xff, 0x19, 0x00, 0x00, 0x00,
  0x04, 0x00, 0x00, 0x00, 0x07, 0x00, 0x00, 0x00, 0x64, 0x65, 0x6e, 0x73,
  0x65, 0x5f, 0x34, 0x00, 0x01, 0x00, 0x00, 0x00, 0x04, 0x00, 0x00, 0x00,
  0x9a, 0xd1, 0xff, 0xff, 0x04, 0x00, 0x00, 0x00, 0x0c, 0x00, 0x00, 0x00,
  0x63, 0x6f, 0x6e, 0x76, 0x32, 0x64, 0x5f, 0x69, 0x6e, 0x70, 0x75, 0x74,
  0x00, 0x00, 0x00, 0x00, 0x02, 0x00, 0x00, 0x00, 0x34, 0x00, 0x00, 0x00,
  0x04, 0x00, 0x00, 0x00, 0xdc, 0xff, 0xff, 0xff, 0x1c, 0x00, 0x00, 0x00,
  0x04, 0x00, 0x00, 0x00, 0x13, 0x00, 0x00, 0x00, 0x43, 0x4f, 0x4e, 0x56,
  0x45, 0x52, 0x53, 0x49, 0x4f, 0x4e, 0x5f, 0x4d, 0x45, 0x54, 0x41, 0x44,
  0x41, 0x54, 0x41, 0x00, 0x08, 0x00, 0x0c, 0x00, 0x08, 0x00, 0x04, 0x00,
  0x08, 0x00, 0x00, 0x00, 0x1b, 0x00, 0x00, 0x00, 0x04, 0x00, 0x00, 0x00,
  0x13, 0x00, 0x00, 0x00, 0x6d, 0x69, 0x6e, 0x5f, 0x72, 0x75, 0x6e, 0x74,
  0x69, 0x6d, 0x65, 0x5f, 0x76, 0x65, 0x72, 0x73, 0x69, 0x6f, 0x6e, 0x00,
  0x1d, 0x00, 0x00, 0x00, 0x98, 0x2a, 0x00, 0x00, 0x90, 0x2a, 0x00, 0x00,
  0x78, 0x2a, 0x00, 0x00, 0x54, 0x2a, 0x00, 0x00, 0xa4, 0x29, 0x00, 0x00,
  0x14, 0x29, 0x00, 0x00, 0x04, 0x19, 0x00, 0x00, 0x74, 0x18, 0x00, 0x00,
  0x64, 0x06, 0x00, 0x00, 0x14, 0x06, 0x00, 0x00, 0x84, 0x01, 0x00, 0x00,
  0x54, 0x01, 0x00, 0x00, 0xfc, 0x00, 0x00, 0x00, 0xf4, 0x00, 0x00, 0x00,
  0xec, 0x00, 0x00, 0x00, 0xe4, 0x00, 0x00, 0x00, 0xdc, 0x00, 0x00, 0x00,
  0xd4, 0x00, 0x00, 0x00, 0xcc, 0x00, 0x00, 0x00, 0xc4, 0x00, 0x00, 0x00,
  0xbc, 0x00, 0x00, 0x00, 0xb4, 0x00, 0x00, 0x00, 0xac, 0x00, 0x00, 0x00,
  0xa4, 0x00, 0x00, 0x00, 0x9c, 0x00, 0x00, 0x00, 0x94, 0x00, 0x00, 0x00,
  0x8c, 0x00, 0x00, 0x00, 0x6c, 0x00, 0x00, 0x00, 0x04, 0x00, 0x00, 0x00,
  0x8a, 0xd2, 0xff, 0xff, 0x04, 0x00, 0x00, 0x00, 0x58, 0x00, 0x00, 0x00,
  0x0c, 0x00, 0x00, 0x00, 0x08, 0x00, 0x0e, 0x00, 0x08, 0x00, 0x04, 0x00,
  0x08, 0x00, 0x00, 0x00, 0x10, 0x00, 0x00, 0x00, 0x28, 0x00, 0x00, 0x00,
  0x00, 0x00, 0x06, 0x00, 0x08, 0x00, 0x04, 0x00, 0x06, 0x00, 0x00, 0x00,
  0x04, 0x00, 0x00, 0x00, 0x01, 0x00, 0x00, 0x00, 0xeb, 0x03, 0x00, 0x00,
  0x00, 0x00, 0x0a, 0x00, 0x10, 0x00, 0x0c, 0x00, 0x08, 0x00, 0x04, 0x00,
  0x0a, 0x00, 0x00, 0x00, 0x02, 0x00, 0x00, 0x00, 0x02, 0x00, 0x00, 0x00,
  0x04, 0x00, 0x00, 0x00, 0x06, 0x00, 0x00, 0x00, 0x32, 0x2e, 0x31, 0x32,
  0x2e, 0x30, 0x00, 0x00, 0xee, 0xd2, 0xff, 0xff, 0x04, 0x00, 0x00, 0x00,
  0x10, 0x00, 0x00, 0x00, 0x31, 0x2e, 0x31, 0x34, 0x2e, 0x30, 0x00, 0x00,
  0x00, 0x00, 0x00, 0x00, 0x00, 0x00, 0x00, 0x00, 0x98, 0xbf, 0xff, 0xff,
  0x9c, 0xbf, 0xff, 0xff, 0xa0, 0xbf, 0xff, 0xff, 0xa4, 0xbf, 0xff, 0xff,
  0xa8, 0xbf, 0xff, 0xff, 0xac, 0xbf, 0xff, 0xff, 0xb0, 0xbf, 0xff, 0xff,
  0xb4, 0xbf, 0xff, 0xff, 0xb8, 0xbf, 0xff, 0xff, 0xbc, 0xbf, 0xff, 0xff,
  0xc0, 0xbf, 0xff, 0xff, 0xc4, 0xbf, 0xff, 0xff, 0xc8, 0xbf, 0xff, 0xff,
  0xcc, 0xbf, 0xff, 0xff, 0x42, 0xd3, 0xff, 0xff, 0x04, 0x00, 0x00, 0x00,
  0x48, 0x00, 0x00, 0x00, 0x67, 0x19, 0x81, 0x6f, 0xc7, 0x93, 0xdf, 0x0a,
  0xd2, 0x5e, 0x4d, 0xbf, 0xbc, 0x2d, 0x4d, 0x67, 0xe0, 0x7f, 0x0d, 0xd3,
  0xfb, 0x29, 0xd8, 0xce, 0x40, 0x81, 0xda, 0x7f, 0xea, 0x8d, 0x39, 0x93,
  0xc3, 0x1c, 0xaa, 0xe9, 0xcb, 0x7a, 0xb9, 0x2f, 0x54, 0x7f, 0xa8, 0x52,
  0x69, 0x52, 0x29, 0x7f, 0xed, 0xd3, 0x09, 0xd7, 0x79, 0x67, 0x7f, 0x24,
  0x77, 0xe6, 0x4c, 0x24, 0x4b, 0xfe, 0x2d, 0xcf, 0x2d, 0xeb, 0x7f, 0x36,
  0xec, 0x63, 0x50, 0x6f, 0x96, 0xd3, 0xff, 0xff, 0x04, 0x00, 0x00, 0x00,
  0x20, 0x00, 0x00, 0x00, 0xae, 0xfd, 0xff, 0xff, 0xf8, 0xfe, 0xff, 0xff,
  0x4d, 0xfd, 0xff, 0xff, 0xd1, 0xfc, 0xff, 0xff, 0x15, 0xff, 0xff, 0xff,
  0x66, 0xff, 0xff, 0xff, 0xe4, 0xfe, 0xff, 0xff, 0xe8, 0x04, 0x00, 0x00,
  0xc2, 0xd3, 0xff, 0xff, 0x04, 0x00, 0x00, 0x00, 0x80, 0x04, 0x00, 0x00,
  0x7a, 0x59, 0x6c, 0xde, 0x45, 0x50, 0x44, 0x33, 0xf6, 0xf7, 0xd2, 0x15,
  0xe7, 0x1e, 0xd5, 0x6c, 0x61, 0xcc, 0x26, 0xf7, 0xea, 0x15, 0xe2, 0x78,
  0x4b, 0x3b, 0x1f, 0x1c, 0x3e, 0x58, 0x2b, 0x76, 0xec, 0x1f, 0x7f, 0x6f,
  0x64, 0x53, 0x26, 0xd1, 0xee, 0x3a, 0x1b, 0x42, 0xce, 0xfe, 0x1a, 0x48,
  0x30, 0xc3, 0x4d, 0xd6, 0xd2, 0x58, 0xdf, 0x19, 0xd6, 0x4e, 0xe0, 0xbe,
  0x13, 0x35, 0x1d, 0x37, 0xd9, 0xc0, 0x50, 0x1a, 0xde, 0x9d, 0x9d, 0xe6,
  0xde, 0x66, 0xf4, 0xac, 0x46, 0x25, 0x12, 0x7f, 0xc4, 0x0d, 0xd9, 0x0f,
  0x3d, 0x1b, 0xf6, 0x36, 0xb1, 0x2f, 0x09, 0xd8, 0xff, 0x1d, 0x11, 0x5f,
  0xf5, 0xdd, 0x8d, 0xa4, 0x08, 0x73, 0x22, 0xd5, 0xc9, 0x44, 0x8d, 0xf9,
  0x56, 0x26, 0x3b, 0xff, 0xb6, 0x55, 0xa0, 0xdd, 0xff, 0x68, 0x1b, 0x6a,
  0xb6, 0xb8, 0xb6, 0xfb, 0xcd, 0x00, 0xa0, 0xbb, 0x96, 0xa2, 0xf2, 0xb6,
  0x93, 0x15, 0xc9, 0xe8, 0xe7, 0xfd, 0xa1, 0xa4, 0x05, 0x28, 0x2d, 0xb9,
  0x55, 0xf8, 0xac, 0x56, 0x07, 0x61, 0x45, 0xae, 0xd7, 0xf1, 0xcb, 0x10,
  0xc1, 0xd5, 0xd1, 0x0a, 0xf1, 0x73, 0xcc, 0xe5, 0x03, 0x0d, 0xf9, 0x26,
  0x95, 0x1a, 0xa8, 0xc6, 0xb0, 0x9a, 0x81, 0x11, 0x8d, 0xb0, 0xb2, 0xff,
  0xd1, 0xd4, 0xb6, 0x3c, 0x9f, 0x20, 0x03, 0xc9, 0xd2, 0x44, 0x32, 0xbb,
  0xf0, 0x10, 0xbe, 0xf3, 0xa0, 0xde, 0xa0, 0xe3, 0xda, 0xf9, 0x1e, 0xcd,
  0x13, 0x2d, 0xac, 0x1e, 0xb2, 0x25, 0xb0, 0x9f, 0x03, 0xe0, 0xd5, 0xcc,
  0x3a, 0x36, 0xb4, 0x2e, 0x08, 0x66, 0x54, 0x69, 0x26, 0xd5, 0x3e, 0xd8,
  0x64, 0xf6, 0x28, 0x7d, 0x0d, 0x75, 0x3f, 0x19, 0xcc, 0x03, 0x02, 0x7a,
  0x5a, 0xe2, 0x11, 0x12, 0x57, 0x52, 0x54, 0xfc, 0x46, 0x24, 0xcc, 0xdc,
  0x0a, 0x15, 0x61, 0x79, 0xd0, 0x0d, 0x6d, 0x1a, 0x6e, 0xfa, 0x18, 0x21,
  0xe1, 0x5f, 0x0d, 0x1d, 0x63, 0xef, 0xd2, 0x2d, 0xd6, 0xfa, 0x45, 0x28,
  0x27, 0xfe, 0x30, 0xd2, 0x66, 0x1d, 0x04, 0x2f, 0x7f, 0x73, 0x56, 0xde,
  0x55, 0x46, 0xe9, 0x67, 0x55, 0x51, 0x36, 0xee, 0x0e, 0x42, 0x56, 0x1e,
  0x49, 0x3a, 0xe6, 0xcf, 0xde, 0xfa, 0x25, 0x26, 0x3b, 0x23, 0x50, 0xfc,
  0x6c, 0x68, 0x68, 0x21, 0x19, 0xd9, 0x4a, 0x11, 0x7f, 0x40, 0x4b, 0x19,
  0xdf, 0x3f, 0x12, 0x22, 0x72, 0x43, 0x4a, 0xfa, 0xf9, 0xd8, 0x1f, 0x3c,
  0x5a, 0xd9, 0x5e, 0xd8, 0x6e, 0x40, 0x43, 0x00, 0x25, 0x53, 0x32, 0x5c,
  0x4f, 0xdc, 0x13, 0xda, 0x53, 0xfc, 0xf3, 0x5d, 0x41, 0x27, 0xf5, 0xe8,
  0x9d, 0x52, 0x94, 0xe8, 0xc3, 0xe8, 0xd5, 0x26, 0x2e, 0x35, 0x09, 0xcb,
  0x0f, 0x50, 0x2b, 0xe7, 0x42, 0x26, 0xb1, 0x0e, 0x3e, 0xcf, 0x53, 0x03,
  0xec, 0xb5, 0xf6, 0x48, 0xd2, 0x41, 0xd4, 0xac, 0x45, 0xca, 0xc0, 0x52,
  0x94, 0xa5, 0x1f, 0xf0, 0xa9, 0xf2, 0x00, 0x25, 0xed, 0xc3, 0xd7, 0x45,
  0xa9, 0xb9, 0x34, 0xe4, 0xc8, 0xc2, 0xc5, 0x51, 0x9d, 0x51, 0x10, 0xc5,
  0x39, 0x19, 0xb7, 0x5c, 0x1b, 0x0c, 0x08, 0x9c, 0xf3, 0x16, 0x16, 0x7f,
  0x4c, 0x2c, 0xfb, 0x43, 0x6c, 0xe7, 0x2c, 0x2e, 0x30, 0x3a, 0x02, 0x33,
  0xbf, 0xd8, 0xf9, 0x56, 0xf5, 0xef, 0x10, 0xd3, 0xad, 0xcc, 0xdc, 0x23,
  0xd1, 0x74, 0x58, 0x07, 0x18, 0x6d, 0x4b, 0x23, 0x15, 0x25, 0x6a, 0xc5,
  0x6e, 0x1c, 0x19, 0xf6, 0xe0, 0xe3, 0x43, 0x33, 0x1f, 0x3d, 0x1f, 0x0c,
  0x35, 0x75, 0xcb, 0xbd, 0xe2, 0x69, 0x1b, 0x6c, 0x00, 0x71, 0xf3, 0x13,
  0x62, 0x62, 0x45, 0x6c, 0x6c, 0x3e, 0xd0, 0x31, 0x7f, 0x45, 0x51, 0x60,
  0x2d, 0x4d, 0xfb, 0x5a, 0x1f, 0x2b, 0x02, 0xd5, 0x07, 0xa9, 0x2d, 0x26,
  0x2e, 0xa3, 0x14, 0xb3, 0x40, 0xf0, 0x87, 0x60, 0xbc, 0xd6, 0x16, 0x97,
  0x46, 0x61, 0xf5, 0x05, 0x0f, 0x25, 0x49, 0x20, 0xbd, 0x49, 0x08, 0x03,
  0xdb, 0x5d, 0x7f, 0x40, 0x9f, 0x4f, 0x97, 0x9b, 0x2b, 0x3b, 0xf7, 0x3b,
  0x6b, 0x60, 0x0c, 0x7b, 0x49, 0x72, 0xf7, 0x3f, 0xdd, 0x21, 0xa8, 0x6f,
  0xa3, 0x06, 0x30, 0xf6, 0xbe, 0xbd, 0xfa, 0x18, 0x1a, 0xe7, 0xd7, 0x8f,
  0xb1, 0x29, 0xe1, 0xf3, 0xb9, 0xfc, 0x59, 0x42, 0xc7, 0x08, 0x0e, 0xf3,
  0x13, 0xc5, 0x36, 0xcd, 0xe6, 0x04, 0xad, 0xfb, 0xfe, 0x48, 0xf4, 0xb7,
  0x0c, 0x24, 0x1d, 0x04, 0x1e, 0x63, 0x49, 0x71, 0x3e, 0xde, 0x3a, 0x9a,
  0xe5, 0x39, 0xfe, 0x4f, 0x10, 0xd1, 0x08, 0xa3, 0xf0, 0xdf, 0xfc, 0x75,
  0x02, 0x32, 0xb7, 0xe1, 0xcf, 0x51, 0x39, 0xa0, 0xd2, 0xf0, 0x81, 0xca,
  0xe4, 0x13, 0x6b, 0x31, 0x44, 0x44, 0xc5, 0xbe, 0xc1, 0x5b, 0x64, 0xc1,
  0x09, 0x53, 0x6c, 0x7c, 0x0d, 0xdc, 0xf3, 0xe4, 0xd6, 0x60, 0x14, 0xdd,
  0x26, 0xf5, 0x4e, 0xde, 0x76, 0xe3, 0xd7, 0x47, 0x45, 0x65, 0x60, 0x40,
  0x6b, 0x10, 0x72, 0xdb, 0xd5, 0x59, 0xf8, 0x32, 0x10, 0xf3, 0xb7, 0x50,
  0x40, 0x75, 0x13, 0x53, 0x66, 0x3f, 0xe5, 0x5e, 0x08, 0x1b, 0x56, 0x68,
  0x56, 0x0d, 0xda, 0x0c, 0xf2, 0x55, 0x5a, 0xe7, 0xfe, 0x1e, 0x75, 0x7f,
  0xf1, 0x26, 0x5e, 0x34, 0x17, 0x15, 0x39, 0x16, 0x5a, 0x4d, 0x0f, 0xbf,
  0xb1, 0xcc, 0x01, 0xeb, 0xe2, 0x97, 0x81, 0xbf, 0xb3, 0x4c, 0x11, 0xd6,
  0x03, 0x07, 0xdd, 0xbe, 0xde, 0x20, 0x2e, 0xf7, 0x6c, 0x1c, 0x4f, 0x3b,
  0xe7, 0xc5, 0xf7, 0x95, 0xd6, 0xb1, 0x92, 0x10, 0x8b, 0xf0, 0xce, 0xd6,
  0xbe, 0xe3, 0xf5, 0x98, 0xb7, 0x11, 0xcc, 0xb0, 0x37, 0x0d, 0xd4, 0xc8,
  0x22, 0xfe, 0x69, 0xa9, 0xb9, 0x1f, 0x0e, 0x55, 0xc7, 0xf4, 0xcd, 0xcc,
  0x1a, 0x28, 0xdc, 0x3f, 0xd4, 0x3b, 0xd0, 0xa1, 0xdb, 0x61, 0x30, 0x64,
  0x04, 0xd0, 0xfb, 0xee, 0x4a, 0x57, 0x00, 0xd8, 0xec, 0xec, 0xe3, 0x3f,
  0x2d, 0xde, 0x4d, 0x16, 0x0d, 0x1e, 0x03, 0x7f, 0x49, 0x0f, 0x2d, 0x18,
  0xc6, 0x99, 0x0f, 0xca, 0xc5, 0xb9, 0xab, 0xda, 0xd5, 0xc2, 0x97, 0xd8,
  0x4f, 0xce, 0x4f, 0xd8, 0x75, 0xc3, 0xe7, 0x27, 0x36, 0xbb, 0xd3, 0xc1,
  0xe1, 0xbf, 0xc4, 0xe4, 0xb3, 0xe6, 0x0f, 0xa5, 0x41, 0x59, 0x00, 0x12,
  0xe0, 0x1f, 0xdf, 0x22, 0x58, 0x31, 0xbe, 0xdd, 0xec, 0x62, 0x52, 0x47,
  0x05, 0x2c, 0xf4, 0x09, 0x60, 0xcd, 0x0d, 0x6c, 0x1a, 0x6f, 0x22, 0xbd,
  0x45, 0x52, 0x29, 0x7a, 0x7a, 0x71, 0x6e, 0xfd, 0x4a, 0xfb, 0x75, 0x1f,
  0xc5, 0xd4, 0xf7, 0xcd, 0x1b, 0x64, 0xf8, 0x0f, 0x2a, 0x3e, 0xf1, 0x55,
  0x4b, 0x4f, 0x69, 0x1b, 0x1f, 0x61, 0x16, 0x41, 0xfd, 0x01, 0x7f, 0xca,
  0xec, 0xf6, 0x5d, 0xe0, 0xb0, 0x56, 0x05, 0xcf, 0x0b, 0x15, 0x3c, 0x70,
  0x44, 0xbd, 0x4b, 0xee, 0x2c, 0xc4, 0x66, 0x58, 0xc9, 0xcd, 0xe7, 0x23,
  0xf9, 0xea, 0x58, 0xbc, 0x8e, 0x11, 0x96, 0x93, 0x0a, 0xca, 0x92, 0xf4,
  0xbe, 0xdd, 0xf4, 0xa3, 0xd8, 0x64, 0xf8, 0xea, 0x00, 0xed, 0xec, 0x47,
  0xf6, 0xee, 0xf8, 0x06, 0xf6, 0xf0, 0x22, 0x4c, 0x81, 0xe6, 0xa1, 0x88,
  0x53, 0x42, 0xe9, 0x32, 0xb8, 0x35, 0x4e, 0xf0, 0x0f, 0x0d, 0x78, 0x4d,
  0xc2, 0x49, 0xf7, 0xbb, 0x2b, 0x43, 0x3f, 0x0b, 0xcb, 0x5d, 0x08, 0xfd,
  0x48, 0x24, 0x3f, 0xe7, 0x5d, 0xec, 0xb4, 0x6f, 0xdf, 0xf0, 0x4e, 0x73,
  0xdb, 0x15, 0x81, 0x9d, 0x3b, 0x2c, 0xe5, 0x40, 0xc5, 0x63, 0xe7, 0x8f,
  0x04, 0x2b, 0x24, 0x79, 0xeb, 0x0e, 0x5f, 0x23, 0x36, 0x48, 0x2c, 0x76,
  0x0f, 0xd2, 0x36, 0x46, 0xb3, 0x62, 0x71, 0xc5, 0xeb, 0xde, 0x8b, 0xbe,
  0x21, 0x62, 0xf1, 0xb5, 0xca, 0xfe, 0x1f, 0x03, 0x5e, 0x2b, 0x53, 0xef,
  0xda, 0x88, 0x38, 0x21, 0x08, 0x93, 0xd2, 0xdf, 0xfb, 0xf4, 0x0c, 0x30,
  0x1f, 0x0b, 0x81, 0x83, 0xb2, 0x16, 0x31, 0xb1, 0xbc, 0xbb, 0xd5, 0xf9,
  0x93, 0xe9, 0xb8, 0xdc, 0x81, 0x87, 0xb1, 0xfc, 0xee, 0x15, 0xe2, 0x28,
  0xbb, 0x18, 0xab, 0x1c, 0x35, 0xdf, 0xec, 0xda, 0x09, 0x0f, 0x0b, 0x03,
  0xcf, 0x73, 0xe1, 0x97, 0xfb, 0x27, 0xe0, 0x1c, 0xb2, 0xf8, 0x29, 0xc2,
  0x07, 0x49, 0x5c, 0x5c, 0xfe, 0x38, 0x2d, 0x1b, 0xcc, 0x1f, 0xf0, 0xe0,
  0x0b, 0xed, 0xfc, 0xce, 0x04, 0xed, 0x26, 0x30, 0x42, 0xf6, 0x59, 0xd5,
  0x27, 0x61, 0x27, 0x6d, 0xe5, 0x1f, 0xd4, 0x07, 0xd9, 0x1d, 0x5e, 0xb6,
  0x4e, 0xd8, 0xff, 0xff, 0x04, 0x00, 0x00, 0x00, 0x40, 0x00, 0x00, 0x00,
  0xbd, 0xf7, 0xff, 0xff, 0x0c, 0x00, 0x00, 0x00, 0x60, 0x26, 0x00, 0x00,
  0x66, 0xff, 0xff, 0xff, 0xf2, 0xfa, 0xff, 0xff, 0xf3, 0x18, 0x00, 0x00,
  0x02, 0x04, 0x00, 0x00, 0xaa, 0x0a, 0x00, 0x00, 0x61, 0x08, 0x00, 0x00,
  0x2d, 0xfc, 0xff, 0xff, 0x64, 0x20, 0x00, 0x00, 0xf0, 0x12, 0x00, 0x00,
  0x6b, 0xfd, 0xff, 0xff, 0x2c, 0x08, 0x00, 0x00, 0x9a, 0xfe, 0xff, 0xff,
  0xde, 0x0b, 0x00, 0x00, 0x9a, 0xd8, 0xff, 0xff, 0x04, 0x00, 0x00, 0x00,
  0x00, 0x12, 0x00, 0x00, 0x40, 0xe0, 0xcf, 0xd9, 0xe7, 0xee, 0xf1, 0xdc,
  0xf9, 0x3d, 0x2b, 0xfa, 0xfd, 0x23, 0x2f, 0x3c, 0xe7, 0xdd, 0xbe, 0xdd,
  0x44, 0x2b, 0x46, 0x3b, 0x40, 0x37, 0x2a, 0x1f, 0xf4, 0x05, 0xfa, 0x0b,
  0xd1, 0x51, 0xcb, 0xe1, 0x14, 0x1c, 0x08, 0xf6, 0x1d, 0x1f, 0xdb, 0xdd,
  0x36, 0xcd, 0xdb, 0xd2, 0x0d, 0x61, 0x32, 0x23, 0xe6, 0xc0, 0xe2, 0x0d,
  0x61, 0x03, 0x21, 0xb7, 0x01, 0xc7, 0x5f, 0x18, 0x01, 0x24, 0x0d, 0xf6,
  0xfb, 0x09, 0xf4, 0x61, 0x3f, 0x48, 0xfd, 0x26, 0x5f, 0xee, 0x1c, 0x34,
  0x45, 0x17, 0xce, 0x53, 0xff, 0x50, 0x3a, 0x3d, 0x60, 0xf4, 0xd4, 0x1f,
  0x06, 0xe3, 0x31, 0x1b, 0x9c, 0xe7, 0x4c, 0x90, 0x9e, 0xe8, 0x9b, 0xf6,
  0xd6, 0xfc, 0x1a, 0xb2, 0xd9, 0x9f, 0xe4, 0xbd, 0xeb, 0xfb, 0x20, 0xc8,
  0xab, 0xda, 0x8d, 0x09, 0xfd, 0xfc, 0xef, 0x44, 0x28, 0x81, 0x0c, 0x14,
  0xd1, 0x3a, 0xfb, 0xcd, 0xc7, 0x34, 0xb7, 0xef, 0xed, 0xe4, 0x13, 0x40,
  0xd6, 0xd4, 0x52, 0x97, 0x00, 0x01, 0xdb, 0x28, 0xb5, 0x05, 0xdc, 0x49,
  0xea, 0xea, 0x37, 0x0d, 0x28, 0xd6, 0xe1, 0x37, 0xd2, 0xb7, 0x36, 0xc7,
  0x26, 0xe7, 0xc6, 0x37, 0x1f, 0xb7, 0xf4, 0x12, 0x0f, 0x35, 0x37, 0x21,
  0xb2, 0xae, 0x08, 0x07, 0x36, 0x38, 0x02, 0x12, 0xb8, 0x2b, 0x50, 0xf2,
  0xd4, 0x3b, 0xf1, 0xf6, 0x4b, 0xed, 0x2f, 0x17, 0x2b, 0xf5, 0xcf, 0xd7,
  0xfb, 0xeb, 0x30, 0xf2, 0x3f, 0x0e, 0x3d, 0x25, 0x10, 0xa7, 0x30, 0x0c,
  0x08, 0xef, 0xfd, 0x24, 0xce, 0xed, 0x3d, 0xd1, 0xc5, 0xe3, 0x06, 0xdc,
  0xae, 0xad, 0x5a, 0x15, 0xd8, 0x72, 0x39, 0x36, 0xaf, 0xdb, 0x1a, 0x42,
  0x07, 0xe3, 0xc0, 0x23, 0x12, 0x4e, 0x7f, 0x44, 0x00, 0xf4, 0xbf, 0xf3,
  0x15, 0xc4, 0xef, 0xe8, 0xd0, 0xfe, 0xf9, 0xef, 0x1b, 0x67, 0xba, 0x09,
  0x32, 0xf0, 0x1f, 0x27, 0x0d, 0x10, 0xe5, 0x2f, 0x01, 0x4d, 0x54, 0x45,
  0xe6, 0x53, 0xde, 0x04, 0xe2, 0x2d, 0x01, 0xc0, 0xf3, 0x03, 0x1a, 0xed,
  0x4d, 0x58, 0x15, 0x63, 0x16, 0x7f, 0xb0, 0x66, 0x38, 0x2d, 0x58, 0xd5,
  0x2b, 0x0e, 0x17, 0x2e, 0x31, 0x67, 0x49, 0x19, 0x56, 0x34, 0xd8, 0x47,
  0x18, 0xca, 0x3c, 0x51, 0xea, 0x23, 0xeb, 0xc9, 0xff, 0x05, 0xb1, 0x11,
  0x2c, 0x2c, 0xb2, 0xcb, 0x1c, 0x25, 0xdc, 0x05, 0xff, 0x14, 0xcc, 0xfe,
  0x28, 0x1c, 0x45, 0xfe, 0x13, 0x5f, 0xe9, 0x1d, 0x5c, 0xee, 0xd7, 0xbd,
  0xe3, 0xe5, 0x2e, 0xff, 0x3c, 0xd5, 0x15, 0x0f, 0x08, 0x64, 0xea, 0x2f,
  0x1c, 0xc3, 0x24, 0x36, 0x16, 0xea, 0x94, 0xcc, 0x3e, 0x02, 0xfc, 0xf6,
  0x5a, 0x03, 0xe9, 0x1e, 0x54, 0xb6, 0x2a, 0xc0, 0xff, 0x3a, 0xe0, 0xe5,
  0x38, 0x0d, 0xe9, 0xc4, 0x10, 0xd2, 0xf2, 0xdc, 0xe9, 0xdd, 0x02, 0xe8,
  0xd4, 0xf9, 0xed, 0xe3, 0xca, 0x1d, 0xd0, 0x24, 0xb7, 0x16, 0xc7, 0xc3,
  0x02, 0xc4, 0x1a, 0x2f, 0xfc, 0x16, 0xb8, 0xfa, 0xee, 0xec, 0xf0, 0xfd,
  0x05, 0x4d, 0xc4, 0x4d, 0x49, 0xbf, 0x57, 0x1b, 0xfa, 0x5b, 0x40, 0x24,
  0xef, 0x16, 0xff, 0xf9, 0xd3, 0x29, 0x06, 0xf6, 0x63, 0x4b, 0xc9, 0x69,
  0xaa, 0x34, 0x9b, 0x3c, 0x61, 0xcd, 0xcb, 0x0e, 0x49, 0x9e, 0x1d, 0xc8,
  0xe8, 0x1c, 0xb6, 0x03, 0x45, 0xdd, 0x28, 0xc5, 0xc0, 0xbe, 0xd7, 0x2b,
  0x1f, 0x81, 0x27, 0x8b, 0x97, 0x42, 0xd2, 0xbb, 0xa1, 0x0f, 0xef, 0xd8,
  0x1d, 0xa3, 0x0f, 0xde, 0x99, 0xed, 0x5a, 0xb2, 0xa3, 0x3f, 0x06, 0x0e,
  0x9b, 0xc0, 0x5a, 0xda, 0xcc, 0xb9, 0xf7, 0xe2, 0x83, 0x00, 0x02, 0xd4,
  0x0c, 0xc5, 0xfb, 0xf8, 0xdb, 0xf5, 0x5c, 0x49, 0xfd, 0xe9, 0xe9, 0xab,
  0xdb, 0x05, 0xdc, 0x42, 0xe7, 0xc4, 0x69, 0xfe, 0x12, 0x03, 0x3f, 0xf7,
  0xed, 0x71, 0x2c, 0x23, 0x19, 0x38, 0x23, 0x47, 0x13, 0xf1, 0xfc, 0x22,
  0xea, 0xfd, 0x31, 0x01, 0xe3, 0x7a, 0x2a, 0x11, 0xb2, 0x14, 0xe5, 0xf9,
  0xcc, 0x34, 0xf8, 0xe2, 0xfb, 0xf7, 0xd0, 0xe6, 0x45, 0xe5, 0x1d, 0x0c,
  0x07, 0x5b, 0xef, 0x2e, 0xe3, 0xb9, 0xf6, 0x60, 0x2d, 0x4e, 0xe1, 0x03,
  0x55, 0xee, 0x40, 0x39, 0x14, 0x58, 0xf1, 0x61, 0x56, 0x04, 0x26, 0x35,
  0x2c, 0x2b, 0x10, 0xbc, 0x20, 0xf4, 0x2c, 0xef, 0xee, 0x5b, 0x9f, 0xf3,
  0x5d, 0x12, 0x0c, 0x49, 0x6b, 0xed, 0xd2, 0x0e, 0xf2, 0x3b, 0x6a, 0x58,
  0x0e, 0x17, 0xb8, 0x5e, 0x07, 0x3b, 0x02, 0x70, 0x00, 0xf9, 0xde, 0x1e,
  0xfa, 0xae, 0x0c, 0xdc, 0x4c, 0xf4, 0xd7, 0x52, 0xe9, 0x58, 0xba, 0x60,
  0xc7, 0xcc, 0xdf, 0x0c, 0xc3, 0x3a, 0x5f, 0xe1, 0x15, 0x3f, 0x07, 0xcf,
  0x1c, 0xd1, 0x42, 0xef, 0x4b, 0x26, 0xff, 0xf1, 0x3f, 0xc2, 0xec, 0x42,
  0x4b, 0xac, 0x7f, 0xec, 0x00, 0x3e, 0x09, 0x13, 0xf6, 0xbd, 0x4f, 0xc0,
  0xa9, 0x24, 0xd4, 0xfa, 0x1f, 0x42, 0x2e, 0xb1, 0x16, 0x0c, 0xde, 0x48,
  0x2a, 0x25, 0x65, 0x13, 0xe5, 0x27, 0x10, 0xe6, 0x5c, 0xc0, 0x46, 0x62,
  0xf9, 0xd1, 0xc9, 0x17, 0x10, 0xf3, 0x56, 0xdc, 0x55, 0xc1, 0x25, 0x51,
  0xc3, 0x1c, 0xf5, 0xcf, 0x3b, 0x17, 0x53, 0x0b, 0xec, 0x4d, 0x57, 0xf2,
  0xfe, 0x06, 0xe6, 0xbc, 0x44, 0x11, 0x27, 0xb8, 0x2f, 0x17, 0xe9, 0x4b,
  0x01, 0xd8, 0x22, 0xfa, 0xcb, 0xec, 0xd5, 0x31, 0xca, 0x3e, 0x2c, 0xd3,
  0x14, 0xd0, 0xf1, 0xcf, 0x10, 0xdb, 0x2d, 0x32, 0x3f, 0x0c, 0x28, 0xf4,
  0x01, 0x4f, 0x27, 0xcc, 0xd4, 0x22, 0xe4, 0x29, 0xea, 0x0d, 0xba, 0x0f,
  0x05, 0xf4, 0xcc, 0xca, 0x25, 0x0a, 0xf9, 0x20, 0x1a, 0x2f, 0x47, 0xf2,
  0x29, 0xdc, 0x1d, 0xca, 0xae, 0xb5, 0xb7, 0xf5, 0xc7, 0xbf, 0x15, 0xdc,
  0x1c, 0x35, 0xe7, 0x01, 0xfe, 0xd4, 0x2b, 0x4b, 0xe1, 0xc4, 0x03, 0xf8,
  0xc2, 0xd0, 0x0a, 0xe9, 0xcf, 0x74, 0xe1, 0xda, 0xeb, 0x04, 0x7f, 0x17,
  0x0f, 0xdc, 0x9d, 0x28, 0x47, 0x24, 0x2d, 0x4c, 0xec, 0x0c, 0x60, 0x17,
  0x5c, 0xd5, 0x63, 0xd2, 0xe7, 0xe2, 0x39, 0xf0, 0x01, 0x12, 0xea, 0x33,
  0xf1, 0xbc, 0x01, 0xce, 0x17, 0x0b, 0xe9, 0xdd, 0xf3, 0x1e, 0x5a, 0x4c,
  0xf8, 0x0f, 0x00, 0x43, 0x23, 0x24, 0x17, 0x25, 0x0d, 0x06, 0x00, 0x2e,
  0x3a, 0x74, 0x19, 0x1f, 0xd7, 0xd6, 0xec, 0xfe, 0x63, 0x35, 0xdb, 0x2a,
  0x29, 0xd7, 0x81, 0x0f, 0xde, 0xe5, 0x0c, 0x0d, 0xd2, 0x42, 0xe0, 0x0e,
  0x55, 0x0a, 0x4e, 0x7d, 0x4b, 0x05, 0x0d, 0x2b, 0xe7, 0xfe, 0xe6, 0xb1,
  0x2b, 0x6d, 0xcb, 0x48, 0xd1, 0xfc, 0xdf, 0x3a, 0x46, 0xf3, 0xaa, 0x42,
  0x06, 0x4f, 0x4f, 0x54, 0x33, 0xda, 0x29, 0xd1, 0xb3, 0x32, 0x00, 0xdb,
  0x2c, 0xce, 0xab, 0xe5, 0xcd, 0xd5, 0xd2, 0x08, 0xe0, 0x1c, 0x0e, 0xcb,
  0xe7, 0x4e, 0xd2, 0xda, 0xf0, 0x20, 0x45, 0x33, 0x36, 0x1a, 0x29, 0xfd,
  0x46, 0xb7, 0x15, 0xc6, 0xdf, 0x20, 0xd5, 0xe5, 0xff, 0xe4, 0x02, 0xfc,
  0xdc, 0x51, 0x3f, 0x47, 0x10, 0x21, 0x46, 0x1e, 0xca, 0xb5, 0xf1, 0x17,
  0x13, 0xcd, 0x14, 0x1b, 0xa7, 0x40, 0x06, 0x45, 0x3a, 0xf1, 0xfd, 0xf7,
  0x23, 0xe7, 0xee, 0x07, 0xf2, 0x37, 0xef, 0xee, 0xda, 0x31, 0x1e, 0x28,
  0x0e, 0xfa, 0x23, 0x2f, 0x4e, 0xde, 0xd0, 0x57, 0xea, 0x31, 0xe0, 0x44,
  0x48, 0x3e, 0xd9, 0x68, 0x32, 0xf8, 0x81, 0x0f, 0x71, 0xfe, 0x3e, 0x56,
  0x00, 0x40, 0xd6, 0xfa, 0x2a, 0xdd, 0xf7, 0x5d, 0x40, 0x48, 0xb6, 0x4b,
  0xfe, 0x26, 0xf3, 0xfa, 0x2d, 0x0a, 0x9a, 0xfb, 0x23, 0x2a, 0x08, 0x27,
  0xf8, 0x7a, 0xd6, 0x5f, 0xe9, 0x0a, 0x2f, 0x64, 0x42, 0x47, 0xab, 0x59,
  0x6a, 0x4c, 0x6a, 0x25, 0x13, 0xc0, 0x9d, 0x16, 0x00, 0xe7, 0x08, 0x03,
  0x39, 0x3e, 0x95, 0x21, 0x3b, 0xac, 0x20, 0x24, 0x1e, 0x04, 0x04, 0xdb,
  0xb9, 0xfc, 0x14, 0x38, 0x41, 0xc9, 0x23, 0x32, 0x12, 0xfd, 0x12, 0xde,
  0xef, 0x0d, 0xf1, 0x50, 0xd2, 0x4a, 0x3b, 0xdb, 0xf3, 0x00, 0x1c, 0x2f,
  0xf2, 0x09, 0x0a, 0xb3, 0x30, 0xfc, 0xcf, 0x52, 0xff, 0xae, 0x3f, 0x24,
  0xd9, 0x0d, 0xc1, 0xe3, 0x18, 0x29, 0x52, 0x33, 0xfd, 0x1a, 0x0e, 0x4a,
  0xec, 0x04, 0x27, 0x3a, 0xfd, 0x1b, 0x1b, 0xda, 0x49, 0xde, 0xfe, 0x4f,
  0xc9, 0x0a, 0x41, 0x02, 0x1e, 0x17, 0xb9, 0xf6, 0x17, 0x12, 0xf5, 0x3b,
  0x35, 0xed, 0x08, 0x08, 0xcb, 0x0a, 0xcf, 0x29, 0xfa, 0x2c, 0x18, 0x17,
  0xf5, 0x45, 0xdb, 0x42, 0xfc, 0xd2, 0xc5, 0x06, 0xd2, 0xf3, 0x2a, 0x30,
  0x00, 0x47, 0xe2, 0xf1, 0xc4, 0x2e, 0xf7, 0x12, 0x17, 0xfb, 0xd1, 0x49,
  0xe7, 0xe4, 0x9f, 0x34, 0xe9, 0x1e, 0x1d, 0x04, 0xc6, 0xf7, 0xd4, 0x5f,
  0x2a, 0xb3, 0xbf, 0xe7, 0xdb, 0xe8, 0xb1, 0xf5, 0xfd, 0xc3, 0x21, 0x11,
  0x0a, 0x27, 0xb7, 0x10, 0xc1, 0x17, 0x2f, 0xd7, 0x59, 0xef, 0xd0, 0x44,
  0x01, 0x07, 0xc6, 0x36, 0xf5, 0x5d, 0xd4, 0x4d, 0x25, 0x4d, 0x14, 0x28,
  0xf3, 0xc6, 0x4d, 0xc9, 0x25, 0xeb, 0xfb, 0x43, 0xca, 0xd8, 0xb7, 0x32,
  0xf9, 0xc6, 0xb6, 0xbf, 0x13, 0xc9, 0x08, 0x20, 0x06, 0xb3, 0x04, 0x39,
  0xc4, 0x29, 0xcb, 0xde, 0xbd, 0xa6, 0x0f, 0x13, 0x50, 0xe2, 0x11, 0xc8,
  0x14, 0x0d, 0x52, 0xf2, 0xd4, 0x26, 0x31, 0x7f, 0x2b, 0x2e, 0xbd, 0xf1,
  0x3d, 0x9b, 0x77, 0x10, 0xfa, 0xcd, 0x20, 0x56, 0x1b, 0x1f, 0x32, 0x00,
  0xe3, 0xa4, 0xe5, 0xe1, 0xde, 0x3a, 0x81, 0x12, 0xf2, 0x00, 0xf9, 0x03,
  0x21, 0x34, 0xd0, 0x54, 0x5e, 0xd5, 0xd6, 0x5b, 0x38, 0x41, 0x68, 0xc0,
  0x00, 0xef, 0xe8, 0xf5, 0x05, 0xec, 0x24, 0x27, 0xb8, 0x27, 0x20, 0xc2,
  0xed, 0x19, 0x06, 0x2a, 0xd9, 0xe7, 0x20, 0xef, 0xd0, 0xe2, 0x02, 0x16,
  0xdd, 0xf5, 0xf4, 0xf4, 0x0d, 0xbe, 0xda, 0x06, 0x54, 0xfb, 0x12, 0x3f,
  0x28, 0x3c, 0x9c, 0xeb, 0x0e, 0x08, 0xe7, 0x05, 0x10, 0x28, 0xf2, 0xeb,
  0xe3, 0xe1, 0xb6, 0xc7, 0xa9, 0xf0, 0x43, 0xe7, 0xaa, 0x03, 0x06, 0xd9,
  0xf4, 0xff, 0x3e, 0x17, 0x0f, 0xd3, 0xe0, 0x31, 0x2c, 0xd6, 0xe7, 0x0b,
  0x23, 0x17, 0x3b, 0x23, 0x4c, 0x0d, 0xd5, 0x0e, 0x05, 0x4e, 0x68, 0x4a,
  0xe3, 0xd0, 0x46, 0xf4, 0x1c, 0xd5, 0xfc, 0xde, 0xd6, 0xbf, 0xd8, 0xb4,
  0x22, 0x19, 0x54, 0x40, 0x16, 0xf7, 0x20, 0xbc, 0xd5, 0x26, 0xf9, 0x0c,
  0x2b, 0xe1, 0xbb, 0x27, 0x28, 0x54, 0xe8, 0xf4, 0xc8, 0xff, 0x03, 0xfc,
  0x11, 0x3d, 0x12, 0x48, 0xba, 0xa9, 0x1a, 0x81, 0xf6, 0xe2, 0xa0, 0x95,
  0xb9, 0x86, 0x1a, 0xe8, 0x93, 0x14, 0xad, 0xab, 0x36, 0x41, 0x3c, 0xf1,
  0x22, 0x04, 0x2d, 0xee, 0xa4, 0x39, 0x44, 0x67, 0x12, 0x66, 0xd8, 0xf7,
  0xc2, 0xd1, 0x18, 0xc9, 0xd7, 0xbe, 0xa1, 0xb1, 0x16, 0x26, 0xcd, 0xb7,
  0xea, 0xc4, 0x12, 0x9b, 0xe0, 0xed, 0xe7, 0x37, 0x30, 0x1c, 0x14, 0x1c,
  0x30, 0x14, 0x4e, 0xf7, 0xda, 0x2c, 0xd1, 0xcc, 0x1c, 0x09, 0xef, 0x52,
  0xf2, 0x04, 0xfa, 0xdf, 0x19, 0x52, 0x2e, 0x48, 0x4d, 0x0c, 0xfd, 0x0d,
  0xef, 0x2e, 0xb4, 0xd6, 0x59, 0x03, 0xe9, 0x53, 0x1e, 0xdc, 0xbb, 0xe9,
  0x0e, 0xea, 0xd8, 0x2b, 0x42, 0x3c, 0x8d, 0xf2, 0xf0, 0xb9, 0x4e, 0xf7,
  0xd4, 0x4e, 0x6a, 0xdb, 0xeb, 0xdd, 0x1f, 0x5d, 0x0f, 0x28, 0x11, 0x5d,
  0x45, 0x34, 0x3d, 0xd0, 0x13, 0xff, 0x1c, 0x03, 0xea, 0xe0, 0xe8, 0xdf,
  0x25, 0x32, 0xcd, 0xd4, 0xfa, 0xb6, 0x0a, 0x0a, 0x4d, 0x32, 0xf0, 0xda,
  0x2f, 0xeb, 0x06, 0xeb, 0x2f, 0xcb, 0x59, 0xfd, 0x0a, 0x3f, 0x4d, 0x54,
  0x53, 0x2e, 0x01, 0x08, 0xcc, 0x15, 0xac, 0x1a, 0xfd, 0x0e, 0x07, 0xba,
  0x1c, 0x41, 0x11, 0x07, 0xca, 0x13, 0x66, 0xda, 0xd0, 0x64, 0x3e, 0x12,
  0x31, 0x1c, 0x02, 0xe0, 0x57, 0xe9, 0x0d, 0xff, 0x33, 0x26, 0xd5, 0xd3,
  0x2e, 0x00, 0xd1, 0xf7, 0x1a, 0x68, 0xcb, 0x7f, 0x7a, 0xed, 0x58, 0xea,
  0x14, 0x1a, 0x47, 0x6b, 0x07, 0x1e, 0x56, 0x3a, 0x0f, 0xa7, 0x45, 0x2e,
  0x58, 0xbc, 0x38, 0x27, 0x4f, 0xe4, 0xfd, 0xf4, 0x29, 0xee, 0xa3, 0x19,
  0xf8, 0xdb, 0x10, 0xa7, 0xf5, 0xf8, 0xe1, 0xd1, 0xf9, 0x1f, 0xcb, 0xb2,
  0xf5, 0xec, 0xcd, 0xed, 0x52, 0x2e, 0xc7, 0xf7, 0x6c, 0x0f, 0x6b, 0x02,
  0x32, 0x63, 0xfc, 0x03, 0x49, 0xf4, 0xfa, 0x14, 0x2d, 0xd8, 0xc0, 0x2f,
  0xfa, 0xde, 0x17, 0x6c, 0xf9, 0x18, 0x96, 0xf6, 0xe0, 0xe0, 0x32, 0xc6,
  0x25, 0x0d, 0x3f, 0x09, 0xe6, 0xe5, 0x20, 0xdd, 0x04, 0x24, 0xc1, 0x9a,
  0xa1, 0x28, 0xa7, 0x12, 0xd1, 0x0d, 0xee, 0xdb, 0xd3, 0xa1, 0xa3, 0x10,
  0xaa, 0x37, 0x0b, 0x11, 0xed, 0x2d, 0xe3, 0x07, 0xfd, 0x0b, 0x64, 0x31,
  0x0f, 0x25, 0xdc, 0x11, 0x0b, 0x08, 0x3f, 0x05, 0xfb, 0xea, 0xed, 0xb5,
  0x1f, 0xe7, 0xf7, 0x13, 0x12, 0xe5, 0x25, 0xd9, 0x1f, 0xc5, 0x07, 0x26,
  0xbf, 0x03, 0xbc, 0x1b, 0xe0, 0x41, 0x05, 0x13, 0x27, 0x41, 0x02, 0x60,
  0x60, 0x1d, 0x8a, 0x4b, 0x12, 0xd2, 0xf2, 0x2b, 0x3d, 0x5c, 0x66, 0x03,
  0xee, 0x4e, 0x29, 0x42, 0x3a, 0x1b, 0x2e, 0x49, 0x27, 0x13, 0xfb, 0x47,
  0x29, 0xf5, 0xd6, 0xfa, 0xe8, 0x9e, 0xfc, 0xf3, 0x1b, 0x2a, 0xf7, 0x1a,
  0xc9, 0xf6, 0xf8, 0x54, 0xbc, 0x13, 0x33, 0xb0, 0xc1, 0x3f, 0x42, 0xd4,
  0xea, 0xc6, 0x50, 0xed, 0xac, 0x62, 0x09, 0xef, 0x2b, 0x2f, 0x4f, 0xc0,
  0x1b, 0x35, 0xb0, 0xd6, 0x0c, 0xff, 0xfc, 0x55, 0x51, 0x06, 0x15, 0x50,
  0xe5, 0xd5, 0x7f, 0x16, 0x12, 0x3f, 0xfb, 0xec, 0xea, 0xb4, 0x16, 0xe7,
  0xd7, 0x17, 0xe4, 0xb7, 0x4c, 0xf7, 0x20, 0xef, 0x3f, 0x4b, 0x30, 0xaa,
  0xb9, 0x04, 0x7f, 0x62, 0xd2, 0xfe, 0x0a, 0xbf, 0xba, 0xf8, 0x02, 0x0e,
  0x43, 0xb8, 0x52, 0xe4, 0xde, 0x33, 0xe4, 0x25, 0xca, 0xf0, 0xb3, 0xad,
  0xef, 0xdb, 0xaf, 0xb3, 0xc3, 0xc5, 0xc1, 0xf2, 0x43, 0x23, 0xc8, 0xd0,
  0x15, 0xf3, 0x00, 0xe1, 0x12, 0x00, 0x19, 0x14, 0x18, 0x55, 0xcc, 0xea,
  0x2c, 0x2c, 0x23, 0x58, 0x6d, 0x1d, 0xeb, 0x69, 0x58, 0xe8, 0x98, 0xfa,
  0x41, 0x01, 0xe1, 0x2d, 0x1a, 0xeb, 0xb2, 0x0b, 0x0b, 0xcb, 0xef, 0x0e,
  0x37, 0xb5, 0xa3, 0xb7, 0x1a, 0xc1, 0xad, 0xdb, 0xe0, 0xd7, 0xa5, 0x56,
  0xf3, 0x2f, 0x35, 0xd3, 0x5a, 0xae, 0xc3, 0xdb, 0x1d, 0x5d, 0xd0, 0xd7,
  0xe0, 0x2c, 0x44, 0xf3, 0x30, 0xdb, 0x41, 0x10, 0x30, 0x9f, 0x50, 0x58,
  0x56, 0x32, 0x1c, 0x5f, 0x26, 0x36, 0x3c, 0x36, 0xf0, 0x0d, 0xdf, 0x9a,
  0xe6, 0xed, 0xe4, 0x00, 0x57, 0x26, 0xe4, 0x09, 0xe9, 0x58, 0x3c, 0xea,
  0xb8, 0xdf, 0x10, 0x4a, 0xec, 0xd7, 0x4e, 0xb1, 0xe1, 0xcc, 0xf2, 0x1a,
  0x00, 0xfe, 0xca, 0xa5, 0xe7, 0xee, 0x84, 0xdd, 0xf5, 0xca, 0x0c, 0x91,
  0x1a, 0x2b, 0x28, 0x87, 0xa9, 0x06, 0x37, 0xf2, 0x98, 0x34, 0xad, 0xe4,
  0xce, 0x39, 0xfd, 0xd5, 0xcd, 0xd3, 0xe0, 0x19, 0xc7, 0xd2, 0x40, 0xd5,
  0x4f, 0x48, 0xb0, 0x60, 0x08, 0x42, 0x38, 0xe7, 0x15, 0xc9, 0x19, 0x41,
  0x2b, 0x5f, 0xb2, 0xab, 0x3a, 0x67, 0x6a, 0x1e, 0xf9, 0xcd, 0xa7, 0x08,
  0xdd, 0x0a, 0x5e, 0x22, 0x67, 0x08, 0xe1, 0xc6, 0xde, 0x51, 0xe4, 0x63,
  0x3a, 0xcb, 0xbd, 0x46, 0x58, 0x06, 0x0a, 0x0e, 0x03, 0xe7, 0x1d, 0xbd,
  0x36, 0xfd, 0x69, 0x3f, 0x4b, 0x35, 0x41, 0x04, 0xbc, 0x21, 0x9d, 0x20,
  0xf9, 0x0c, 0xc3, 0x5d, 0x11, 0xc2, 0x0a, 0x7f, 0xd9, 0x59, 0x7b, 0x56,
  0x18, 0xe5, 0xfe, 0xc6, 0x1d, 0xbf, 0xca, 0x0a, 0x38, 0xcc, 0xf6, 0xf3,
  0x33, 0xb8, 0x55, 0xff, 0x3b, 0xdb, 0x22, 0x47, 0x07, 0x2a, 0xba, 0x3a,
  0x45, 0xdb, 0xef, 0xec, 0xf4, 0x2c, 0x08, 0x57, 0x2a, 0x63, 0x55, 0x41,
  0xcf, 0x54, 0xfe, 0x3e, 0x58, 0xfa, 0x3b, 0x5d, 0xf2, 0xaf, 0xaa, 0x02,
  0x5e, 0xf2, 0x30, 0x76, 0xec, 0x38, 0x22, 0x21, 0x10, 0xab, 0xe9, 0x17,
  0xc7, 0xfe, 0xdd, 0xc1, 0xfa, 0xdd, 0xfb, 0xb6, 0x2e, 0x13, 0xed, 0x49,
  0xe4, 0xc7, 0xa2, 0xc4, 0xc8, 0xd8, 0x35, 0x1b, 0x01, 0x1d, 0xfa, 0xd2,
  0x0a, 0x5d, 0xf5, 0x14, 0x25, 0xf2, 0xca, 0xcb, 0x44, 0x9f, 0xfc, 0xda,
  0x19, 0xbc, 0x1e, 0x65, 0xd2, 0x3a, 0x1b, 0x23, 0x19, 0x57, 0x18, 0xcc,
  0x12, 0x09, 0x81, 0xc4, 0xdc, 0x2d, 0xb5, 0xc9, 0x0d, 0xe9, 0x2f, 0x39,
  0x29, 0x55, 0xc7, 0x2c, 0x09, 0x2b, 0xf1, 0x06, 0x4b, 0x0f, 0x37, 0xa1,
  0x12, 0x3b, 0x32, 0x78, 0x12, 0x7b, 0x69, 0xd8, 0x11, 0xad, 0x20, 0xd2,
  0x1b, 0x40, 0xce, 0x6c, 0xcb, 0x1f, 0xf9, 0x41, 0x1a, 0xf4, 0xee, 0x46,
  0xaa, 0xbc, 0xec, 0x28, 0x12, 0xbe, 0xb6, 0x90, 0xc5, 0xda, 0x04, 0x2f,
  0xea, 0xe5, 0x21, 0xf0, 0xf6, 0x03, 0x32, 0xda, 0xdf, 0x2d, 0xef, 0xe7,
  0xf4, 0x03, 0xf5, 0x1f, 0xad, 0x51, 0x26, 0xe5, 0x04, 0x23, 0x25, 0x09,
  0xfb, 0xf5, 0x00, 0x05, 0xe0, 0xff, 0x0b, 0xd3, 0xdd, 0xef, 0xca, 0x3a,
  0x04, 0xef, 0xe5, 0x0c, 0x14, 0xff, 0x01, 0xde, 0x06, 0xd6, 0xe0, 0xe6,
  0xfe, 0xe5, 0x2b, 0xfd, 0xe8, 0x43, 0xf7, 0x01, 0x2c, 0xe0, 0xd4, 0x56,
  0x02, 0x3d, 0x13, 0x22, 0xc6, 0x3b, 0x04, 0xe1, 0x2a, 0x46, 0x38, 0x44,
  0xdc, 0x15, 0xd1, 0xf5, 0x30, 0x23, 0x33, 0xfa, 0x35, 0x0c, 0xe3, 0x22,
  0x3b, 0xe8, 0x0b, 0xeb, 0x2e, 0xf3, 0x17, 0x45, 0x12, 0xf5, 0xfe, 0xb1,
  0xeb, 0xde, 0x09, 0x33, 0x17, 0x42, 0x7f, 0xf6, 0xf0, 0x18, 0xd2, 0xa2,
  0x0d, 0xda, 0x2b, 0xd0, 0xfa, 0xec, 0x03, 0xd3, 0x07, 0x55, 0x67, 0x13,
  0xfc, 0x37, 0x0f, 0xbe, 0xe4, 0xcf, 0xea, 0x20, 0x1d, 0xd9, 0x31, 0xcc,
  0xd9, 0xf9, 0x0f, 0xc1, 0xf7, 0xe9, 0x1f, 0xeb, 0x28, 0xe3, 0xc2, 0x2e,
  0xf3, 0xe4, 0x2f, 0x41, 0xff, 0x4b, 0xf6, 0xc6, 0x1a, 0xcf, 0xb4, 0xf2,
  0x1f, 0x0b, 0xaf, 0xe6, 0x46, 0xed, 0xd7, 0x11, 0xb5, 0xe6, 0x81, 0xd2,
  0x30, 0xa7, 0xe2, 0x1e, 0xba, 0xf7, 0xbc, 0x19, 0xf4, 0xc0, 0x2b, 0xed,
  0x1e, 0xf7, 0xe0, 0xfd, 0xf3, 0xb6, 0x06, 0xcc, 0xb6, 0x09, 0xc8, 0xe6,
  0xff, 0x1c, 0x3d, 0x30, 0x06, 0x0b, 0x06, 0x3e, 0x0b, 0x59, 0xfe, 0xa4,
  0xa8, 0x36, 0x2d, 0xd7, 0xd9, 0x6b, 0xc7, 0xd9, 0x47, 0x24, 0xf2, 0xe0,
  0x50, 0xe3, 0x13, 0x2d, 0xe9, 0x58, 0xc7, 0x02, 0x5a, 0x2d, 0xbd, 0xe7,
  0x2b, 0x1e, 0xae, 0x06, 0xe5, 0xcf, 0xea, 0x7b, 0x24, 0x24, 0xb2, 0xdb,
  0xee, 0x0c, 0x3f, 0xe1, 0x0b, 0xcd, 0xd6, 0xfc, 0x39, 0x0b, 0x3a, 0x3e,
  0xff, 0x3a, 0x8d, 0x2f, 0x18, 0x56, 0xd0, 0x49, 0x5d, 0xcb, 0xf3, 0x3a,
  0x46, 0x2c, 0xc2, 0xf1, 0xb4, 0x3c, 0x91, 0xdb, 0xe8, 0x14, 0xf7, 0xc6,
  0x18, 0xc1, 0xfc, 0xbf, 0x29, 0x0e, 0xcd, 0x0f, 0x17, 0xf8, 0x30, 0xe7,
  0xb9, 0xda, 0x03, 0x8a, 0xfc, 0x84, 0xb3, 0xf9, 0x37, 0x17, 0x08, 0xe7,
  0x9b, 0x5b, 0xe5, 0xc1, 0x64, 0x1d, 0xda, 0xc9, 0x08, 0xb5, 0xea, 0x0a,
  0x0e, 0xd3, 0x49, 0x17, 0xd2, 0x40, 0x9a, 0x2a, 0x65, 0x34, 0x09, 0x44,
  0xe5, 0xd9, 0x8f, 0xeb, 0x72, 0xc7, 0xf4, 0x24, 0x0b, 0xfe, 0x14, 0x14,
  0x48, 0xc8, 0x02, 0x35, 0x0d, 0xb7, 0x8e, 0x21, 0x41, 0xd5, 0x10, 0xdb,
  0x1a, 0x12, 0xa9, 0xc2, 0xd7, 0xba, 0x27, 0x29, 0x0a, 0xaf, 0xab, 0xcb,
  0x1c, 0x96, 0x2a, 0xe6, 0x12, 0x5a, 0xd8, 0xee, 0xea, 0x96, 0x35, 0x1c,
  0x03, 0xb2, 0xb1, 0x27, 0x1f, 0x35, 0x29, 0x39, 0xcc, 0x24, 0xee, 0x3a,
  0xd2, 0xa4, 0x20, 0xd0, 0x09, 0x15, 0xa1, 0x12, 0x48, 0x37, 0xf0, 0x7f,
  0xce, 0x03, 0xf9, 0x09, 0x54, 0xab, 0xb2, 0xfe, 0x0a, 0xbb, 0xc6, 0xd0,
  0x0f, 0xd8, 0xda, 0x40, 0xfe, 0xdf, 0xe0, 0x09, 0x0e, 0xea, 0xcc, 0x24,
  0x24, 0x16, 0xb3, 0x49, 0x02, 0x3a, 0x2e, 0x2a, 0x12, 0x42, 0xdb, 0x5d,
  0xcf, 0x1f, 0x11, 0x0f, 0x04, 0xd8, 0xb7, 0x3a, 0x21, 0x27, 0xda, 0xf9,
  0xf1, 0xc5, 0xd1, 0xff, 0xe5, 0x3e, 0x09, 0xdf, 0x4f, 0xf0, 0x0a, 0x31,
  0x09, 0x25, 0x39, 0x06, 0x52, 0x12, 0x30, 0xfb, 0x00, 0xed, 0x18, 0x25,
  0xe4, 0xd5, 0x08, 0xf3, 0xda, 0x2c, 0xad, 0x37, 0x1c, 0xf3, 0xe1, 0xe0,
  0xfc, 0x07, 0x5a, 0x3f, 0xec, 0xf0, 0xdf, 0xc5, 0xea, 0xce, 0xc8, 0xc9,
  0xe6, 0x0e, 0x1a, 0xdb, 0xcd, 0xf4, 0x24, 0xb2, 0x51, 0xc0, 0xd6, 0x4b,
  0x4e, 0xe7, 0x1a, 0x52, 0x10, 0xfd, 0xc2, 0x07, 0x2b, 0xcb, 0x21, 0x4d,
  0x04, 0x2a, 0x5b, 0x21, 0x1d, 0x1f, 0xd7, 0x54, 0xdd, 0xde, 0x1b, 0x18,
  0x2e, 0xc8, 0xfa, 0xa6, 0x2f, 0xa6, 0x8d, 0x20, 0x12, 0xc2, 0xf6, 0xbf,
  0x45, 0xeb, 0x0a, 0xec, 0xd8, 0xff, 0xab, 0x28, 0x37, 0xa2, 0x95, 0x3c,
  0x5b, 0xe9, 0x14, 0x38, 0x05, 0x2b, 0xee, 0x62, 0xe3, 0xcd, 0xf4, 0xe1,
  0x18, 0xea, 0x3d, 0xc7, 0xfb, 0x32, 0xdd, 0x33, 0x41, 0x08, 0xe5, 0x0b,
  0x98, 0x1d, 0x81, 0x07, 0xf4, 0xd4, 0xdc, 0x13, 0xf1, 0x2a, 0xe8, 0x6b,
  0x3e, 0xc1, 0xdd, 0x26, 0x1c, 0x43, 0xf7, 0x03, 0xe5, 0xe8, 0xba, 0xce,
  0xdc, 0xdb, 0xc1, 0xea, 0x26, 0xaf, 0xf9, 0xd3, 0xcd, 0xd5, 0x55, 0x0c,
  0xce, 0xe8, 0x98, 0xae, 0xd6, 0xdd, 0xe5, 0x36, 0xcf, 0x0a, 0xf3, 0xc0,
  0xad, 0xab, 0x1c, 0xdd, 0x0d, 0x1f, 0x8d, 0x43, 0xe0, 0x1e, 0x3f, 0xdf,
  0x18, 0x08, 0x01, 0x25, 0x67, 0xe5, 0x44, 0x15, 0xf6, 0xea, 0xaf, 0x44,
  0x39, 0xe9, 0x00, 0x7f, 0x05, 0xee, 0x22, 0x24, 0x4f, 0x44, 0xfe, 0x20,
  0xd9, 0xd8, 0x1d, 0x12, 0xf2, 0xbe, 0xbe, 0x0c, 0xe7, 0x17, 0x9a, 0xfd,
  0xf4, 0xa8, 0xf7, 0xb8, 0x00, 0x13, 0xf7, 0x0b, 0xce, 0x2c, 0x53, 0x46,
  0x07, 0xf1, 0x75, 0x35, 0x07, 0x66, 0xe1, 0x28, 0x54, 0xe0, 0xbb, 0x54,
  0x1f, 0x3a, 0xc9, 0x44, 0xd7, 0xf5, 0x03, 0xd4, 0x0d, 0x06, 0x29, 0x2e,
  0xed, 0xc5, 0x60, 0xd5, 0x34, 0xdf, 0xc6, 0xf9, 0xc8, 0xe1, 0xd0, 0xfb,
  0xa5, 0x01, 0x21, 0xdf, 0x43, 0x19, 0xf1, 0x18, 0x2e, 0xd0, 0xb2, 0x1c,
  0xfd, 0x0b, 0x81, 0xca, 0x56, 0x21, 0x46, 0x44, 0x4e, 0x32, 0xd1, 0xcd,
  0xd7, 0x1d, 0xeb, 0x40, 0x14, 0x26, 0x09, 0xd0, 0x00, 0x03, 0x53, 0xf1,
  0x37, 0x13, 0x35, 0x2e, 0xec, 0xb8, 0xe1, 0x00, 0x39, 0x0a, 0x24, 0xed,
  0x28, 0x1a, 0x14, 0xc3, 0xdc, 0xba, 0x16, 0xe0, 0xb4, 0xd2, 0xe6, 0x38,
  0xe0, 0xf1, 0xca, 0x11, 0x0b, 0xc0, 0xe4, 0xc8, 0xa1, 0xe9, 0x25, 0xaf,
  0xe2, 0x64, 0xe1, 0x1b, 0xb4, 0x12, 0x13, 0x15, 0x02, 0xd7, 0xad, 0x12,
  0xdd, 0x15, 0xe3, 0xd2, 0xf4, 0x44, 0xfa, 0x1e, 0x07, 0x2b, 0x62, 0x51,
  0xde, 0x2e, 0x37, 0x68, 0x26, 0xeb, 0x47, 0xd8, 0x16, 0x05, 0xfe, 0x0e,
  0x4d, 0xc2, 0xd0, 0x05, 0x31, 0x3c, 0x31, 0x45, 0x33, 0xfa, 0xf6, 0x14,
  0x41, 0x39, 0x1d, 0x22, 0x12, 0xd4, 0x1d, 0x0d, 0xe6, 0x60, 0x2a, 0x1c,
  0x3b, 0x06, 0xaf, 0xf1, 0xef, 0x2a, 0xc3, 0xfd, 0x21, 0x5a, 0xa6, 0xe0,
  0x43, 0x40, 0x56, 0xde, 0xb1, 0xee, 0x1e, 0xc5, 0x0e, 0xc1, 0x2e, 0x23,
  0x1a, 0x25, 0x48, 0x04, 0xae, 0xcc, 0x09, 0x1f, 0x25, 0x0b, 0xda, 0x42,
  0xe4, 0x35, 0xc8, 0x4e, 0x4f, 0xff, 0x27, 0xec, 0xff, 0x30, 0xe1, 0x19,
  0x2c, 0x3e, 0xaf, 0xcd, 0xe1, 0x00, 0x23, 0x2b, 0xfb, 0xc9, 0xb2, 0x25,
  0xf7, 0xe0, 0x49, 0xd5, 0xc1, 0x10, 0xa6, 0xb2, 0x0d, 0x56, 0xbc, 0x66,
  0x2d, 0xaf, 0xb9, 0x39, 0x39, 0x29, 0xf5, 0x39, 0xc8, 0xe3, 0x5d, 0xf5,
  0xdd, 0x3c, 0xef, 0x5c, 0x30, 0xdf, 0x1e, 0x25, 0x4c, 0x2b, 0x38, 0xd7,
  0xe9, 0x50, 0x1f, 0xea, 0xef, 0x32, 0x01, 0x51, 0x4d, 0xf5, 0xdd, 0x42,
  0x12, 0xfe, 0xe6, 0xcb, 0x2e, 0x32, 0xcf, 0x1d, 0xd3, 0x42, 0x56, 0x21,
  0xd4, 0xc9, 0xdb, 0xe1, 0xa9, 0x4d, 0xe9, 0x11, 0x0b, 0xcb, 0x1e, 0x36,
  0xc6, 0x04, 0x10, 0xf6, 0x50, 0x0c, 0x02, 0x0a, 0x3d, 0xfc, 0xc5, 0x7f,
  0xf3, 0xac, 0x25, 0xb6, 0xe0, 0x2d, 0x2a, 0x00, 0x2b, 0x1c, 0x0c, 0x3d,
  0x27, 0x02, 0x31, 0x49, 0xaa, 0xb7, 0xd3, 0xc9, 0xc2, 0xf3, 0xa7, 0xff,
  0xca, 0x00, 0xe6, 0x2d, 0xef, 0xf1, 0x06, 0x01, 0xd5, 0xf6, 0xdd, 0xdb,
  0x19, 0xd7, 0xea, 0xc8, 0x1c, 0x14, 0x40, 0x56, 0xab, 0x26, 0xda, 0xd9,
  0xc7, 0x02, 0x91, 0x23, 0x0d, 0xf6, 0xd4, 0x14, 0x21, 0xf0, 0x18, 0x02,
  0x16, 0x4d, 0x48, 0x0e, 0xd0, 0x44, 0x60, 0x36, 0x24, 0x10, 0x2d, 0x55,
  0x04, 0x31, 0x00, 0xb8, 0xc4, 0xdc, 0x55, 0xf5, 0x20, 0x40, 0x6d, 0xc3,
  0xd5, 0x09, 0x09, 0xbe, 0x33, 0xe4, 0x2e, 0x46, 0xf7, 0xc5, 0xe6, 0xda,
  0x08, 0xed, 0x01, 0xdf, 0x4e, 0x65, 0x5d, 0x06, 0x31, 0x23, 0x58, 0x28,
  0xe4, 0xc9, 0xa8, 0x05, 0xff, 0xd7, 0x16, 0x29, 0xad, 0xec, 0xb2, 0x3a,
  0xcf, 0xde, 0xe0, 0x23, 0xc4, 0x12, 0xb3, 0x25, 0xc1, 0x4d, 0x7f, 0xd7,
  0x3f, 0x5f, 0x37, 0x16, 0xf5, 0x1e, 0xff, 0x4f, 0xc4, 0x46, 0xf2, 0x37,
  0x35, 0xc0, 0x1c, 0x46, 0x49, 0x54, 0x2b, 0x68, 0xd8, 0x1e, 0x33, 0x5a,
  0xe9, 0xfe, 0xe2, 0xf3, 0xb3, 0xe4, 0xd2, 0xac, 0xe1, 0x1e, 0xca, 0x25,
  0x07, 0xfc, 0xb1, 0xfc, 0xc9, 0xb1, 0x11, 0x05, 0xe2, 0xd1, 0x3d, 0xf8,
  0x01, 0x1d, 0xa5, 0x27, 0x10, 0x9d, 0x4f, 0x15, 0xcd, 0xcf, 0x0a, 0xd1,
  0x88, 0xaf, 0x18, 0x81, 0xb4, 0xf1, 0xf9, 0xad, 0xa9, 0x97, 0x07, 0x34,
  0xc6, 0xef, 0xbd, 0x28, 0x5b, 0x47, 0xcf, 0xd8, 0x19, 0x26, 0xe8, 0xf0,
  0x39, 0x53, 0x9d, 0x18, 0x48, 0x0b, 0xf7, 0x1a, 0xe1, 0x5c, 0xea, 0x3d,
  0x16, 0xc0, 0x66, 0x50, 0x67, 0x0e, 0x02, 0xac, 0xfe, 0xfb, 0x05, 0x76,
  0xec, 0xd8, 0x07, 0xc3, 0xfc, 0x44, 0x41, 0xe4, 0x01, 0xfa, 0x7d, 0xd9,
  0x34, 0x5d, 0xe4, 0x74, 0x32, 0x02, 0x1e, 0x2a, 0x49, 0xef, 0x02, 0x00,
  0x60, 0x0c, 0xd1, 0x43, 0x00, 0xcd, 0x43, 0x0d, 0x04, 0x70, 0xec, 0x1d,
  0x2f, 0x09, 0xc4, 0xee, 0xfc, 0x3c, 0x2f, 0x00, 0x5d, 0xcd, 0x60, 0xa6,
  0x5a, 0x11, 0xea, 0xd7, 0xfa, 0x15, 0x42, 0x06, 0x02, 0x3f, 0xfd, 0x3c,
  0x07, 0x13, 0x25, 0xd8, 0x37, 0xa9, 0xe9, 0x0f, 0x06, 0x51, 0x10, 0x07,
  0xe7, 0x1d, 0xe7, 0x18, 0xd3, 0xb1, 0x0a, 0xf8, 0x37, 0xa0, 0x26, 0xf4,
  0xf7, 0xfa, 0x16, 0xf1, 0xf7, 0x16, 0x63, 0x2f, 0xc2, 0x01, 0x8f, 0xe8,
  0xcb, 0xd6, 0x0d, 0x06, 0x3a, 0xf9, 0x1b, 0x33, 0x2b, 0x4c, 0x7f, 0xf0,
  0x21, 0x56, 0x10, 0x0d, 0x1d, 0x40, 0xcb, 0xf1, 0x43, 0x35, 0xf4, 0xd8,
  0x18, 0x15, 0x1a, 0x4f, 0x1d, 0x41, 0x08, 0xc6, 0x0b, 0xf5, 0x99, 0xed,
  0x44, 0xd4, 0x31, 0xbf, 0x0a, 0x56, 0xe5, 0x29, 0xf1, 0xd3, 0xfd, 0xd7,
  0x06, 0xc9, 0xe1, 0x28, 0x61, 0x3b, 0xf3, 0xcd, 0x40, 0x35, 0xc6, 0xee,
  0x54, 0x01, 0x2c, 0x31, 0xf1, 0xce, 0x2a, 0xf9, 0x39, 0x54, 0x26, 0xc5,
  0x11, 0x26, 0xf3, 0x32, 0xe5, 0xe4, 0x06, 0xcd, 0x0c, 0xfd, 0x0b, 0x27,
  0xe4, 0xf6, 0x0a, 0x12, 0x32, 0x1d, 0x3e, 0xda, 0x08, 0x04, 0xc6, 0xb0,
  0x00, 0xed, 0x2a, 0x58, 0xf6, 0xd8, 0x2a, 0x24, 0x38, 0x4b, 0x47, 0xfe,
  0x31, 0x38, 0x4c, 0x11, 0x34, 0x39, 0xa3, 0x30, 0xff, 0xd3, 0x0e, 0x3d,
  0x40, 0x48, 0xe7, 0xc8, 0xdd, 0x59, 0x25, 0xfa, 0x32, 0x6e, 0x99, 0x3d,
  0xd2, 0xcf, 0x66, 0xdf, 0x14, 0x3b, 0xf9, 0xc8, 0xf4, 0xce, 0x47, 0x37,
  0x11, 0x65, 0xd3, 0x06, 0x3d, 0x45, 0xf8, 0x4a, 0x4e, 0x11, 0x1f, 0xb3,
  0xd8, 0x57, 0xf1, 0x24, 0xf2, 0x29, 0x40, 0xe5, 0x1f, 0xaf, 0x2d, 0x4a,
  0x50, 0x04, 0xef, 0x04, 0xe3, 0x33, 0x28, 0xc8, 0x1f, 0x6c, 0x09, 0x25,
  0x3d, 0xde, 0xf2, 0xd9, 0x49, 0xec, 0x2f, 0xe1, 0xf1, 0xe5, 0x0a, 0xf7,
  0x01, 0x0c, 0x1f, 0xef, 0x26, 0xd9, 0x26, 0xf1, 0x22, 0x5b, 0xfc, 0x06,
  0x4f, 0x1a, 0x59, 0x38, 0xbf, 0xde, 0x30, 0xc0, 0xd6, 0x15, 0x1f, 0x29,
  0x2c, 0xd5, 0xe5, 0x52, 0xd6, 0x0e, 0xbf, 0x05, 0xd6, 0xaf, 0x7f, 0xc0,
  0xb4, 0xe0, 0xc3, 0x13, 0xd3, 0xe8, 0x02, 0xb8, 0x0b, 0xde, 0xd2, 0xa8,
  0xf4, 0xe2, 0x43, 0xd9, 0x19, 0xc9, 0xc3, 0xe8, 0x1d, 0xe3, 0xd7, 0x0c,
  0xbe, 0xdb, 0x3f, 0xad, 0xf7, 0xde, 0x00, 0x26, 0xea, 0x6d, 0xfa, 0x1f,
  0xfb, 0xbd, 0xe5, 0x44, 0x98, 0x40, 0xcf, 0x0e, 0xa0, 0xb1, 0x59, 0x26,
  0x23, 0xef, 0x5e, 0xf6, 0xd8, 0x07, 0x11, 0x7e, 0xe9, 0xeb, 0xde, 0x1a,
  0x11, 0x33, 0xcf, 0xc2, 0xce, 0xe9, 0xe5, 0x4c, 0x52, 0xb4, 0x77, 0xbf,
  0x81, 0x02, 0xf8, 0x48, 0xf1, 0x63, 0x2b, 0xf2, 0xd7, 0xb1, 0xc3, 0x3b,
  0x16, 0x4d, 0x2a, 0xfa, 0xdd, 0xc6, 0x44, 0xd8, 0x0a, 0x56, 0xd0, 0xdf,
  0x08, 0x1d, 0x30, 0x5d, 0x7d, 0x19, 0xbf, 0x0e, 0xdc, 0x0f, 0x75, 0x66,
  0x4e, 0x6a, 0xd6, 0x49, 0x00, 0x6a, 0x0f, 0xd0, 0x71, 0x58, 0x31, 0x3b,
  0xe5, 0x18, 0x42, 0x6b, 0xf9, 0xb8, 0x21, 0xac, 0x2d, 0x69, 0x46, 0x13,
  0xe5, 0x29, 0x5f, 0x68, 0xec, 0xe5, 0x28, 0x61, 0xac, 0xa1, 0x08, 0x1a,
  0x26, 0x4a, 0xf6, 0x21, 0xf3, 0x3f, 0xcf, 0x08, 0xa4, 0x27, 0x49, 0x09,
  0xc3, 0xd1, 0x4d, 0x9b, 0x1c, 0x1b, 0xad, 0xf9, 0xab, 0xa7, 0xe2, 0xe3,
  0xbc, 0xd6, 0xa7, 0xec, 0x3d, 0x45, 0x22, 0x17, 0xbd, 0x69, 0xfa, 0xf5,
  0x16, 0x4e, 0x60, 0xe3, 0x35, 0x36, 0x03, 0x20, 0x3b, 0x3e, 0x7f, 0xec,
  0xb6, 0x6e, 0xe1, 0x1c, 0x0c, 0xe1, 0x1d, 0x6c, 0xd7, 0xed, 0x24, 0x13,
  0x00, 0x34, 0x68, 0x30, 0xad, 0x50, 0xbd, 0xc9, 0xe9, 0x34, 0x75, 0xf0,
  0xec, 0x46, 0x56, 0x23, 0xe7, 0xe0, 0xeb, 0x26, 0x08, 0x37, 0x64, 0xd8,
  0x30, 0xd7, 0x2a, 0x3a, 0xcb, 0x56, 0xf0, 0x5b, 0x1e, 0x45, 0x29, 0xba,
  0x1b, 0xf7, 0x44, 0xe0, 0x06, 0xe5, 0x62, 0xa1, 0x03, 0x01, 0xe6, 0xef,
  0xd1, 0x17, 0x46, 0xb4, 0x9e, 0x46, 0x9d, 0x16, 0x0d, 0xb4, 0xf9, 0xcb,
  0xc5, 0xdb, 0x20, 0xff, 0xe6, 0x31, 0x2f, 0x1d, 0xdf, 0x4e, 0x56, 0xcb,
  0x11, 0x56, 0x38, 0xea, 0x2c, 0xf0, 0x24, 0x32, 0x25, 0x4b, 0xce, 0xd7,
  0xdb, 0x3c, 0xf6, 0xcd, 0x67, 0x24, 0x4a, 0xc1, 0x0c, 0xea, 0x20, 0xf2,
  0x14, 0x3c, 0x65, 0x2f, 0x3e, 0xf2, 0x3a, 0x21, 0x59, 0xf0, 0x1c, 0xed,
  0xd2, 0x54, 0xd0, 0x37, 0xcc, 0xd3, 0xab, 0xee, 0x24, 0x5d, 0x48, 0xc8,
  0xd9, 0x05, 0x53, 0xf5, 0xe9, 0x0b, 0x98, 0x52, 0x42, 0x39, 0xf4, 0x3a,
  0x0b, 0x7f, 0x1d, 0x60, 0x23, 0x46, 0x25, 0x0f, 0x1e, 0x3f, 0xc2, 0xeb,
  0x25, 0xe5, 0xd7, 0xd1, 0xb5, 0x67, 0x5d, 0x23, 0x05, 0xc8, 0x30, 0x0a,
  0x24, 0x4e, 0x42, 0x51, 0xe6, 0xe4, 0x81, 0xf2, 0x4b, 0x33, 0xf3, 0x77,
  0x63, 0x3f, 0xbf, 0x15, 0x3b, 0x05, 0x29, 0x6c, 0x6b, 0x3a, 0xed, 0xf6,
  0x0b, 0x0a, 0x22, 0xfe, 0x61, 0x22, 0xdb, 0x08, 0x65, 0xc7, 0x0d, 0x01,
  0x1d, 0x38, 0xf6, 0xde, 0xf8, 0xff, 0xe0, 0xf7, 0x4b, 0xfa, 0xdf, 0x55,
  0xfa, 0xd1, 0x2f, 0x46, 0xba, 0x07, 0x37, 0xa7, 0x47, 0x5f, 0xf5, 0x2c,
  0xf1, 0x3d, 0xd9, 0xdf, 0x4d, 0xc1, 0x3b, 0x0a, 0x04, 0xea, 0xa3, 0x1d,
  0x2b, 0xe9, 0xbb, 0xd9, 0xa2, 0xc8, 0xf8, 0xc7, 0xa8, 0xe0, 0xca, 0xab,
  0x90, 0xf7, 0xba, 0xc4, 0xac, 0xd9, 0xae, 0x05, 0xc7, 0xed, 0xd7, 0x59,
  0xf8, 0x04, 0xdb, 0xeb, 0x63, 0x02, 0xad, 0x5a, 0x0e, 0x03, 0x2c, 0xe6,
  0x76, 0x65, 0xeb, 0xc4, 0x65, 0x1f, 0xf9, 0xe7, 0x15, 0xdb, 0xd7, 0x6c,
  0x0d, 0x1d, 0x24, 0x37, 0xd6, 0x1d, 0xd3, 0xc3, 0x0c, 0x03, 0xd5, 0xb5,
  0x3b, 0x3d, 0x83, 0x20, 0x18, 0x31, 0x69, 0x4c, 0x21, 0x41, 0xd5, 0x62,
  0x39, 0x2c, 0x02, 0x3c, 0x62, 0x44, 0x81, 0x6b, 0x05, 0x17, 0x0d, 0x4a,
  0x5a, 0x6c, 0xa1, 0x2c, 0x65, 0x61, 0x51, 0x01, 0x49, 0x31, 0xf2, 0x5c,
  0x30, 0x55, 0x66, 0x32, 0xdc, 0x24, 0x4a, 0xfc, 0x1e, 0x5a, 0x46, 0xd3,
  0xec, 0x4f, 0xce, 0x49, 0x1c, 0x56, 0x6b, 0x62, 0x67, 0x79, 0x0c, 0x74,
  0x7e, 0x07, 0xf7, 0x5b, 0xf2, 0xdf, 0xe5, 0x37, 0x23, 0x49, 0xf5, 0x26,
  0x0a, 0x0c, 0xba, 0xfc, 0xfb, 0x5b, 0xf6, 0xf0, 0xf8, 0xeb, 0x0a, 0x4a,
  0x77, 0xf3, 0xcb, 0x11, 0x42, 0x67, 0xec, 0x1f, 0x1c, 0x0c, 0xff, 0xf3,
  0x49, 0xf8, 0x46, 0xf8, 0x2a, 0xec, 0xc9, 0x0f, 0x35, 0x5b, 0x2a, 0x28,
  0xdd, 0xa2, 0x56, 0xff, 0x5a, 0xf7, 0xb8, 0x41, 0x48, 0x05, 0x59, 0x20,
  0x74, 0x0e, 0xee, 0xaf, 0xd2, 0x63, 0xea, 0x27, 0xc6, 0xc0, 0xd4, 0xf7,
  0xed, 0x32, 0xd4, 0x0c, 0x38, 0xb5, 0x5c, 0xe1, 0xe8, 0x27, 0xfe, 0x3d,
  0xd9, 0xd7, 0xf8, 0x08, 0x17, 0xf1, 0xbe, 0xdc, 0x19, 0xe7, 0x27, 0x2d,
  0x3b, 0xc1, 0xd2, 0xcb, 0x59, 0x73, 0xee, 0x4b, 0xf8, 0x1d, 0x62, 0x0a,
  0x1d, 0xff, 0xcd, 0xec, 0xed, 0xb6, 0x64, 0xcd, 0x15, 0x25, 0xed, 0x5b,
  0x36, 0xf7, 0x12, 0xe5, 0x1f, 0xd8, 0x1e, 0xeb, 0x23, 0x18, 0x0a, 0xfc,
  0x16, 0x12, 0x0b, 0xe6, 0xc0, 0x37, 0xcb, 0x17, 0x21, 0x36, 0x2b, 0xc6,
  0xe0, 0x3f, 0xc9, 0xfa, 0xb0, 0x9b, 0x29, 0xbe, 0xd4, 0xcc, 0x81, 0x1c,
  0xb9, 0xc0, 0x17, 0xa8, 0xbb, 0xb4, 0xb7, 0xc0, 0x2c, 0x30, 0x32, 0x0b,
  0x2b, 0x38, 0xdc, 0x0b, 0xed, 0xd2, 0x44, 0xd4, 0x30, 0xc4, 0xf2, 0xab,
  0x0a, 0x10, 0xb8, 0x12, 0x10, 0x34, 0xf5, 0xa4, 0xe4, 0xb6, 0xde, 0x4d,
  0x3b, 0xd7, 0x25, 0x39, 0xa6, 0xea, 0xff, 0xff, 0x04, 0x00, 0x00, 0x00,
  0x80, 0x00, 0x00, 0x00, 0xfd, 0xfd, 0xff, 0xff, 0x6e, 0x03, 0x00, 0x00,
  0x1e, 0xfc, 0xff, 0xff, 0xb7, 0x03, 0x00, 0x00, 0xcc, 0xfe, 0xff, 0xff,
  0xd1, 0x09, 0x00, 0x00, 0x12, 0x05, 0x00, 0x00, 0x25, 0xfe, 0xff, 0xff,
  0xc1, 0x03, 0x00, 0x00, 0xab, 0x02, 0x00, 0x00, 0x7b, 0x01, 0x00, 0x00,
  0x80, 0x01, 0x00, 0x00, 0x58, 0x06, 0x00, 0x00, 0xa9, 0x00, 0x00, 0x00,
  0xc8, 0xfd, 0xff, 0xff, 0x72, 0xff, 0xff, 0xff, 0xc0, 0x04, 0x00, 0x00,
  0x37, 0xfb, 0xff, 0xff, 0xf6, 0xfa, 0xff, 0xff, 0xf8, 0x01, 0x00, 0x00,
  0xd9, 0x04, 0x00, 0x00, 0x70, 0x06, 0x00, 0x00, 0x41, 0x07, 0x00, 0x00,
  0x69, 0x09, 0x00, 0x00, 0xe4, 0x01, 0x00, 0x00, 0xf6, 0x05, 0x00, 0x00,
  0xcc, 0xfb, 0xff, 0xff, 0xcc, 0x06, 0x00, 0x00, 0xc0, 0x04, 0x00, 0x00,
  0xa0, 0x04, 0x00, 0x00, 0x97, 0x06, 0x00, 0x00, 0xd3, 0x00, 0x00, 0x00,
  0x32, 0xeb, 0xff, 0xff, 0x04, 0x00, 0x00, 0x00, 0x00, 0x10, 0x00, 0x00,
  0x50, 0xbc, 0xee, 0xfc, 0x4e, 0xba, 0xfa, 0x5c, 0x31, 0x49, 0x1e, 0x43,
  0xc3, 0xfd, 0xff, 0xb3, 0x04, 0x30, 0xd9, 0x41, 0x23, 0xc0, 0x1f, 0xdc,
  0x09, 0xae, 0x0e, 0xfb, 0xbf, 0x30, 0xd5, 0xce, 0x14, 0x1a, 0xff, 0xd0,
  0x2c, 0x10, 0x10, 0x3f, 0x43, 0x1f, 0x0e, 0x3f, 0x40, 0xca, 0x39, 0x5f,
  0xde, 0xa7, 0xf8, 0xe8, 0xee, 0x40, 0xe1, 0x56, 0xfb, 0xbf, 0x5a, 0x14,
  0xf3, 0xe3, 0x58, 0xe8, 0x10, 0xed, 0xeb, 0x67, 0xff, 0xf6, 0xef, 0x56,
  0x52, 0x2d, 0xcb, 0xab, 0x47, 0xf5, 0xd4, 0x24, 0xb0, 0x3d, 0x33, 0x09,
  0xf8, 0x33, 0x5b, 0x0e, 0x41, 0x5e, 0xa4, 0x49, 0x33, 0xca, 0x2c, 0xb6,
  0x8b, 0x2b, 0x2e, 0xb9, 0x57, 0xff, 0x11, 0x43, 0x30, 0x67, 0x58, 0x50,
  0xe1, 0x43, 0xfc, 0xd1, 0xf1, 0x59, 0x9e, 0xd3, 0x71, 0xb3, 0xf3, 0x59,
  0xb3, 0xdb, 0xa0, 0xf1, 0x35, 0x2c, 0xef, 0xef, 0x09, 0xd6, 0x1d, 0x23,
  0x33, 0xe1, 0xc0, 0x31, 0xb2, 0x0a, 0x43, 0x58, 0xb6, 0x05, 0x2e, 0xb8,
  0xd7, 0x63, 0xc3, 0xf6, 0xe5, 0x4a, 0x36, 0xc5, 0x05, 0x39, 0x34, 0x51,
  0xbb, 0xad, 0xeb, 0x1d, 0xc0, 0x28, 0x18, 0x58, 0xc3, 0x13, 0xbd, 0xbb,
  0x4c, 0x42, 0xde, 0x2d, 0x0a, 0x59, 0xb0, 0x2a, 0xcf, 0xfe, 0x51, 0x30,
  0xd1, 0xc2, 0xbc, 0x07, 0x11, 0xe8, 0xf7, 0x2f, 0xf8, 0x06, 0xad, 0xda,
  0x48, 0xde, 0xcf, 0xb3, 0xcc, 0x05, 0x17, 0x50, 0xdb, 0xdf, 0x0a, 0x3e,
  0x01, 0xe6, 0x02, 0xf5, 0x4f, 0x0f, 0xe1, 0x1b, 0xe5, 0xdc, 0x0d, 0x3a,
  0xf2, 0x03, 0xcf, 0x17, 0xfc, 0xed, 0x4b, 0xff, 0x5b, 0x12, 0x38, 0xf7,
  0xfe, 0x12, 0x1b, 0x36, 0xce, 0xe5, 0x2d, 0xa0, 0xe6, 0x9d, 0x0e, 0xe0,
  0xf7, 0xad, 0xd2, 0xbf, 0x84, 0x6a, 0xe7, 0xd5, 0x64, 0xe6, 0x61, 0x60,
  0xf6, 0x4b, 0xe7, 0xe3, 0x28, 0x3d, 0x03, 0xe5, 0x51, 0x9b, 0xc0, 0x0f,
  0xee, 0x32, 0x55, 0xea, 0xa8, 0xde, 0x59, 0xc6, 0x18, 0xe4, 0x10, 0xc3,
  0xff, 0xe5, 0x2d, 0x19, 0xe2, 0x03, 0x2d, 0x43, 0xfd, 0xf5, 0x44, 0xd6,
  0x29, 0xad, 0x0a, 0x9a, 0xe1, 0xe7, 0xff, 0xc8, 0x39, 0xf4, 0xfb, 0x0f,
  0x0f, 0x2f, 0x23, 0x57, 0xcd, 0x0e, 0x7c, 0x6a, 0x51, 0xa8, 0x1a, 0xed,
  0xea, 0xf3, 0x30, 0x9c, 0xc4, 0x35, 0x28, 0x52, 0x4e, 0xe7, 0xe8, 0xec,
  0xdb, 0x32, 0xa1, 0x4b, 0x49, 0x49, 0x50, 0xcd, 0x54, 0xd7, 0x22, 0x2c,
  0x4e, 0x3d, 0x14, 0x4d, 0xd0, 0x28, 0xfd, 0x9b, 0xd1, 0xb8, 0x3c, 0xfd,
  0x2e, 0xe3, 0x33, 0xe5, 0x59, 0xf2, 0xb0, 0xb7, 0xac, 0x08, 0xe7, 0x39,
  0xe9, 0x0e, 0xee, 0x05, 0x20, 0x54, 0xe7, 0xd2, 0xd7, 0xf3, 0x07, 0x0a,
  0xb8, 0xc7, 0xf9, 0x2a, 0x40, 0xe4, 0xe3, 0x4e, 0xf9, 0xe6, 0x29, 0xae,
  0x2d, 0x52, 0x53, 0x26, 0xf8, 0x0a, 0x2d, 0x56, 0x38, 0xe7, 0xda, 0x53,
  0xaf, 0x51, 0xe7, 0x07, 0xf9, 0xca, 0x3d, 0x1e, 0x35, 0x44, 0xfa, 0xfe,
  0xbd, 0x2e, 0x35, 0xf5, 0x18, 0xb1, 0xcb, 0xfd, 0x31, 0xd1, 0xde, 0xfd,
  0x19, 0xcb, 0xd1, 0x25, 0x2b, 0x3e, 0x14, 0x4b, 0x25, 0xb1, 0xeb, 0xed,
  0xf7, 0x60, 0x3b, 0xd6, 0xdd, 0xbc, 0xef, 0xf9, 0xeb, 0xb2, 0x38, 0x15,
  0x66, 0xf6, 0xfd, 0x12, 0x5d, 0xb2, 0xd3, 0x28, 0xc7, 0x94, 0xfb, 0x20,
  0xa1, 0x2a, 0x25, 0xc5, 0xf2, 0xed, 0x2c, 0xa2, 0xb8, 0xb3, 0x05, 0xe0,
  0xc6, 0xfa, 0xf2, 0xb5, 0x00, 0x0c, 0x27, 0xee, 0xc6, 0x2f, 0x5a, 0xf4,
  0x78, 0x2c, 0x26, 0x0e, 0x00, 0x1e, 0xb5, 0xef, 0xd4, 0xf4, 0xec, 0x13,
  0xd7, 0xc4, 0x3a, 0xc4, 0x70, 0xbd, 0x23, 0xd8, 0x16, 0xef, 0x11, 0xba,
  0x56, 0x1f, 0x42, 0x21, 0x1e, 0xcb, 0x00, 0x1d, 0x3d, 0xbb, 0xf2, 0xf4,
  0xef, 0x32, 0xf0, 0xd6, 0x22, 0x16, 0xe8, 0xc2, 0x1b, 0xa3, 0xff, 0xd1,
  0x4a, 0xae, 0x0e, 0xe5, 0x0e, 0xf8, 0xd9, 0x0d, 0xd0, 0x1e, 0xf9, 0xcb,
  0x31, 0x24, 0xd6, 0xde, 0xdf, 0xd2, 0xc3, 0x1d, 0xc6, 0x19, 0x2d, 0x2c,
  0xd9, 0xe2, 0x45, 0xf1, 0x98, 0x46, 0x2e, 0xd0, 0x98, 0x46, 0x69, 0xe5,
  0xf3, 0xb9, 0x05, 0x56, 0x5d, 0x0f, 0xf0, 0xcd, 0x97, 0xbf, 0x5c, 0x41,
  0x3d, 0x05, 0xcc, 0xc6, 0x2f, 0xe9, 0x26, 0xc0, 0x58, 0x1b, 0xfe, 0xc3,
  0x4f, 0x42, 0xcc, 0x49, 0x21, 0x61, 0x2a, 0xc4, 0x20, 0xf2, 0x11, 0xd8,
  0xa9, 0xfa, 0x9d, 0xb6, 0xf1, 0x1c, 0x43, 0xf2, 0xc5, 0x3d, 0x14, 0x95,
  0x3f, 0xb7, 0xc6, 0x3e, 0x77, 0xc9, 0xcf, 0x4d, 0xb8, 0x3f, 0xfb, 0xe2,
  0x85, 0xf1, 0x67, 0x3b, 0xcf, 0x33, 0x37, 0x35, 0x09, 0xd7, 0x12, 0xab,
  0xa1, 0x15, 0x35, 0x17, 0x1a, 0x07, 0x09, 0xd7, 0xff, 0x42, 0x19, 0xd5,
  0xfe, 0x4b, 0xac, 0xff, 0xba, 0x2c, 0xea, 0x09, 0xf5, 0x08, 0x03, 0x4b,
  0x54, 0x57, 0x57, 0xf6, 0x2e, 0x04, 0xa7, 0xef, 0xf0, 0x1a, 0xb4, 0x12,
  0xd4, 0x13, 0xd5, 0x09, 0xf3, 0x3f, 0x14, 0x26, 0xb4, 0x3c, 0xbb, 0x3c,
  0xd6, 0x9c, 0x3d, 0x19, 0x1f, 0xac, 0xd7, 0x02, 0x25, 0xcd, 0xe1, 0x0a,
  0xe4, 0xd6, 0xf4, 0x0f, 0x12, 0xaf, 0xa7, 0x40, 0xbc, 0x25, 0xfe, 0x04,
  0xbf, 0x16, 0x20, 0xbb, 0x9b, 0xf5, 0x23, 0xb9, 0x0c, 0x20, 0xc1, 0xbf,
  0x30, 0x25, 0xb1, 0xb6, 0x23, 0x05, 0x50, 0xbf, 0xdd, 0xb1, 0x2d, 0x6b,
  0x2f, 0x2f, 0x07, 0xf6, 0x60, 0xd2, 0x55, 0x33, 0x38, 0xd9, 0x9f, 0x2f,
  0x19, 0x3d, 0xe5, 0xc5, 0xde, 0x29, 0x1d, 0xd8, 0xd8, 0xc4, 0x09, 0xf5,
  0x24, 0x15, 0x2c, 0xeb, 0xf6, 0x37, 0x25, 0x25, 0x61, 0xf5, 0xbf, 0xeb,
  0x3a, 0x65, 0xbe, 0xf7, 0xcb, 0x23, 0x24, 0x61, 0xf9, 0x5d, 0xb9, 0xe7,
  0xcb, 0x23, 0xa7, 0x14, 0x1d, 0xcc, 0x3a, 0x51, 0x2b, 0xe5, 0xf3, 0x3c,
  0xe2, 0xe7, 0xf8, 0x44, 0x65, 0xaa, 0xdc, 0x5d, 0x3b, 0xf4, 0xb8, 0xd1,
  0x4e, 0xe2, 0x50, 0x1a, 0x07, 0x33, 0x46, 0xea, 0x4d, 0xad, 0xa6, 0x4a,
  0x5c, 0xf6, 0xaa, 0x12, 0xfe, 0x09, 0x72, 0xd8, 0x4f, 0xe8, 0xf7, 0x37,
  0x4e, 0xb8, 0x45, 0x02, 0x44, 0xfa, 0x09, 0x2f, 0x1c, 0xd1, 0xfe, 0x49,
  0x85, 0x9e, 0xf2, 0xd8, 0x99, 0xca, 0xd1, 0xae, 0xb9, 0x11, 0xd0, 0x44,
  0xef, 0x1b, 0xe9, 0xce, 0x64, 0x34, 0xf7, 0x31, 0x28, 0x6d, 0x1a, 0xd4,
  0xdb, 0xf0, 0xf0, 0x0b, 0xe0, 0xe9, 0x03, 0xcb, 0xe4, 0x15, 0x39, 0x04,
  0xaf, 0xe5, 0x25, 0xb3, 0x0c, 0xa9, 0xb2, 0x98, 0x1f, 0x12, 0xc0, 0x92,
  0x40, 0x09, 0x6a, 0xa8, 0x6b, 0xbd, 0x3e, 0x38, 0x4a, 0x19, 0x2a, 0xae,
  0x40, 0xe0, 0xf7, 0xdb, 0x39, 0x31, 0x41, 0xe0, 0xab, 0xe0, 0xba, 0xff,
  0x51, 0xbd, 0xca, 0x42, 0x26, 0x18, 0x24, 0x0a, 0xdb, 0x10, 0xc2, 0x22,
  0xda, 0x10, 0x13, 0x3c, 0xf7, 0xc0, 0xf3, 0xf5, 0x14, 0x4b, 0x00, 0x55,
  0x40, 0xd0, 0xe7, 0xbb, 0x13, 0x27, 0xf2, 0xd0, 0xf6, 0x3f, 0xd6, 0x03,
  0xe5, 0x1b, 0xd1, 0x62, 0x23, 0x0e, 0x32, 0xe8, 0xe9, 0xba, 0x0c, 0xd2,
  0xca, 0xbe, 0xc1, 0xfa, 0x05, 0xdd, 0xf0, 0x4e, 0xa9, 0x2f, 0xe6, 0xaf,
  0x33, 0x34, 0x0e, 0x30, 0xd2, 0xbd, 0x1d, 0x00, 0x4d, 0x25, 0xc7, 0x33,
  0xb2, 0x1f, 0x54, 0xb7, 0x2e, 0xc3, 0x40, 0xea, 0x2d, 0xc2, 0x70, 0x11,
  0x1d, 0x23, 0xb9, 0x2c, 0xde, 0xb4, 0x41, 0xe6, 0xe3, 0xfa, 0x1e, 0xae,
  0x02, 0xde, 0xe7, 0xf3, 0xdb, 0x90, 0x15, 0x16, 0xea, 0x5a, 0x2b, 0x8f,
  0x4b, 0xb8, 0x24, 0x0f, 0xbe, 0x1e, 0xb0, 0xe1, 0xde, 0xf3, 0xbb, 0xe2,
  0x34, 0xe0, 0x35, 0x15, 0x26, 0xc9, 0x4c, 0x12, 0xea, 0x36, 0xa5, 0xaf,
  0x34, 0x3a, 0x3d, 0xef, 0x3e, 0xd2, 0x1c, 0x3a, 0xf1, 0xee, 0x39, 0xad,
  0x02, 0x3c, 0xc0, 0xed, 0xcd, 0x33, 0xb1, 0x3b, 0xf4, 0x12, 0xf6, 0x10,
  0xfa, 0x1a, 0xb2, 0x29, 0x3a, 0x29, 0x6f, 0xc3, 0xe1, 0x28, 0xc1, 0xc1,
  0x2e, 0x0a, 0xb3, 0xbf, 0x55, 0x22, 0xc7, 0xd7, 0xfe, 0xd0, 0x30, 0x29,
  0x4d, 0x0f, 0x25, 0xc9, 0x39, 0xaa, 0xd6, 0x65, 0x57, 0xee, 0x4c, 0xd3,
  0xf4, 0xf8, 0x3a, 0x50, 0xe6, 0x23, 0x1c, 0x36, 0x18, 0x17, 0x32, 0xc9,
  0xe1, 0x1e, 0x3c, 0x68, 0x61, 0x36, 0xb0, 0x43, 0xeb, 0x28, 0xf1, 0x31,
  0xf2, 0x1d, 0x3f, 0xb1, 0xc8, 0xb0, 0xda, 0xf0, 0xfd, 0x0e, 0xbe, 0xe1,
  0x0f, 0x4a, 0xbd, 0x9e, 0xfa, 0xff, 0x07, 0x1b, 0xb3, 0x51, 0xe2, 0x10,
  0x44, 0xd4, 0x5f, 0xd2, 0x4d, 0x9c, 0x53, 0x65, 0x61, 0xd5, 0x3f, 0xc1,
  0xf7, 0x2a, 0xf8, 0x00, 0xd8, 0x70, 0xff, 0x01, 0x3f, 0x42, 0x44, 0x9b,
  0xe6, 0x20, 0x1f, 0x52, 0xcc, 0x40, 0x67, 0x0e, 0x17, 0x1f, 0x05, 0xa8,
  0x47, 0x16, 0x4d, 0xf3, 0x07, 0x56, 0x35, 0x37, 0x4f, 0xe9, 0x51, 0x22,
  0x50, 0xd7, 0xd4, 0x53, 0x61, 0x4e, 0x32, 0xe5, 0x3a, 0xa5, 0xe4, 0x04,
  0xfd, 0xf9, 0xef, 0x3b, 0xc5, 0x07, 0xc5, 0xdd, 0x11, 0x0c, 0x03, 0x11,
  0xd0, 0x67, 0x2c, 0xa6, 0xbe, 0xd4, 0xf5, 0x10, 0xb6, 0xa0, 0x52, 0xf3,
  0x3a, 0x3d, 0xd4, 0xbd, 0x34, 0x3e, 0xcd, 0xb8, 0x09, 0x0f, 0x50, 0x43,
  0x33, 0x3c, 0x27, 0xc0, 0x2d, 0x49, 0xb6, 0xb5, 0x30, 0x1b, 0xf0, 0x1b,
  0x5a, 0x1d, 0xbd, 0x11, 0x27, 0xf2, 0x14, 0x5c, 0xf6, 0xe8, 0x4d, 0xa5,
  0x46, 0xd0, 0x0e, 0x0a, 0x43, 0xdd, 0xb2, 0x2a, 0xc3, 0x26, 0xc3, 0x56,
  0xe4, 0x3e, 0xbf, 0xd9, 0x1f, 0xb7, 0x2d, 0x4d, 0x46, 0x09, 0xd1, 0xf2,
  0x57, 0xa8, 0xd2, 0xaa, 0x47, 0x19, 0xa4, 0xe3, 0x3b, 0xd8, 0xc1, 0xa3,
  0xd9, 0xc7, 0x24, 0xf2, 0x99, 0xfc, 0x63, 0x0b, 0xc9, 0xf4, 0xab, 0xf2,
  0xd3, 0x36, 0x40, 0x50, 0x98, 0x1c, 0xe1, 0xef, 0xd1, 0x45, 0x7f, 0x66,
  0x15, 0xb9, 0x08, 0xc4, 0x1b, 0x48, 0x48, 0x90, 0x06, 0x4c, 0x53, 0x1b,
  0xc6, 0x0f, 0x17, 0xa9, 0x20, 0xc9, 0x2e, 0xea, 0x4c, 0xfb, 0x3a, 0xd7,
  0x59, 0xee, 0x52, 0x5d, 0x3c, 0x28, 0x25, 0xbc, 0xa9, 0xc6, 0x17, 0x20,
  0x17, 0x04, 0xd9, 0x0c, 0xba, 0xf1, 0x08, 0xb9, 0xbc, 0xd0, 0xef, 0xfd,
  0x36, 0xba, 0x46, 0x0d, 0x14, 0xc3, 0x2e, 0xed, 0x5a, 0xe7, 0x20, 0x36,
  0x01, 0x23, 0x3b, 0x08, 0xd2, 0xf4, 0xa6, 0xf3, 0xcf, 0x40, 0x17, 0x9c,
  0xac, 0xbb, 0x11, 0xa8, 0x40, 0x2a, 0x5b, 0xf6, 0xf5, 0xb1, 0x4f, 0xec,
  0xb8, 0xe4, 0xb1, 0xf4, 0xd5, 0x18, 0x28, 0x1a, 0x56, 0x63, 0x52, 0x2f,
  0x57, 0xeb, 0xe7, 0xf6, 0xbb, 0xb6, 0x23, 0xb5, 0xc4, 0x50, 0x53, 0x23,
  0xbc, 0x21, 0x30, 0xbb, 0x57, 0x17, 0xf8, 0x04, 0xc3, 0xe2, 0xde, 0xe3,
  0x58, 0xad, 0x01, 0x16, 0x08, 0x35, 0xdc, 0x2f, 0x57, 0x45, 0x62, 0x55,
  0x01, 0x3a, 0x3f, 0x1b, 0x52, 0x2e, 0xd3, 0xeb, 0xdc, 0x97, 0x46, 0x11,
  0x3d, 0x89, 0x16, 0xf6, 0xe7, 0x36, 0x26, 0xd0, 0xe3, 0xc7, 0xb1, 0x92,
  0xe8, 0xed, 0x4c, 0x14, 0x3a, 0x0c, 0x29, 0xd0, 0xc4, 0xde, 0x35, 0x60,
  0x3c, 0x4d, 0x10, 0x45, 0x55, 0x23, 0x11, 0xc5, 0xdb, 0xf4, 0xf6, 0x0d,
  0x09, 0x22, 0xf4, 0x33, 0xb0, 0xe2, 0x1c, 0xaa, 0x48, 0x98, 0x20, 0xbf,
  0xc4, 0xa9, 0x15, 0xd7, 0x16, 0x09, 0x15, 0xe3, 0x03, 0x31, 0x20, 0x49,
  0xec, 0x06, 0x23, 0x29, 0xfc, 0xbf, 0xed, 0x51, 0xff, 0x45, 0x0e, 0x1f,
  0x3c, 0xc5, 0xf2, 0xc4, 0x16, 0x1c, 0xee, 0x30, 0x3c, 0x0a, 0xe0, 0x1f,
  0xcf, 0xd7, 0xef, 0xb8, 0x2f, 0x29, 0x19, 0x0f, 0x1f, 0x44, 0x02, 0xe2,
  0x3b, 0xde, 0x26, 0xf0, 0x17, 0xe7, 0x2e, 0xef, 0x09, 0xe1, 0xa2, 0x33,
  0x07, 0xf6, 0xf9, 0x1c, 0x22, 0x04, 0xed, 0xfd, 0xb0, 0xf1, 0xb1, 0x24,
  0xbc, 0xfc, 0xa6, 0xfd, 0x63, 0xc2, 0xfe, 0xdb, 0xd3, 0xdd, 0x0c, 0x16,
  0x1f, 0xaa, 0xcc, 0xdc, 0x42, 0x34, 0x24, 0xf2, 0x45, 0x2a, 0xf1, 0xea,
  0xdd, 0x32, 0xa3, 0xf9, 0x0b, 0x30, 0xfc, 0xef, 0xaf, 0xb5, 0xdd, 0xab,
  0xe7, 0xef, 0x19, 0x34, 0x0c, 0x24, 0xe7, 0x42, 0xe5, 0xb2, 0x0e, 0xb7,
  0xe4, 0x3c, 0x17, 0xbc, 0x0e, 0xb2, 0x41, 0x9b, 0x90, 0xc4, 0xde, 0xd6,
  0x19, 0x33, 0xe0, 0x0a, 0x2c, 0x32, 0xbd, 0x3c, 0xf2, 0x4c, 0x0a, 0x4e,
  0x41, 0xce, 0x55, 0xc8, 0x45, 0x15, 0xe7, 0x53, 0x5a, 0x15, 0x57, 0xa6,
  0x06, 0x5e, 0x24, 0x14, 0xd6, 0x52, 0x07, 0xd8, 0x52, 0xb2, 0x5b, 0x59,
  0x4d, 0xfb, 0x0c, 0x1d, 0xd8, 0x21, 0xb6, 0x56, 0x59, 0xc2, 0x31, 0xf0,
  0xee, 0x19, 0x04, 0xca, 0x23, 0x06, 0x10, 0x2a, 0x5b, 0xc1, 0x42, 0x0d,
  0x3c, 0xc5, 0xe6, 0xd8, 0xe2, 0x33, 0x31, 0x20, 0x53, 0x48, 0x9e, 0x17,
  0x52, 0x36, 0xf5, 0xef, 0xe2, 0x0e, 0xee, 0x4c, 0x03, 0xe2, 0x61, 0x06,
  0xd7, 0xd8, 0x26, 0xb4, 0x22, 0xc8, 0xe4, 0xd1, 0xf4, 0x26, 0xcd, 0xbd,
  0x48, 0x50, 0xf1, 0x46, 0x65, 0x4b, 0x00, 0xcb, 0xd1, 0x27, 0xbe, 0x14,
  0xd4, 0xc9, 0x1c, 0xe1, 0x37, 0x2c, 0x58, 0xba, 0xd3, 0x51, 0xb3, 0x49,
  0xf2, 0x0d, 0x01, 0x44, 0xc1, 0x10, 0x6f, 0xf6, 0xdc, 0x41, 0xe3, 0x2c,
  0xdb, 0x3d, 0x0f, 0x31, 0xdd, 0xd2, 0x9a, 0xdf, 0xd7, 0x05, 0xa6, 0xb9,
  0x46, 0x0c, 0xff, 0x29, 0x41, 0x0c, 0xd9, 0xde, 0xf3, 0xb9, 0xb8, 0x1f,
  0xb9, 0x46, 0x5c, 0x6d, 0x46, 0x04, 0xd2, 0xc4, 0x1e, 0x9d, 0x19, 0x0a,
  0xfd, 0x1d, 0x12, 0x46, 0xf7, 0x51, 0x67, 0x09, 0x2e, 0x46, 0x00, 0x2f,
  0xf4, 0xd8, 0xe4, 0x92, 0x47, 0xac, 0xf2, 0x96, 0x9b, 0x20, 0x4a, 0x1e,
  0x3a, 0x3d, 0xb3, 0x56, 0xda, 0x19, 0x37, 0x2d, 0xdc, 0x72, 0x5a, 0xc8,
  0x01, 0xd4, 0x58, 0x4a, 0xa4, 0xa8, 0x5c, 0x4f, 0x29, 0xb0, 0x49, 0xf4,
  0x43, 0xd6, 0x2b, 0x4b, 0xee, 0xc3, 0x67, 0xda, 0xf4, 0x1e, 0x1a, 0x0d,
  0x56, 0x68, 0x05, 0x16, 0xc3, 0x39, 0x31, 0x57, 0x3f, 0x55, 0xdd, 0x5c,
  0xf3, 0x09, 0xe3, 0x09, 0x2a, 0xec, 0xff, 0xd6, 0x01, 0xd4, 0x4b, 0xee,
  0x34, 0x33, 0x20, 0x20, 0xef, 0x28, 0xe0, 0x14, 0xd9, 0x29, 0xe3, 0x5d,
  0xe1, 0x9d, 0x4a, 0xbf, 0x1f, 0x11, 0x49, 0x11, 0x30, 0x17, 0x33, 0x57,
  0x30, 0x4d, 0x3a, 0xd4, 0xc7, 0x2a, 0x0f, 0x2e, 0x14, 0xb6, 0xc8, 0x0d,
  0x5c, 0xbe, 0xf1, 0x0e, 0x2a, 0x31, 0xc4, 0xfe, 0x41, 0xa3, 0x3f, 0xe5,
  0xee, 0x2e, 0x1f, 0x05, 0xf1, 0x18, 0xdb, 0xb9, 0x42, 0x09, 0x2b, 0x17,
  0x60, 0xf7, 0x55, 0x1f, 0x2b, 0xb3, 0xb2, 0xfe, 0x36, 0x3a, 0x22, 0xc3,
  0x05, 0x05, 0x2a, 0xc8, 0xed, 0x32, 0x03, 0xe5, 0x0d, 0x60, 0xd1, 0x05,
  0xd8, 0x48, 0x5d, 0xfc, 0xbc, 0xf5, 0xf2, 0x1c, 0x24, 0xa4, 0x1d, 0xbc,
  0xd5, 0x04, 0x56, 0x16, 0x29, 0xe2, 0xc3, 0xe3, 0x62, 0x3b, 0xfe, 0xe5,
  0xb8, 0xde, 0xbe, 0x47, 0xc9, 0x3d, 0x5f, 0xc2, 0xe9, 0x33, 0x2a, 0x35,
  0x17, 0x75, 0xaf, 0x2c, 0xee, 0x20, 0xc1, 0xf5, 0xef, 0xcc, 0x6e, 0x1b,
  0x4d, 0xc8, 0xf1, 0x12, 0x5f, 0xf1, 0xb9, 0x19, 0xeb, 0x1a, 0x3c, 0xaf,
  0x5c, 0xef, 0xde, 0x3e, 0x03, 0x27, 0x34, 0x44, 0xcd, 0xb1, 0x23, 0x44,
  0xe7, 0xba, 0x4e, 0x5b, 0x4a, 0x0f, 0xdd, 0xaf, 0xfe, 0xe2, 0xf7, 0xcb,
  0x0f, 0x69, 0x15, 0xe4, 0x3b, 0xb3, 0x36, 0xe1, 0x00, 0x43, 0xe9, 0x30,
  0x0b, 0x1e, 0x1e, 0x55, 0xcb, 0xb0, 0x02, 0xea, 0xd7, 0x12, 0x1e, 0xe9,
  0xfa, 0xea, 0xdc, 0xc0, 0x53, 0xda, 0xfd, 0x11, 0xd4, 0xe7, 0x3e, 0x53,
  0xc3, 0xa4, 0x28, 0xd1, 0x38, 0xd0, 0x36, 0x44, 0x40, 0xb0, 0xff, 0xa0,
  0x30, 0x42, 0xff, 0xb6, 0x08, 0x19, 0x2e, 0x0a, 0xc8, 0xb1, 0xff, 0xcd,
  0xf0, 0x1b, 0xba, 0x19, 0xbf, 0x0e, 0xc7, 0xea, 0xfe, 0xbe, 0x3d, 0xf6,
  0x30, 0x9f, 0x95, 0x0a, 0x16, 0xe5, 0x30, 0x2e, 0xe8, 0x49, 0xbf, 0x12,
  0x4e, 0x37, 0xde, 0xb0, 0xda, 0x85, 0xc0, 0xd6, 0xe3, 0xed, 0xda, 0x94,
  0x2e, 0xda, 0x4f, 0xc5, 0xfd, 0xe3, 0xe9, 0xd8, 0x0e, 0x6b, 0x51, 0x46,
  0xe5, 0xf4, 0xdd, 0x51, 0x23, 0xd9, 0x41, 0xbf, 0x5d, 0xa8, 0x10, 0x22,
  0x3c, 0xcf, 0x4c, 0x3a, 0x1c, 0x10, 0x34, 0x22, 0x28, 0x93, 0x02, 0xb1,
  0x5a, 0x1f, 0xb0, 0xd7, 0xef, 0x3e, 0x3e, 0xcc, 0x28, 0xd3, 0xc6, 0x12,
  0x4a, 0xee, 0xf9, 0x35, 0xe9, 0x3a, 0xbc, 0x3c, 0x30, 0x6b, 0xce, 0x45,
  0xe7, 0xbf, 0xe5, 0x15, 0xe7, 0xaf, 0xf0, 0x61, 0xc4, 0x17, 0xd4, 0xfc,
  0xc9, 0x07, 0xd3, 0xe1, 0x06, 0xe8, 0x1a, 0xdd, 0xd7, 0xce, 0x27, 0xec,
  0x28, 0xb5, 0xfe, 0x18, 0xe5, 0x17, 0x0a, 0x09, 0x61, 0x49, 0xd2, 0x61,
  0xf5, 0xed, 0x24, 0xb2, 0x33, 0xea, 0x2b, 0xc9, 0x2d, 0x2e, 0x4a, 0x22,
  0x52, 0xf6, 0xfa, 0x38, 0x00, 0xe0, 0xc0, 0x4a, 0x13, 0x23, 0xb9, 0xe5,
  0xfa, 0xc4, 0x44, 0xcf, 0x49, 0x40, 0xdd, 0x0f, 0x1f, 0xb0, 0xe4, 0x56,
  0x60, 0xd4, 0xc9, 0xdb, 0xe1, 0xab, 0xb4, 0xc3, 0xd9, 0xe6, 0xbc, 0xf0,
  0x2b, 0x1f, 0x61, 0xb5, 0xaa, 0xce, 0x45, 0x23, 0x46, 0x21, 0x21, 0x33,
  0x4f, 0x38, 0x27, 0xfe, 0x15, 0x01, 0x15, 0xca, 0xff, 0x2e, 0xb2, 0xa6,
  0xc3, 0x41, 0xea, 0xe4, 0x3f, 0x36, 0x03, 0x58, 0x26, 0x25, 0xd7, 0x0d,
  0x6a, 0xf6, 0x31, 0x0d, 0x40, 0x20, 0xfb, 0xe4, 0x18, 0x27, 0xfa, 0xdc,
  0xd9, 0x45, 0xb8, 0xd7, 0x07, 0x4c, 0x24, 0xfb, 0x1d, 0xf7, 0x31, 0x3c,
  0xf2, 0x2d, 0x4e, 0x4b, 0xc7, 0xc0, 0x2c, 0x37, 0xe5, 0xac, 0xcc, 0x17,
  0xba, 0xd9, 0x1c, 0xdc, 0x19, 0xff, 0xab, 0x09, 0x12, 0x4e, 0x1d, 0x46,
  0x3c, 0xcd, 0xe8, 0x45, 0xc1, 0x22, 0xfd, 0xff, 0x13, 0x46, 0x0b, 0x2e,
  0xd6, 0xe8, 0xe1, 0x21, 0x15, 0x3d, 0x33, 0x39, 0x2f, 0x51, 0xe4, 0x42,
  0xc5, 0x22, 0x0b, 0xff, 0x2e, 0x43, 0xcb, 0xed, 0xfe, 0xa6, 0x5e, 0x61,
  0xd6, 0xb3, 0xfd, 0xe0, 0xe5, 0xac, 0x39, 0x9f, 0xc8, 0xa7, 0x1a, 0x54,
  0x16, 0xef, 0xcf, 0xf6, 0x27, 0xf9, 0x0f, 0xb9, 0x3f, 0xd2, 0x60, 0xe6,
  0x22, 0x20, 0x13, 0xf7, 0xb4, 0x00, 0x36, 0x00, 0x49, 0x4b, 0xea, 0x36,
  0x09, 0xd0, 0xb7, 0x5f, 0x1b, 0x15, 0x17, 0x23, 0xf9, 0x06, 0x75, 0x09,
  0xdc, 0xc4, 0xa1, 0x3e, 0x42, 0xe2, 0x46, 0x01, 0x35, 0x53, 0x59, 0x5d,
  0xe0, 0xc2, 0x38, 0x1e, 0xef, 0xc4, 0x9a, 0xdd, 0xe3, 0x0a, 0x2e, 0xc0,
  0xe9, 0x41, 0x2f, 0x5c, 0xf6, 0x4b, 0xdc, 0xf0, 0x43, 0xdf, 0x30, 0x28,
  0xc6, 0x4e, 0x29, 0xcf, 0xb4, 0xb5, 0xec, 0xd6, 0xb9, 0x10, 0x9c, 0x0d,
  0xdf, 0xa9, 0x47, 0x1e, 0xe1, 0x23, 0xf4, 0xa9, 0x26, 0xe8, 0xe2, 0xd2,
  0xbc, 0xe0, 0x17, 0xc8, 0x31, 0x08, 0x25, 0x0e, 0xc8, 0x38, 0xf6, 0xc7,
  0x19, 0xd1, 0x08, 0x06, 0x1e, 0x51, 0xb0, 0xc3, 0xde, 0x34, 0xb5, 0x52,
  0x41, 0xe7, 0xd5, 0x58, 0xe9, 0x56, 0xc4, 0x0c, 0x3d, 0x6f, 0x0b, 0x02,
  0x63, 0xb9, 0x38, 0x52, 0xb2, 0x58, 0x4e, 0x13, 0x2f, 0x13, 0x21, 0x05,
  0x03, 0xa4, 0xdd, 0x27, 0x1d, 0x08, 0xc7, 0xfe, 0x43, 0xf1, 0x4b, 0x4a,
  0xf4, 0xcb, 0x1d, 0xf8, 0xd3, 0x0e, 0xdc, 0x07, 0xda, 0x9d, 0xc4, 0x1a,
  0x0a, 0xd1, 0xec, 0xbc, 0x5e, 0xb8, 0x20, 0xa2, 0x3b, 0x4a, 0x22, 0xe3,
  0xb4, 0xca, 0xca, 0xfa, 0xe6, 0x5a, 0xbd, 0xb6, 0xcf, 0xec, 0x33, 0x02,
  0x3c, 0x01, 0xf5, 0x63, 0x09, 0xfd, 0x07, 0x2e, 0xb2, 0x43, 0xcf, 0xc4,
  0x0f, 0xe3, 0xbc, 0x5c, 0xcd, 0x28, 0x1f, 0x01, 0x16, 0x2f, 0x0b, 0x16,
  0xab, 0xe8, 0x13, 0xfa, 0x27, 0x09, 0x28, 0xb8, 0xf2, 0x24, 0x37, 0xe4,
  0xb8, 0xd3, 0xc9, 0xa9, 0x1d, 0xca, 0x28, 0x7e, 0xe9, 0x3a, 0xf3, 0xfe,
  0xee, 0xf4, 0x4c, 0x3b, 0x06, 0xbb, 0xd6, 0x26, 0xdc, 0x17, 0xcb, 0x42,
  0xe7, 0x34, 0x0b, 0x3e, 0xfc, 0xbe, 0x11, 0x2b, 0x43, 0xbb, 0xda, 0xef,
  0xd3, 0x28, 0x60, 0xf5, 0xf2, 0xe3, 0xcb, 0x53, 0x12, 0xcf, 0xed, 0x51,
  0x47, 0x28, 0x33, 0x09, 0xd8, 0xbf, 0x5c, 0x22, 0xfe, 0xcf, 0x36, 0xb1,
  0xac, 0xe1, 0x06, 0xda, 0x32, 0x2d, 0xa1, 0xd4, 0x69, 0x2d, 0x17, 0x17,
  0x46, 0xfc, 0x0d, 0x4d, 0x00, 0x29, 0x1d, 0xed, 0xbb, 0xd8, 0xdf, 0x38,
  0xf6, 0x98, 0x21, 0xcf, 0xf7, 0xe4, 0x15, 0x35, 0xe7, 0xdf, 0xe9, 0xea,
  0x4d, 0xae, 0x2f, 0x3a, 0xa3, 0xe6, 0xb1, 0x94, 0xe0, 0x43, 0x35, 0xd6,
  0x0c, 0x92, 0xc8, 0x01, 0x1b, 0x9c, 0x30, 0xcd, 0x16, 0x43, 0xaf, 0xb6,
  0xae, 0x5a, 0xd3, 0xd7, 0xef, 0xb9, 0x68, 0x0f, 0x1b, 0x44, 0x01, 0x07,
  0xd3, 0xf6, 0xd5, 0xf0, 0xdc, 0x4d, 0x25, 0xcb, 0x69, 0xf0, 0x04, 0x63,
  0x2e, 0xc4, 0x28, 0x60, 0xc3, 0xcc, 0x45, 0xe1, 0xdb, 0xdd, 0x54, 0x01,
  0x47, 0x13, 0x16, 0x14, 0x29, 0xee, 0xa0, 0xb9, 0x58, 0xcf, 0xc9, 0xf4,
  0xa2, 0x16, 0x38, 0xe8, 0xdc, 0x29, 0x05, 0xb1, 0x32, 0xe1, 0x93, 0x16,
  0x61, 0x4a, 0xd5, 0x56, 0xc5, 0x32, 0xd8, 0xee, 0x45, 0xc0, 0x0a, 0x40,
  0xd0, 0x25, 0xcf, 0x3a, 0x31, 0x34, 0xce, 0xb9, 0xee, 0x06, 0x3c, 0xcd,
  0xec, 0xb4, 0xe9, 0xd4, 0xb6, 0x93, 0xf2, 0x0d, 0x26, 0xcc, 0x2a, 0x08,
  0x0a, 0x11, 0x1e, 0x23, 0xa5, 0xb6, 0x52, 0x4c, 0x14, 0x36, 0xf3, 0x33,
  0x00, 0x0b, 0x3a, 0xd4, 0xfb, 0xa9, 0xa4, 0xba, 0xf7, 0x9f, 0xcd, 0x9e,
  0x24, 0xc7, 0x1c, 0x0e, 0x4e, 0x49, 0xe1, 0x5b, 0xf4, 0xec, 0x94, 0x5b,
  0xd1, 0xd0, 0x39, 0xfb, 0x46, 0xe9, 0xe5, 0xab, 0xf6, 0x19, 0xa3, 0x25,
  0xc0, 0xbe, 0x3c, 0xde, 0x4f, 0xfa, 0xfc, 0x4b, 0xf8, 0x31, 0xbd, 0x34,
  0x49, 0x00, 0xc8, 0xff, 0xe6, 0x1a, 0xce, 0xf3, 0x2e, 0x0e, 0xe6, 0x48,
  0x3b, 0xc1, 0xe3, 0x23, 0x55, 0xf3, 0x0a, 0xb0, 0x37, 0x0e, 0x00, 0x25,
  0x2f, 0x1a, 0x56, 0xd2, 0x37, 0x59, 0xce, 0x41, 0xac, 0xe4, 0xe2, 0xea,
  0xcf, 0xd0, 0xd6, 0xe4, 0xfe, 0x4c, 0xda, 0x29, 0x0a, 0x09, 0xa2, 0x1b,
  0xfa, 0xf8, 0x13, 0xe8, 0xe3, 0xb3, 0xc4, 0xf5, 0x20, 0x2f, 0xc5, 0xb2,
  0xa7, 0xeb, 0xde, 0xd8, 0xf9, 0x24, 0x0b, 0x1e, 0xd0, 0x19, 0xec, 0x2e,
  0x36, 0xc3, 0xd9, 0xae, 0xd7, 0x4f, 0x2c, 0xdb, 0x19, 0xdd, 0xba, 0xe5,
  0xf3, 0xe8, 0xea, 0xa5, 0x88, 0x1f, 0xc2, 0xb3, 0xc9, 0xfb, 0x3e, 0xf5,
  0xd2, 0x5e, 0x06, 0x03, 0xbf, 0x70, 0xb8, 0xda, 0x1a, 0x4c, 0x4d, 0x15,
  0x34, 0x22, 0x14, 0x4e, 0xc3, 0x0b, 0xc4, 0xf8, 0xca, 0xb9, 0x2d, 0xcb,
  0xce, 0x02, 0xb8, 0x3f, 0xe5, 0x9d, 0xbd, 0x17, 0x22, 0x11, 0x2f, 0x1d,
  0x10, 0x35, 0xe2, 0xf7, 0xc7, 0x55, 0x50, 0x61, 0x15, 0xac, 0x24, 0x0e,
  0x4c, 0x5a, 0x01, 0x38, 0x37, 0xdf, 0x54, 0x17, 0x62, 0xfa, 0xdf, 0x2a,
  0xcf, 0x07, 0xe0, 0x06, 0x51, 0xf7, 0xb8, 0x2a, 0x01, 0x18, 0x08, 0x3a,
  0xdf, 0xf7, 0xc0, 0xf3, 0x30, 0x37, 0xa0, 0x26, 0xd7, 0x13, 0xe1, 0x01,
  0x34, 0xf0, 0xb1, 0xf2, 0x21, 0xd6, 0xb7, 0x21, 0x52, 0xd2, 0xd4, 0xef,
  0xd3, 0x0d, 0x3e, 0xd6, 0x0e, 0x45, 0x27, 0x24, 0xfd, 0xea, 0x2e, 0x00,
  0x03, 0x24, 0xf8, 0xfe, 0xb6, 0x24, 0xb0, 0x01, 0xf7, 0xd3, 0xbc, 0xd2,
  0x30, 0x99, 0xad, 0x51, 0xbe, 0x3a, 0x56, 0xd0, 0x45, 0x60, 0xa8, 0x08,
  0x56, 0x5b, 0xef, 0x1b, 0x27, 0xb1, 0xf0, 0xb3, 0x23, 0xe4, 0xe6, 0xca,
  0xbf, 0xc8, 0xd4, 0x78, 0xc8, 0x07, 0x9d, 0x08, 0xd1, 0x5c, 0xf5, 0xc8,
  0xc3, 0x54, 0xbc, 0xdc, 0x11, 0x5c, 0xdb, 0x1c, 0x34, 0xf4, 0x03, 0x07,
  0x53, 0xb7, 0xdb, 0xc8, 0x10, 0xe7, 0x07, 0xf7, 0xb4, 0xdd, 0xed, 0x01,
  0x60, 0xd6, 0x09, 0x2e, 0xec, 0xd1, 0x4a, 0x39, 0x9a, 0x2b, 0x44, 0xd9,
  0xaf, 0x1d, 0x2b, 0xbb, 0xc3, 0x23, 0x58, 0xa3, 0xd0, 0xf4, 0xb0, 0x21,
  0xc1, 0x2e, 0xf9, 0x08, 0x15, 0x64, 0x4f, 0xfc, 0xc5, 0xe9, 0x33, 0xb2,
  0xf5, 0x49, 0x6a, 0xc3, 0x1e, 0x31, 0x4e, 0xdd, 0x3d, 0xf3, 0x22, 0xe1,
  0xd4, 0x30, 0x1c, 0x3c, 0x00, 0xda, 0xce, 0xbe, 0xe1, 0x1c, 0x54, 0x58,
  0xf3, 0x42, 0xf0, 0x66, 0x2d, 0x39, 0x3b, 0x23, 0x21, 0xe3, 0x04, 0x21,
  0x47, 0x11, 0xaf, 0x0c, 0xfc, 0xeb, 0xf5, 0x47, 0x2c, 0x07, 0x1d, 0xa7,
  0xd8, 0xcf, 0xd6, 0xda, 0x10, 0xe3, 0xe8, 0xd8, 0xfe, 0x3d, 0x42, 0xb4,
  0x5b, 0x31, 0x2e, 0x54, 0x34, 0x59, 0xfb, 0x0a, 0x04, 0x0a, 0xff, 0xe6,
  0xc6, 0x3c, 0xdc, 0xfc, 0xf4, 0x42, 0xb7, 0x51, 0x08, 0xe3, 0xf3, 0x98,
  0x2d, 0x2d, 0xb8, 0x32, 0xb9, 0x35, 0x0e, 0xfb, 0xc2, 0x37, 0xf3, 0xf0,
  0xa3, 0x0a, 0x58, 0xea, 0x36, 0x04, 0x8c, 0xfb, 0x69, 0xd6, 0x49, 0x61,
  0x8d, 0xe1, 0x62, 0x9e, 0xa1, 0x65, 0x62, 0xfe, 0xb9, 0xbc, 0x98, 0xd2,
  0x51, 0x5b, 0xf8, 0x9d, 0xb0, 0x03, 0xf2, 0xe9, 0x71, 0x95, 0x04, 0xb0,
  0x1a, 0xe6, 0xce, 0x25, 0xd7, 0x8f, 0x36, 0xfe, 0xfe, 0x61, 0xef, 0x21,
  0xe4, 0x4c, 0x42, 0x17, 0x16, 0xb6, 0xd2, 0x47, 0xaa, 0xdc, 0xf0, 0x1d,
  0x22, 0xe9, 0x54, 0x2e, 0xcc, 0x96, 0xc1, 0x02, 0xcd, 0xbf, 0x34, 0x30,
  0x06, 0x32, 0xc1, 0xc0, 0x1a, 0xbb, 0xa7, 0x39, 0x32, 0x49, 0x4e, 0xcc,
  0xd1, 0xf8, 0x13, 0x18, 0xad, 0x4b, 0x44, 0xad, 0x91, 0x2a, 0x49, 0xc8,
  0xbc, 0x2d, 0x54, 0x01, 0xcd, 0xc4, 0xee, 0xfc, 0x4e, 0xd4, 0xf6, 0xbc,
  0xa8, 0x52, 0x1e, 0x01, 0xf9, 0x37, 0x13, 0x4f, 0x66, 0x40, 0xb7, 0x3b,
  0xe6, 0x2b, 0x19, 0xc4, 0x1c, 0x3e, 0x60, 0xe5, 0xfc, 0xc2, 0x50, 0xe9,
  0xc1, 0x2d, 0xcc, 0x16, 0x32, 0x0f, 0xd1, 0xcb, 0x32, 0x2f, 0xeb, 0x44,
  0xcf, 0x61, 0xdb, 0x56, 0x66, 0xfe, 0xab, 0xc8, 0xec, 0x0d, 0xec, 0x9f,
  0xec, 0x35, 0xbf, 0xf7, 0x10, 0x03, 0xbf, 0xff, 0x57, 0xe9, 0xf1, 0x0f,
  0x36, 0x69, 0x23, 0x07, 0xf4, 0x37, 0x27, 0x14, 0xda, 0x31, 0x08, 0x34,
  0x23, 0xcc, 0x47, 0x0f, 0x3a, 0x2a, 0xc9, 0x3e, 0xcf, 0xef, 0x1b, 0xf4,
  0x11, 0xc3, 0xdb, 0xe0, 0x1d, 0x4a, 0x37, 0xe0, 0xe1, 0xd6, 0xa9, 0xc8,
  0xce, 0x07, 0x2c, 0xcb, 0xcf, 0xa6, 0x2a, 0x31, 0xd7, 0x27, 0xdd, 0x96,
  0x14, 0xb8, 0x40, 0x1e, 0x05, 0x06, 0x28, 0xca, 0x5d, 0x4b, 0xfa, 0x29,
  0xc4, 0xe3, 0x00, 0x19, 0x20, 0x08, 0x0a, 0xed, 0x2b, 0xb8, 0xf2, 0xf4,
  0x36, 0xfe, 0xf0, 0xd9, 0x02, 0xf6, 0xb4, 0x24, 0x4c, 0xc1, 0x5e, 0x04,
  0x0f, 0x13, 0x18, 0x1e, 0xf3, 0x1c, 0xe7, 0xcf, 0x4e, 0xd8, 0xcf, 0xd1,
  0x35, 0xbc, 0xbe, 0x45, 0xc6, 0x29, 0xca, 0xcd, 0x54, 0xf3, 0xed, 0x31,
  0x2c, 0xae, 0xd0, 0x45, 0xf3, 0x09, 0x03, 0x32, 0x4e, 0x05, 0x31, 0x27,
  0xdc, 0x71, 0x4b, 0xcd, 0x43, 0x4b, 0xca, 0x41, 0xe3, 0x30, 0x38, 0x10,
  0x09, 0xb5, 0xec, 0xee, 0x22, 0x11, 0x3b, 0xfc, 0x41, 0x6f, 0xdc, 0xd5,
  0x1f, 0xd1, 0xe8, 0x1e, 0xd6, 0x2b, 0x07, 0x6c, 0xdf, 0xea, 0xef, 0x3f,
  0xad, 0x5a, 0xe3, 0xda, 0xf2, 0xb9, 0x03, 0x28, 0xd9, 0xe3, 0x23, 0x3f,
  0x03, 0x16, 0xbc, 0x1d, 0x30, 0x39, 0x3f, 0xc3, 0x07, 0xaa, 0xce, 0x6e,
  0x01, 0x59, 0x23, 0xe9, 0xf7, 0x51, 0xe6, 0xd8, 0x40, 0x63, 0xba, 0x12,
  0xd5, 0x1a, 0x48, 0xf8, 0x44, 0x70, 0xeb, 0xda, 0x1c, 0x04, 0x36, 0x37,
  0xf3, 0xe2, 0xf2, 0x3b, 0x40, 0xde, 0xd5, 0x64, 0x54, 0x09, 0x0b, 0x1b,
  0x1d, 0xd6, 0xd7, 0x1f, 0x37, 0x35, 0x5b, 0xfb, 0xd5, 0xf4, 0xe8, 0xa8,
  0x4c, 0x3d, 0xdf, 0xf0, 0xd8, 0x20, 0x23, 0xff, 0x42, 0x76, 0x3a, 0x35,
  0xdb, 0xcf, 0xfd, 0x27, 0xf0, 0x03, 0x2f, 0xc7, 0xf6, 0xf6, 0x3c, 0x3b,
  0x1d, 0xce, 0xed, 0xd6, 0x9f, 0xd0, 0x02, 0xfc, 0xac, 0x12, 0x4d, 0xfe,
  0x69, 0xda, 0x4c, 0x3e, 0x0a, 0x60, 0xf2, 0xbc, 0x37, 0x52, 0x04, 0x62,
  0x3b, 0x30, 0x20, 0xe9, 0x0e, 0x2f, 0x01, 0x1c, 0x2c, 0x04, 0xbe, 0x10,
  0xa5, 0xc6, 0xd4, 0x10, 0x39, 0xcb, 0x45, 0xca, 0x62, 0x27, 0xcc, 0xb3,
  0xa7, 0xe2, 0xe8, 0xc3, 0x58, 0xda, 0xdb, 0x34, 0x31, 0x1c, 0xec, 0x68,
  0x18, 0x2a, 0xf2, 0xe7, 0x00, 0x17, 0xcb, 0x2e, 0xf2, 0xf2, 0x0b, 0x34,
  0x33, 0x00, 0x19, 0xd2, 0x0c, 0xa9, 0x2d, 0xd2, 0xfa, 0x3a, 0xbe, 0x3f,
  0x37, 0xe2, 0xd8, 0x17, 0xd3, 0xb1, 0xea, 0x4d, 0xfc, 0x3b, 0xf5, 0x76,
  0xed, 0x2b, 0x32, 0xdf, 0x3c, 0xf5, 0x16, 0xba, 0xda, 0x15, 0x12, 0x09,
  0x1f, 0xb5, 0x3d, 0xb6, 0x41, 0x1e, 0x52, 0x35, 0xd7, 0x5e, 0xa2, 0xe8,
  0xf5, 0xd9, 0xf5, 0x92, 0xb0, 0xfd, 0xd0, 0xef, 0x28, 0x45, 0xe3, 0x13,
  0x17, 0xdb, 0x48, 0xdf, 0xeb, 0x35, 0x3f, 0x30, 0xd8, 0xfc, 0x3e, 0x58,
  0xe3, 0x03, 0x2e, 0xde, 0x24, 0x22, 0x45, 0xc5, 0x2d, 0x38, 0x4f, 0x17,
  0xb9, 0xf7, 0xdb, 0xec, 0xc0, 0xe7, 0x70, 0x32, 0xfb, 0x37, 0xc0, 0x07,
  0x11, 0xfd, 0xdc, 0xf8, 0x31, 0x6a, 0x09, 0x0b, 0xf9, 0x5e, 0x76, 0x01,
  0x21, 0x12, 0xef, 0x43, 0x51, 0x3a, 0x4c, 0xd5, 0xe7, 0xd2, 0x50, 0xc3,
  0xd9, 0x05, 0xe1, 0xc9, 0xb9, 0xf6, 0xfb, 0xcc, 0xaf, 0xd1, 0xce, 0xde,
  0xb6, 0xd0, 0xb5, 0x3b, 0xbd, 0x3a, 0xe6, 0x34, 0x35, 0x63, 0x1d, 0xc4,
  0x0b, 0xe2, 0x17, 0xae, 0xb6, 0x00, 0xf7, 0xcd, 0xc6, 0xaa, 0xe3, 0xdc,
  0xe6, 0x39, 0x04, 0x41, 0xe8, 0x0a, 0xcf, 0xff, 0x31, 0xf4, 0xd7, 0x4b,
  0x14, 0x24, 0xf9, 0xd0, 0xdd, 0x15, 0xdc, 0x36, 0x20, 0x0e, 0x0b, 0x16,
  0x6a, 0xe3, 0xb5, 0xf6, 0xbd, 0xea, 0xd5, 0x18, 0xba, 0xb7, 0x2a, 0x05,
  0x39, 0x21, 0x00, 0xdb, 0xff, 0xfd, 0xba, 0x4c, 0xe8, 0x50, 0x43, 0xac,
  0x4d, 0x32, 0x00, 0x59, 0xd3, 0x3a, 0x36, 0x53, 0xeb, 0x0b, 0x22, 0xcf,
  0x0a, 0x08, 0x56, 0x2e, 0xb1, 0xad, 0xd1, 0xb3, 0x40, 0xef, 0x17, 0xd0,
  0x55, 0xc4, 0xf2, 0xf0, 0xf3, 0xf7, 0xd4, 0xe7, 0x47, 0xb8, 0x1d, 0xe6,
  0x26, 0xf4, 0x3b, 0x1a, 0x3e, 0xfb, 0xff, 0xff, 0x04, 0x00, 0x00, 0x00,
  0x80, 0x00, 0x00, 0x00, 0x2e, 0x01, 0x00, 0x00, 0x1f, 0x00, 0x00, 0x00,
  0xe9, 0xfe, 0xff, 0xff, 0xa1, 0xfe, 0xff, 0xff, 0xc2, 0x00, 0x00, 0x00,
  0x28, 0x00, 0x00, 0x00, 0xa4, 0x00, 0x00, 0x00, 0x8e, 0x01, 0x00, 0x00,
  0x2f, 0x00, 0x00, 0x00, 0x23, 0x00, 0x00, 0x00, 0x68, 0x01, 0x00, 0x00,
  0xed, 0xfe, 0xff, 0xff, 0xdd, 0xfe, 0xff, 0xff, 0xe0, 0x00, 0x00, 0x00,
  0x02, 0x02, 0x00, 0x00, 0x04, 0x00, 0x00, 0x00, 0x83, 0xfe, 0xff, 0xff,
  0x84, 0x01, 0x00, 0x00, 0x12, 0x00, 0x00, 0x00, 0x3f, 0xff, 0xff, 0xff,
  0xea, 0xfe, 0xff, 0xff, 0x42, 0x00, 0x00, 0x00, 0xa4, 0xff, 0xff, 0xff,
  0x0a, 0x00, 0x00, 0x00, 0xaa, 0xff, 0xff, 0xff, 0xbd, 0x02, 0x00, 0x00,
  0x2c, 0x00, 0x00, 0x00, 0x9f, 0x00, 0x00, 0x00, 0x39, 0x00, 0x00, 0x00,
  0x3c, 0x02, 0x00, 0x00, 0xe1, 0x01, 0x00, 0x00, 0x99, 0x00, 0x00, 0x00,
  0xca, 0xfb, 0xff, 0xff, 0x04, 0x00, 0x00, 0x00, 0xa0, 0x00, 0x00, 0x00,
  0x74, 0x8b, 0x2f, 0xd2, 0xd1, 0xf9, 0xea, 0xe5, 0xad, 0x73, 0xd4, 0xd7,
  0xdc, 0x3e, 0xb9, 0x2d, 0xf9, 0x26, 0x47, 0x02, 0x02, 0xbd, 0x20, 0x31,
  0x30, 0x95, 0x84, 0xec, 0x38, 0xee, 0xdc, 0xae, 0xc1, 0xc1, 0x37, 0x1a,
  0x34, 0xf5, 0xd6, 0x29, 0xea, 0x03, 0x79, 0xe7, 0x14, 0xbf, 0xa5, 0xb3,
  0x46, 0xf0, 0x9d, 0x35, 0xe7, 0x3b, 0x49, 0x16, 0xd9, 0xc8, 0x76, 0xf4,
  0xb9, 0xcd, 0xa1, 0xc2, 0x48, 0x85, 0xc8, 0x95, 0x15, 0xff, 0xf7, 0x23,
  0xc8, 0x8e, 0x2f, 0xa8, 0xa2, 0x12, 0x2a, 0x94, 0xab, 0x3f, 0xdc, 0xeb,
  0xcd, 0xdc, 0xcc, 0x18, 0xd4, 0x31, 0xf1, 0xc7, 0xfc, 0x1d, 0x5e, 0xc2,
  0x8e, 0x54, 0x34, 0xf4, 0xa0, 0x05, 0x0f, 0xa2, 0x56, 0xc7, 0x17, 0xb7,
  0xe4, 0x62, 0x26, 0xc1, 0x8b, 0xbb, 0x34, 0xb3, 0x36, 0xc7, 0x86, 0xd2,
  0x36, 0xe4, 0x13, 0x1b, 0x6f, 0x28, 0x45, 0x5a, 0x27, 0xb0, 0xde, 0x50,
  0xc8, 0x68, 0x70, 0x61, 0xad, 0x38, 0x81, 0x26, 0x38, 0xf2, 0xf6, 0x93,
  0x13, 0x62, 0xad, 0xaf, 0xe1, 0xc9, 0xb3, 0xe2, 0xa3, 0x22, 0x81, 0xb8,
  0xb9, 0x68, 0xc9, 0xbe, 0x76, 0xfc, 0xff, 0xff, 0x04, 0x00, 0x00, 0x00,
  0x14, 0x00, 0x00, 0x00, 0xa3, 0xff, 0xff, 0xff, 0x58, 0xff, 0xff, 0xff,
  0x1c, 0x01, 0x00, 0x00, 0xcf, 0xff, 0xff, 0xff, 0xf7, 0xff, 0xff, 0xff,
  0x96, 0xfc, 0xff, 0xff, 0x04, 0x00, 0x00, 0x00, 0x08, 0x00, 0x00, 0x00,
  0xff, 0xff, 0xff, 0xff, 0x80, 0x00, 0x00, 0x00, 0x38, 0xe9, 0xff, 0xff,
  0x3c, 0xe9, 0xff, 0xff, 0x0f, 0x00, 0x00, 0x00, 0x4d, 0x4c, 0x49, 0x52,
  0x20, 0x43, 0x6f, 0x6e, 0x76, 0x65, 0x72, 0x74, 0x65, 0x64, 0x2e, 0x00,
  0x01, 0x00, 0x00, 0x00, 0x14, 0x00, 0x00, 0x00, 0x00, 0x00, 0x0e, 0x00,
  0x18, 0x00, 0x14, 0x00, 0x10, 0x00, 0x0c, 0x00, 0x08, 0x00, 0x04, 0x00,
  0x0e, 0x00, 0x00, 0x00, 0x14, 0x00, 0x00, 0x00, 0x1c, 0x00, 0x00, 0x00,
  0x88, 0x03, 0x00, 0x00, 0x8c, 0x03, 0x00, 0x00, 0x90, 0x03, 0x00, 0x00,
  0x04, 0x00, 0x00, 0x00, 0x6d, 0x61, 0x69, 0x6e, 0x00, 0x00, 0x00, 0x00,
  0x0e, 0x00, 0x00, 0x00, 0x28, 0x03, 0x00, 0x00, 0xdc, 0x02, 0x00, 0x00,
  0x78, 0x02, 0x00, 0x00, 0x3c, 0x02, 0x00, 0x00, 0x08, 0x02, 0x00, 0x00,
  0xc4, 0x01, 0x00, 0x00, 0x88, 0x01, 0x00, 0x00, 0x54, 0x01, 0x00, 0x00,
  0x10, 0x01, 0x00, 0x00, 0xe8, 0x00, 0x00, 0x00, 0xa4, 0x00, 0x00, 0x00,
  0x70, 0x00, 0x00, 0x00, 0x38, 0x00, 0x00, 0x00, 0x04, 0x00, 0x00, 0x00,
  0x66, 0xfd, 0xff, 0xff, 0x14, 0x00, 0x00, 0x00, 0x00, 0x00, 0x00, 0x09,
  0x14, 0x00, 0x00, 0x00, 0x18, 0x00, 0x00, 0x00, 0x05, 0x00, 0x00, 0x00,
  0x56, 0xfd, 0xff, 0xff, 0x00, 0x00, 0x80, 0x3f, 0x01, 0x00, 0x00, 0x00,
  0x19, 0x00, 0x00, 0x00, 0x01, 0x00, 0x00, 0x00, 0x18, 0x00, 0x00, 0x00,
  0x96, 0xfd, 0xff, 0xff, 0x14, 0x00, 0x00, 0x00, 0x00, 0x00, 0x00, 0x08,
  0x10, 0x00, 0x00, 0x00, 0x14, 0x00, 0x00, 0x00, 0x04, 0x00, 0x00, 0x00,
  0x14, 0xea, 0xff, 0xff, 0x01, 0x00, 0x00, 0x00, 0x18, 0x00, 0x00, 0x00,
  0x03, 0x00, 0x00, 0x00, 0x17, 0x00, 0x00, 0x00, 0x03, 0x00, 0x00, 0x00,
  0x02, 0x00, 0x00, 0x00, 0xca, 0xfd, 0xff, 0xff, 0x14, 0x00, 0x00, 0x00,
  0x00, 0x00, 0x00, 0x4b, 0x14, 0x00, 0x00, 0x00, 0x18, 0x00, 0x00, 0x00,
  0x01, 0x00, 0x00, 0x00, 0xba, 0xfd, 0xff, 0xff, 0xcd, 0xcc, 0xcc, 0x3d,
  0x01, 0x00, 0x00, 0x00, 0x17, 0x00, 0x00, 0x00, 0x01, 0x00, 0x00, 0x00,
  0x16, 0x00, 0x00, 0x00, 0xfa, 0xfd, 0xff, 0xff, 0x14, 0x00, 0x00, 0x00,
  0x00, 0x00, 0x00, 0x08, 0x10, 0x00, 0x00, 0x00, 0x14, 0x00, 0x00, 0x00,
  0x04, 0x00, 0x00, 0x00, 0x78, 0xea, 0xff, 0xff, 0x01, 0x00, 0x00, 0x00,
  0x16, 0x00, 0x00, 0x00, 0x03, 0x00, 0x00, 0x00, 0x15, 0x00, 0x00, 0x00,
  0x05, 0x00, 0x00, 0x00, 0x04, 0x00, 0x00, 0x00, 0x00, 0x00, 0x0a, 0x00,
  0x10, 0x00, 0x0c, 0x00, 0x08, 0x00, 0x04, 0x00, 0x0a, 0x00, 0x00, 0x00,
  0x0c, 0x00, 0x00, 0x00, 0x10, 0x00, 0x00, 0x00, 0x03, 0x00, 0x00, 0x00,
  0x01, 0x00, 0x00, 0x00, 0x15, 0x00, 0x00, 0x00, 0x02, 0x00, 0x00, 0x00,
  0x14, 0x00, 0x00, 0x00, 0x01, 0x00, 0x00, 0x00, 0x5e, 0xfe, 0xff, 0xff,
  0x14, 0x00, 0x00, 0x00, 0x00, 0x00, 0x00, 0x05, 0x24, 0x00, 0x00, 0x00,
  0x28, 0x00, 0x00, 0x00, 0x02, 0x00, 0x00, 0x00, 0xae, 0xfe, 0xff, 0xff,
  0x02, 0x00, 0x00, 0x00, 0x02, 0x00, 0x00, 0x00, 0x02, 0x00, 0x00, 0x00,
  0x02, 0x00, 0x00, 0x00, 0x00, 0x00, 0x00, 0x01, 0x01, 0x00, 0x00, 0x00,
  0x14, 0x00, 0x00, 0x00, 0x01, 0x00, 0x00, 0x00, 0x13, 0x00, 0x00, 0x00,
  0x9e, 0xfe, 0xff, 0xff, 0x14, 0x00, 0x00, 0x00, 0x00, 0x00, 0x00, 0x4b,
  0x14, 0x00, 0x00, 0x00, 0x18, 0x00, 0x00, 0x00, 0x01, 0x00, 0x00, 0x00,
  0x8e, 0xfe, 0xff, 0xff, 0xcd, 0xcc, 0xcc, 0x3d, 0x01, 0x00, 0x00, 0x00,
  0x13, 0x00, 0x00, 0x00, 0x01, 0x00, 0x00, 0x00, 0x12, 0x00, 0x00, 0x00,
  0x86, 0xfe, 0xff, 0xff, 0x10, 0x00, 0x00, 0x00, 0x00, 0x00, 0x00, 0x01,
  0x14, 0x00, 0x00, 0x00, 0x18, 0x00, 0x00, 0x00, 0x76, 0xfe, 0xff, 0xff,
  0x01, 0x00, 0x00, 0x00, 0x01, 0x00, 0x00, 0x00, 0x01, 0x00, 0x00, 0x00,
  0x12, 0x00, 0x00, 0x00, 0x03, 0x00, 0x00, 0x00, 0x11, 0x00, 0x00, 0x00,
  0x07, 0x00, 0x00, 0x00, 0x06, 0x00, 0x00, 0x00, 0x06, 0xff, 0xff, 0xff,
  0x14, 0x00, 0x00, 0x00, 0x00, 0x00, 0x00, 0x05, 0x24, 0x00, 0x00, 0x00,
  0x28, 0x00, 0x00, 0x00, 0x02, 0x00, 0x00, 0x00, 0x56, 0xff, 0xff, 0xff,
  0x02, 0x00, 0x00, 0x00, 0x02, 0x00, 0x00, 0x00, 0x02, 0x00, 0x00, 0x00,
  0x02, 0x00, 0x00, 0x00, 0x00, 0x00, 0x00, 0x01, 0x01, 0x00, 0x00, 0x00,
  0x11, 0x00, 0x00, 0x00, 0x01, 0x00, 0x00, 0x00, 0x10, 0x00, 0x00, 0x00,
  0x46, 0xff, 0xff, 0xff, 0x14, 0x00, 0x00, 0x00, 0x00, 0x00, 0x00, 0x4b,
  0x14, 0x00, 0x00, 0x00, 0x18, 0x00, 0x00, 0x00, 0x01, 0x00, 0x00, 0x00,
  0x36, 0xff, 0xff, 0xff, 0xcd, 0xcc, 0xcc, 0x3d, 0x01, 0x00, 0x00, 0x00,
  0x10, 0x00, 0x00, 0x00, 0x01, 0x00, 0x00, 0x00, 0x0f, 0x00, 0x00, 0x00,
  0x2e, 0xff, 0xff, 0xff, 0x10, 0x00, 0x00, 0x00, 0x00, 0x00, 0x00, 0x01,
  0x14, 0x00, 0x00, 0x00, 0x18, 0x00, 0x00, 0x00, 0x1e, 0xff, 0xff, 0xff,
  0x01, 0x00, 0x00, 0x00, 0x01, 0x00, 0x00, 0x00, 0x01, 0x00, 0x00, 0x00,
  0x0f, 0x00, 0x00, 0x00, 0x03, 0x00, 0x00, 0x00, 0x0e, 0x00, 0x00, 0x00,
  0x09, 0x00, 0x00, 0x00, 0x08, 0x00, 0x00, 0x00, 0xae, 0xff, 0xff, 0xff,
  0x24, 0x00, 0x00, 0x00, 0x00, 0x00, 0x00, 0x05, 0x34, 0x00, 0x00, 0x00,
  0x38, 0x00, 0x00, 0x00, 0x02, 0x00, 0x00, 0x00, 0x00, 0x00, 0x0e, 0x00,
  0x18, 0x00, 0x17, 0x00, 0x10, 0x00, 0x0c, 0x00, 0x08, 0x00, 0x04, 0x00,
  0x0e, 0x00, 0x00, 0x00, 0x02, 0x00, 0x00, 0x00, 0x02, 0x00, 0x00, 0x00,
  0x02, 0x00, 0x00, 0x00, 0x02, 0x00, 0x00, 0x00, 0x00, 0x00, 0x00, 0x01,
  0x01, 0x00, 0x00, 0x00, 0x0e, 0x00, 0x00, 0x00, 0x01, 0x00, 0x00, 0x00,
  0x0d, 0x00, 0x00, 0x00, 0x00, 0x00, 0x0e, 0x00, 0x1a, 0x00, 0x14, 0x00,
  0x10, 0x00, 0x0c, 0x00, 0x0b, 0x00, 0x04, 0x00, 0x0e, 0x00, 0x00, 0x00,
  0x1c, 0x00, 0x00, 0x00, 0x00, 0x00, 0x00, 0x4b, 0x1c, 0x00, 0x00, 0x00,
  0x20, 0x00, 0x00, 0x00, 0x01, 0x00, 0x00, 0x00, 0x00, 0x00, 0x06, 0x00,
  0x08, 0x00, 0x04, 0x00, 0x06, 0x00, 0x00, 0x00, 0xcd, 0xcc, 0xcc, 0x3d,
  0x01, 0x00, 0x00, 0x00, 0x0d, 0x00, 0x00, 0x00, 0x01, 0x00, 0x00, 0x00,
  0x0c, 0x00, 0x00, 0x00, 0x00, 0x00, 0x0e, 0x00, 0x16, 0x00, 0x00, 0x00,
  0x10, 0x00, 0x0c, 0x00, 0x0b, 0x00, 0x04, 0x00, 0x0e, 0x00, 0x00, 0x00,
  0x1c, 0x00, 0x00, 0x00, 0x00, 0x00, 0x00, 0x01, 0x20, 0x00, 0x00, 0x00,
  0x24, 0x00, 0x00, 0x00, 0x00, 0x00, 0x0a, 0x00, 0x0c, 0x00, 0x00, 0x00,
  0x08, 0x00, 0x04, 0x00, 0x0a, 0x00, 0x00, 0x00, 0x01, 0x00, 0x00, 0x00,
  0x01, 0x00, 0x00, 0x00, 0x01, 0x00, 0x00, 0x00, 0x0c, 0x00, 0x00, 0x00,
  0x03, 0x00, 0x00, 0x00, 0x00, 0x00, 0x00, 0x00, 0x0b, 0x00, 0x00, 0x00,
  0x0a, 0x00, 0x00, 0x00, 0x01, 0x00, 0x00, 0x00, 0x19, 0x00, 0x00, 0x00,
  0x01, 0x00, 0x00, 0x00, 0x00, 0x00, 0x00, 0x00, 0x1a, 0x00, 0x00, 0x00,
  0x34, 0x13, 0x00, 0x00, 0xcc, 0x12, 0x00, 0x00, 0x38, 0x12, 0x00, 0x00,
  0xcc, 0x11, 0x00, 0x00, 0x50, 0x11, 0x00, 0x00, 0xe4, 0x10, 0x00, 0x00,
  0xf0, 0x0e, 0x00, 0x00, 0x04, 0x0d, 0x00, 0x00, 0xd0, 0x0b, 0x00, 0x00,
  0xa4, 0x0a, 0x00, 0x00, 0xd8, 0x09, 0x00, 0x00, 0x0c, 0x09, 0x00, 0x00,
  0x38, 0x08, 0x00, 0x00, 0x9c, 0x07, 0x00, 0x00, 0x08, 0x07, 0x00, 0x00,
  0x2c, 0x06, 0x00, 0x00, 0x88, 0x05, 0x00, 0x00, 0xec, 0x04, 0x00, 0x00,
  0x10, 0x04, 0x00, 0x00, 0x6c, 0x03, 0x00, 0x00, 0xd0, 0x02, 0x00, 0x00,
  0x4c, 0x02, 0x00, 0x00, 0xb0, 0x01, 0x00, 0x00, 0x1c, 0x01, 0x00, 0x00,
  0x80, 0x00, 0x00, 0x00, 0x04, 0x00, 0x00, 0x00, 0x4a, 0xed, 0xff, 0xff,
  0x00, 0x00, 0x00, 0x01, 0x18, 0x00, 0x00, 0x00, 0x20, 0x00, 0x00, 0x00,
  0x3c, 0x00, 0x00, 0x00, 0x1a, 0x00, 0x00, 0x00, 0x00, 0x00, 0x00, 0x09,
  0x50, 0x00, 0x00, 0x00, 0x02, 0x00, 0x00, 0x00, 0xff, 0xff, 0xff, 0xff,
  0x05, 0x00, 0x00, 0x00, 0x2c, 0xed, 0xff, 0xff, 0x08, 0x00, 0x00, 0x00,
  0x10, 0x00, 0x00, 0x00, 0x01, 0x00, 0x00, 0x00, 0x80, 0xff, 0xff, 0xff,
  0xff, 0xff, 0xff, 0xff, 0x01, 0x00, 0x00, 0x00, 0x00, 0x00, 0x80, 0x3b,
  0x19, 0x00, 0x00, 0x00, 0x53, 0x74, 0x61, 0x74, 0x65, 0x66, 0x75, 0x6c,
  0x50, 0x61, 0x72, 0x74, 0x69, 0x74, 0x69, 0x6f, 0x6e, 0x65, 0x64, 0x43,
  0x61, 0x6c, 0x6c, 0x3a, 0x30, 0x00, 0x00, 0x00, 0x02, 0x00, 0x00, 0x00,
  0x01, 0x00, 0x00, 0x00, 0x05, 0x00, 0x00, 0x00, 0xc2, 0xed, 0xff, 0xff,
  0x00, 0x00, 0x00, 0x01, 0x18, 0x00, 0x00, 0x00, 0x20, 0x00, 0x00, 0x00,
  0x3c, 0x00, 0x00, 0x00, 0x19, 0x00, 0x00, 0x00, 0x00, 0x00, 0x00, 0x09,
  0x70, 0x00, 0x00, 0x00, 0x02, 0x00, 0x00, 0x00, 0xff, 0xff, 0xff, 0xff,
  0x05, 0x00, 0x00, 0x00, 0xa4, 0xed, 0xff, 0xff, 0x08, 0x00, 0x00, 0x00,
  0x10, 0x00, 0x00, 0x00, 0x01, 0x00, 0x00, 0x00, 0x08, 0x00, 0x00, 0x00,
  0x00, 0x00, 0x00, 0x00, 0x01, 0x00, 0x00, 0x00, 0x59, 0x21, 0xc2, 0x3d,
  0x38, 0x00, 0x00, 0x00, 0x73, 0x65, 0x71, 0x75, 0x65, 0x6e, 0x74, 0x69,
  0x61, 0x6c, 0x5f, 0x31, 0x2f, 0x64, 0x65, 0x6e, 0x73, 0x65, 0x5f, 0x34,
  0x2f, 0x4d, 0x61, 0x74, 0x4d, 0x75, 0x6c, 0x3b, 0x73, 0x65, 0x71, 0x75,
  0x65, 0x6e, 0x74, 0x69, 0x61, 0x6c, 0x5f, 0x31, 0x2f, 0x64, 0x65, 0x6e,
  0x73, 0x65, 0x5f, 0x34, 0x2f, 0x42, 0x69, 0x61, 0x73, 0x41, 0x64, 0x64,
  0x00, 0x00, 0x00, 0x00, 0x02, 0x00, 0x00, 0x00, 0x01, 0x00, 0x00, 0x00,
  0x05, 0x00, 0x00, 0x00, 0x5a, 0xee, 0xff, 0xff, 0x00, 0x00, 0x00, 0x01,
  0x18, 0x00, 0x00, 0x00, 0x20, 0x00, 0x00, 0x00, 0x40, 0x00, 0x00, 0x00,
  0x18, 0x00, 0x00, 0x00, 0x00, 0x00, 0x00, 0x09, 0x68, 0x00, 0x00, 0x00,
  0x02, 0x00, 0x00, 0x00, 0xff, 0xff, 0xff, 0xff, 0x20, 0x00, 0x00, 0x00,
  0x3c, 0xee, 0xff, 0xff, 0x08, 0x00, 0x00, 0x00, 0x14, 0x00, 0x00, 0x00,
  0x01, 0x00, 0x00, 0x00, 0x8e, 0xff, 0xff, 0xff, 0xff, 0xff, 0xff, 0xff,
  0x00, 0x00, 0x00, 0x00, 0x01, 0x00, 0x00, 0x00, 0x68, 0x21, 0x30, 0x3d,
  0x2c, 0x00, 0x00, 0x00, 0x73, 0x65, 0x71, 0x75, 0x65, 0x6e, 0x74, 0x69,
  0x61, 0x6c, 0x5f, 0x31, 0x2f, 0x64, 0x65, 0x6e, 0x73, 0x65, 0x5f, 0x33,
  0x2f, 0x6c, 0x65, 0x61, 0x6b, 0x79, 0x5f, 0x72, 0x65, 0x5f, 0x6c, 0x75,
  0x5f, 0x31, 0x2f, 0x4c, 0x65, 0x61, 0x6b, 0x79, 0x52, 0x65, 0x6c, 0x75,
  0x00, 0x00, 0x00, 0x00, 0x02, 0x00, 0x00, 0x00, 0x01, 0x00, 0x00, 0x00,
  0x20, 0x00, 0x00, 0x00, 0xea, 0xee, 0xff, 0xff, 0x00, 0x00, 0x00, 0x01,
  0x18, 0x00, 0x00, 0x00, 0x20, 0x00, 0x00, 0x00, 0x3c, 0x00, 0x00, 0x00,
  0x17, 0x00, 0x00, 0x00, 0x00, 0x00, 0x00, 0x09, 0x70, 0x00, 0x00, 0x00,
  0x02, 0x00, 0x00, 0x00, 0xff, 0xff, 0xff, 0xff, 0x20, 0x00, 0x00, 0x00,
  0xcc, 0xee, 0xff, 0xff, 0x08, 0x00, 0x00, 0x00, 0x10, 0x00, 0x00, 0x00,
  0x01, 0x00, 0x00, 0x00, 0xdf, 0xff, 0xff, 0xff, 0xff, 0xff, 0xff, 0xff,
  0x01, 0x00, 0x00, 0x00, 0xe5, 0x4e, 0x84, 0x3d, 0x38, 0x00, 0x00, 0x00,
  0x73, 0x65, 0x71, 0x75, 0x65, 0x6e, 0x74, 0x69, 0x61, 0x6c, 0x5f, 0x31,
  0x2f, 0x64, 0x65, 0x6e, 0x73, 0x65, 0x5f, 0x33, 0x2f, 0x4d, 0x61, 0x74,
  0x4d, 0x75, 0x6c, 0x3b, 0x73, 0x65, 0x71, 0x75, 0x65, 0x6e, 0x74, 0x69,
  0x61, 0x6c, 0x5f, 0x31, 0x2f, 0x64, 0x65, 0x6e, 0x73, 0x65, 0x5f, 0x33,
  0x2f, 0x42, 0x69, 0x61, 0x73, 0x41, 0x64, 0x64, 0x00, 0x00, 0x00, 0x00,
  0x02, 0x00, 0x00, 0x00, 0x01, 0x00, 0x00, 0x00, 0x20, 0x00, 0x00, 0x00,
  0x82, 0xef, 0xff, 0xff, 0x00, 0x00, 0x00, 0x01, 0x18, 0x00, 0x00, 0x00,
  0x20, 0x00, 0x00, 0x00, 0x40, 0x00, 0x00, 0x00, 0x16, 0x00, 0x00, 0x00,
  0x00, 0x00, 0x00, 0x09, 0x58, 0x00, 0x00, 0x00, 0x02, 0x00, 0x00, 0x00,
  0xff, 0xff, 0xff, 0xff, 0x80, 0x00, 0x00, 0x00, 0x64, 0xef, 0xff, 0xff,
  0x08, 0x00, 0x00, 0x00, 0x14, 0x00, 0x00, 0x00, 0x01, 0x00, 0x00, 0x00,
  0x8c, 0xff, 0xff, 0xff, 0xff, 0xff, 0xff, 0xff, 0x00, 0x00, 0x00, 0x00,
  0x01, 0x00, 0x00, 0x00, 0x2b, 0xb3, 0x10, 0x3d, 0x1c, 0x00, 0x00, 0x00,
  0x73, 0x65, 0x71, 0x75, 0x65, 0x6e, 0x74, 0x69, 0x61, 0x6c, 0x5f, 0x31,
  0x2f, 0x66, 0x6c, 0x61, 0x74, 0x74, 0x65, 0x6e, 0x2f, 0x52, 0x65, 0x73,
  0x68, 0x61, 0x70, 0x65, 0x00, 0x00, 0x00, 0x00, 0x02, 0x00, 0x00, 0x00,
  0x01, 0x00, 0x00, 0x00, 0x80, 0x00, 0x00, 0x00, 0x02, 0xf0, 0xff, 0xff,
  0x00, 0x00, 0x00, 0x01, 0x18, 0x00, 0x00, 0x00, 0x28, 0x00, 0x00, 0x00,
  0x48, 0x00, 0x00, 0x00, 0x15, 0x00, 0x00, 0x00, 0x00, 0x00, 0x00, 0x09,
  0x68, 0x00, 0x00, 0x00, 0x04, 0x00, 0x00, 0x00, 0xff, 0xff, 0xff, 0xff,
  0x02, 0x00, 0x00, 0x00, 0x02, 0x00, 0x00, 0x00, 0x20, 0x00, 0x00, 0x00,
  0xec, 0xef, 0xff, 0xff, 0x08, 0x00, 0x00, 0x00, 0x14, 0x00, 0x00, 0x00,
  0x01, 0x00, 0x00, 0x00, 0x8c, 0xff, 0xff, 0xff, 0xff, 0xff, 0xff, 0xff,
  0x00, 0x00, 0x00, 0x00, 0x01, 0x00, 0x00, 0x00, 0x2b, 0xb3, 0x10, 0x3d,
  0x24, 0x00, 0x00, 0x00, 0x73, 0x65, 0x71, 0x75, 0x65, 0x6e, 0x74, 0x69,
  0x61, 0x6c, 0x5f, 0x31, 0x2f, 0x6d, 0x61, 0x78, 0x5f, 0x70, 0x6f, 0x6f,
  0x6c, 0x69, 0x6e, 0x67, 0x32, 0x64, 0x5f, 0x32, 0x2f, 0x4d, 0x61, 0x78,
  0x50, 0x6f, 0x6f, 0x6c, 0x00, 0x00, 0x00, 0x00, 0x04, 0x00, 0x00, 0x00,
  0x01, 0x00, 0x00, 0x00, 0x02, 0x00, 0x00, 0x00, 0x02, 0x00, 0x00, 0x00,
  0x20, 0x00, 0x00, 0x00, 0x9a, 0xf0, 0xff, 0xff, 0x00, 0x00, 0x00, 0x01,
  0x18, 0x00, 0x00, 0x00, 0x28, 0x00, 0x00, 0x00, 0x48, 0x00, 0x00, 0x00,
  0x14, 0x00, 0x00, 0x00, 0x00, 0x00, 0x00, 0x09, 0x70, 0x00, 0x00, 0x00,
  0x04, 0x00, 0x00, 0x00, 0xff, 0xff, 0xff, 0xff, 0x05, 0x00, 0x00, 0x00,
  0x05, 0x00, 0x00, 0x00, 0x20, 0x00, 0x00, 0x00, 0x84, 0xf0, 0xff, 0xff,
  0x08, 0x00, 0x00, 0x00, 0x14, 0x00, 0x00, 0x00, 0x01, 0x00, 0x00, 0x00,
  0x8c, 0xff, 0xff, 0xff, 0xff, 0xff, 0xff, 0xff, 0x00, 0x00, 0x00, 0x00,
  0x01, 0x00, 0x00, 0x00, 0x2b, 0xb3, 0x10, 0x3d, 0x2d, 0x00, 0x00, 0x00,
  0x73, 0x65, 0x71, 0x75, 0x65, 0x6e, 0x74, 0x69, 0x61, 0x6c, 0x5f, 0x31,
  0x2f, 0x63, 0x6f, 0x6e, 0x76, 0x32, 0x64, 0x5f, 0x32, 0x2f, 0x6c, 0x65,
  0x61, 0x6b, 0x79, 0x5f, 0x72, 0x65, 0x5f, 0x6c, 0x75, 0x5f, 0x31, 0x2f,
  0x4c, 0x65, 0x61, 0x6b, 0x79, 0x52, 0x65, 0x6c, 0x75, 0x00, 0x00, 0x00,
  0x04, 0x00, 0x00, 0x00, 0x01, 0x00, 0x00, 0x00, 0x05, 0x00, 0x00, 0x00,
  0x05, 0x00, 0x00, 0x00, 0x20, 0x00, 0x00, 0x00, 0x3a, 0xf1, 0xff, 0xff,
  0x00, 0x00, 0x00, 0x01, 0x18, 0x00, 0x00, 0x00, 0x28, 0x00, 0x00, 0x00,
  0x48, 0x00, 0x00, 0x00, 0x13, 0x00, 0x00, 0x00, 0x00, 0x00, 0x00, 0x09,
  0xa8, 0x00, 0x00, 0x00, 0x04, 0x00, 0x00, 0x00, 0xff, 0xff, 0xff, 0xff,
  0x05, 0x00, 0x00, 0x00, 0x05, 0x00, 0x00, 0x00, 0x20, 0x00, 0x00, 0x00,
  0x24, 0xf1, 0xff, 0xff, 0x08, 0x00, 0x00, 0x00, 0x14, 0x00, 0x00, 0x00,
  0x01, 0x00, 0x00, 0x00, 0xd6, 0xff, 0xff, 0xff, 0xff, 0xff, 0xff, 0xff,
  0x00, 0x00, 0x00, 0x00, 0x01, 0x00, 0x00, 0x00, 0xe6, 0xe2, 0x4f, 0x3d,
  0x67, 0x00, 0x00, 0x00, 0x73, 0x65, 0x71, 0x75, 0x65, 0x6e, 0x74, 0x69,
  0x61, 0x6c, 0x5f, 0x31, 0x2f, 0x63, 0x6f, 0x6e, 0x76, 0x32, 0x64, 0x5f,
  0x32, 0x2f, 0x42, 0x69, 0x61, 0x73, 0x41, 0x64, 0x64, 0x3b, 0x73, 0x65,
  0x71, 0x75, 0x65, 0x6e, 0x74, 0x69, 0x61, 0x6c, 0x5f, 0x31, 0x2f, 0x63,
  0x6f, 0x6e, 0x76, 0x32, 0x64, 0x5f, 0x32, 0x2f, 0x43, 0x6f, 0x6e, 0x76,
  0x32, 0x44, 0x3b, 0x73, 0x65, 0x71, 0x75, 0x65, 0x6e, 0x74, 0x69, 0x61,
  0x6c, 0x5f, 0x31, 0x2f, 0x63, 0x6f, 0x6e, 0x76, 0x32, 0x64, 0x5f, 0x32,
  0x2f, 0x42, 0x69, 0x61, 0x73, 0x41, 0x64, 0x64, 0x2f, 0x52, 0x65, 0x61,
  0x64, 0x56, 0x61, 0x72, 0x69, 0x61, 0x62, 0x6c, 0x65, 0x4f, 0x70, 0x00,
  0x04, 0x00, 0x00, 0x00, 0x01, 0x00, 0x00, 0x00, 0x05, 0x00, 0x00, 0x00,
  0x05, 0x00, 0x00, 0x00, 0x20, 0x00, 0x00, 0x00, 0x12, 0xf2, 0xff, 0xff,
  0x00, 0x00, 0x00, 0x01, 0x18, 0x00, 0x00, 0x00, 0x28, 0x00, 0x00, 0x00,
  0x48, 0x00, 0x00, 0x00, 0x12, 0x00, 0x00, 0x00, 0x00, 0x00, 0x00, 0x09,
  0x68, 0x00, 0x00, 0x00, 0x04, 0x00, 0x00, 0x00, 0xff, 0xff, 0xff, 0xff,
  0x05, 0x00, 0x00, 0x00, 0x05, 0x00, 0x00, 0x00, 0x10, 0x00, 0x00, 0x00,
  0xfc, 0xf1, 0xff, 0xff, 0x08, 0x00, 0x00, 0x00, 0x14, 0x00, 0x00, 0x00,
  0x01, 0x00, 0x00, 0x00, 0x8d, 0xff, 0xff, 0xff, 0xff, 0xff, 0xff, 0xff,
  0x00, 0x00, 0x00, 0x00, 0x01, 0x00, 0x00, 0x00, 0xc2, 0x54, 0x6a, 0x3c,
  0x24, 0x00, 0x00, 0x00, 0x73, 0x65, 0x71, 0x75, 0x65, 0x6e, 0x74, 0x69,
  0x61, 0x6c, 0x5f, 0x31, 0x2f, 0x6d, 0x61, 0x78, 0x5f, 0x70, 0x6f, 0x6f,
  0x6c, 0x69, 0x6e, 0x67, 0x32, 0x64, 0x5f, 0x31, 0x2f, 0x4d, 0x61, 0x78,
  0x50, 0x6f, 0x6f, 0x6c, 0x00, 0x00, 0x00, 0x00, 0x04, 0x00, 0x00, 0x00,
  0x01, 0x00, 0x00, 0x00, 0x05, 0x00, 0x00, 0x00, 0x05, 0x00, 0x00, 0x00,
  0x10, 0x00, 0x00, 0x00, 0xaa, 0xf2, 0xff, 0xff, 0x00, 0x00, 0x00, 0x01,
  0x18, 0x00, 0x00, 0x00, 0x28, 0x00, 0x00, 0x00, 0x48, 0x00, 0x00, 0x00,
  0x11, 0x00, 0x00, 0x00, 0x00, 0x00, 0x00, 0x09, 0x70, 0x00, 0x00, 0x00,
  0x04, 0x00, 0x00, 0x00, 0xff, 0xff, 0xff, 0xff, 0x0a, 0x00, 0x00, 0x00,
  0x0a, 0x00, 0x00, 0x00, 0x10, 0x00, 0x00, 0x00, 0x94, 0xf2, 0xff, 0xff,
  0x08, 0x00, 0x00, 0x00, 0x14, 0x00, 0x00, 0x00, 0x01, 0x00, 0x00, 0x00,
  0x8d, 0xff, 0xff, 0xff, 0xff, 0xff, 0xff, 0xff, 0x00, 0x00, 0x00, 0x00,
  0x01, 0x00, 0x00, 0x00, 0xc2, 0x54, 0x6a, 0x3c, 0x2d, 0x00, 0x00, 0x00,
  0x73, 0x65, 0x71, 0x75, 0x65, 0x6e, 0x74, 0x69, 0x61, 0x6c, 0x5f, 0x31,
  0x2f, 0x63, 0x6f, 0x6e, 0x76, 0x32, 0x64, 0x5f, 0x31, 0x2f, 0x6c, 0x65,
  0x61, 0x6b, 0x79, 0x5f, 0x72, 0x65, 0x5f, 0x6c, 0x75, 0x5f, 0x31, 0x2f,
  0x4c, 0x65, 0x61, 0x6b, 0x79, 0x52, 0x65, 0x6c, 0x75, 0x00, 0x00, 0x00,
  0x04, 0x00, 0x00, 0x00, 0x01, 0x00, 0x00, 0x00, 0x0a, 0x00, 0x00, 0x00,
  0x0a, 0x00, 0x00, 0x00, 0x10, 0x00, 0x00, 0x00, 0x4a, 0xf3, 0xff, 0xff,
  0x00, 0x00, 0x00, 0x01, 0x18, 0x00, 0x00, 0x00, 0x28, 0x00, 0x00, 0x00,
  0x48, 0x00, 0x00, 0x00, 0x10, 0x00, 0x00, 0x00, 0x00, 0x00, 0x00, 0x09,
  0xa8, 0x00, 0x00, 0x00, 0x04, 0x00, 0x00, 0x00, 0xff, 0xff, 0xff, 0xff,
  0x0a, 0x00, 0x00, 0x00, 0x0a, 0x00, 0x00, 0x00, 0x10, 0x00, 0x00, 0x00,
  0x34, 0xf3, 0xff, 0xff, 0x08, 0x00, 0x00, 0x00, 0x14, 0x00, 0x00, 0x00,
  0x01, 0x00, 0x00, 0x00, 0xda, 0xff, 0xff, 0xff, 0xff, 0xff, 0xff, 0xff,
  0x00, 0x00, 0x00, 0x00, 0x01, 0x00, 0x00, 0x00, 0x73, 0x01, 0xac, 0x3c,
  0x67, 0x00, 0x00, 0x00, 0x73, 0x65, 0x71, 0x75, 0x65, 0x6e, 0x74, 0x69,
  0x61, 0x6c, 0x5f, 0x31, 0x2f, 0x63, 0x6f, 0x6e, 0x76, 0x32, 0x64, 0x5f,
  0x31, 0x2f, 0x42, 0x69, 0x61, 0x73, 0x41, 0x64, 0x64, 0x3b, 0x73, 0x65,
  0x71, 0x75, 0x65, 0x6e, 0x74, 0x69, 0x61, 0x6c, 0x5f, 0x31, 0x2f, 0x63,
  0x6f, 0x6e, 0x76, 0x32, 0x64, 0x5f, 0x31, 0x2f, 0x43, 0x6f, 0x6e, 0x76,
  0x32, 0x44, 0x3b, 0x73, 0x65, 0x71, 0x75, 0x65, 0x6e, 0x74, 0x69, 0x61,
  0x6c, 0x5f, 0x31, 0x2f, 0x63, 0x6f, 0x6e, 0x76, 0x32, 0x64, 0x5f, 0x31,
  0x2f, 0x42, 0x69, 0x61, 0x73, 0x41, 0x64, 0x64, 0x2f, 0x52, 0x65, 0x61,
  0x64, 0x56, 0x61, 0x72, 0x69, 0x61, 0x62, 0x6c, 0x65, 0x4f, 0x70, 0x00,
  0x04, 0x00, 0x00, 0x00, 0x01, 0x00, 0x00, 0x00, 0x0a, 0x00, 0x00, 0x00,
  0x0a, 0x00, 0x00, 0x00, 0x10, 0x00, 0x00, 0x00, 0x22, 0xf4, 0xff, 0xff,
  0x00, 0x00, 0x00, 0x01, 0x18, 0x00, 0x00, 0x00, 0x28, 0x00, 0x00, 0x00,
  0x44, 0x00, 0x00, 0x00, 0x0f, 0x00, 0x00, 0x00, 0x00, 0x00, 0x00, 0x09,
  0x60, 0x00, 0x00, 0x00, 0x04, 0x00, 0x00, 0x00, 0xff, 0xff, 0xff, 0xff,
  0x0a, 0x00, 0x00, 0x00, 0x0a, 0x00, 0x00, 0x00, 0x08, 0x00, 0x00, 0x00,
  0x0c, 0xf4, 0xff, 0xff, 0x08, 0x00, 0x00, 0x00, 0x10, 0x00, 0x00, 0x00,
  0x01, 0x00, 0x00, 0x00, 0x90, 0xff, 0xff, 0xff, 0xff, 0xff, 0xff, 0xff,
  0x01, 0x00, 0x00, 0x00, 0x1d, 0xba, 0xcd, 0x3b, 0x22, 0x00, 0x00, 0x00,
  0x73, 0x65, 0x71, 0x75, 0x65, 0x6e, 0x74, 0x69, 0x61, 0x6c, 0x5f, 0x31,
  0x2f, 0x6d, 0x61, 0x78, 0x5f, 0x70, 0x6f, 0x6f, 0x6c, 0x69, 0x6e, 0x67,
  0x32, 0x64, 0x2f, 0x4d, 0x61, 0x78, 0x50, 0x6f, 0x6f, 0x6c, 0x00, 0x00,
  0x04, 0x00, 0x00, 0x00, 0x01, 0x00, 0x00, 0x00, 0x0a, 0x00, 0x00, 0x00,
  0x0a, 0x00, 0x00, 0x00, 0x08, 0x00, 0x00, 0x00, 0xb2, 0xf4, 0xff, 0xff,
  0x00, 0x00, 0x00, 0x01, 0x18, 0x00, 0x00, 0x00, 0x28, 0x00, 0x00, 0x00,
  0x44, 0x00, 0x00, 0x00, 0x0e, 0x00, 0x00, 0x00, 0x00, 0x00, 0x00, 0x09,
  0x68, 0x00, 0x00, 0x00, 0x04, 0x00, 0x00, 0x00, 0xff, 0xff, 0xff, 0xff,
  0x14, 0x00, 0x00, 0x00, 0x14, 0x00, 0x00, 0x00, 0x08, 0x00, 0x00, 0x00,
  0x9c, 0xf4, 0xff, 0xff, 0x08, 0x00, 0x00, 0x00, 0x10, 0x00, 0x00, 0x00,
  0x01, 0x00, 0x00, 0x00, 0x90, 0xff, 0xff, 0xff, 0xff, 0xff, 0xff, 0xff,
  0x01, 0x00, 0x00, 0x00, 0x1d, 0xba, 0xcd, 0x3b, 0x2b, 0x00, 0x00, 0x00,
  0x73, 0x65, 0x71, 0x75, 0x65, 0x6e, 0x74, 0x69, 0x61, 0x6c, 0x5f, 0x31,
  0x2f, 0x63, 0x6f, 0x6e, 0x76, 0x32, 0x64, 0x2f, 0x6c, 0x65, 0x61, 0x6b,
  0x79, 0x5f, 0x72, 0x65, 0x5f, 0x6c, 0x75, 0x5f, 0x31, 0x2f, 0x4c, 0x65,
  0x61, 0x6b, 0x79, 0x52, 0x65, 0x6c, 0x75, 0x00, 0x04, 0x00, 0x00, 0x00,
  0x01, 0x00, 0x00, 0x00, 0x14, 0x00, 0x00, 0x00, 0x14, 0x00, 0x00, 0x00,
  0x08, 0x00, 0x00, 0x00, 0x4a, 0xf5, 0xff, 0xff, 0x00, 0x00, 0x00, 0x01,
  0x18, 0x00, 0x00, 0x00, 0x28, 0x00, 0x00, 0x00, 0x44, 0x00, 0x00, 0x00,
  0x0d, 0x00, 0x00, 0x00, 0x00, 0x00, 0x00, 0x09, 0xa0, 0x00, 0x00, 0x00,
  0x04, 0x00, 0x00, 0x00, 0xff, 0xff, 0xff, 0xff, 0x14, 0x00, 0x00, 0x00,
  0x14, 0x00, 0x00, 0x00, 0x08, 0x00, 0x00, 0x00, 0x34, 0xf5, 0xff, 0xff,
  0x08, 0x00, 0x00, 0x00, 0x10, 0x00, 0x00, 0x00, 0x01, 0x00, 0x00, 0x00,
  0xe8, 0xff, 0xff, 0xff, 0xff, 0xff, 0xff, 0xff, 0x01, 0x00, 0x00, 0x00,
  0xf6, 0x7b, 0x22, 0x3c, 0x61, 0x00, 0x00, 0x00, 0x73, 0x65, 0x71, 0x75,
  0x65, 0x6e, 0x74, 0x69, 0x61, 0x6c, 0x5f, 0x31, 0x2f, 0x63, 0x6f, 0x6e,
  0x76, 0x32, 0x64, 0x2f, 0x42, 0x69, 0x61, 0x73, 0x41, 0x64, 0x64, 0x3b,
  0x73, 0x65, 0x71, 0x75, 0x65, 0x6e, 0x74, 0x69, 0x61, 0x6c, 0x5f, 0x31,
  0x2f, 0x63, 0x6f, 0x6e, 0x76, 0x32, 0x64, 0x2f, 0x43, 0x6f, 0x6e, 0x76,
  0x32, 0x44, 0x3b, 0x73, 0x65, 0x71, 0x75, 0x65, 0x6e, 0x74, 0x69, 0x61,
  0x6c, 0x5f, 0x31, 0x2f, 0x63, 0x6f, 0x6e, 0x76, 0x32, 0x64, 0x2f, 0x42,
  0x69, 0x61, 0x73, 0x41, 0x64, 0x64, 0x2f, 0x52, 0x65, 0x61, 0x64, 0x56,
  0x61, 0x72, 0x69, 0x61, 0x62, 0x6c, 0x65, 0x4f, 0x70, 0x00, 0x00, 0x00,
  0x04, 0x00, 0x00, 0x00, 0x01, 0x00, 0x00, 0x00, 0x14, 0x00, 0x00, 0x00,
  0x14, 0x00, 0x00, 0x00, 0x08, 0x00, 0x00, 0x00, 0x7e, 0xf6, 0xff, 0xff,
  0x00, 0x00, 0x00, 0x01, 0x14, 0x00, 0x00, 0x00, 0x88, 0x00, 0x00, 0x00,
  0x0c, 0x00, 0x00, 0x00, 0x00, 0x00, 0x00, 0x09, 0x9c, 0x00, 0x00, 0x00,
  0xec, 0xf5, 0xff, 0xff, 0x08, 0x00, 0x00, 0x00, 0x4c, 0x00, 0x00, 0x00,
  0x08, 0x00, 0x00, 0x00, 0x00, 0x00, 0x00, 0x00, 0x00, 0x00, 0x00, 0x00,
  0x00, 0x00, 0x00, 0x00, 0x00, 0x00, 0x00, 0x00, 0x00, 0x00, 0x00, 0x00,
  0x00, 0x00, 0x00, 0x00, 0x00, 0x00, 0x00, 0x00, 0x00, 0x00, 0x00, 0x00,
  0x00, 0x00, 0x00, 0x00, 0x00, 0x00, 0x00, 0x00, 0x00, 0x00, 0x00, 0x00,
  0x00, 0x00, 0x00, 0x00, 0x00, 0x00, 0x00, 0x00, 0x00, 0x00, 0x00, 0x00,
  0x00, 0x00, 0x00, 0x00, 0x00, 0x00, 0x00, 0x00, 0x00, 0x00, 0x00, 0x00,
  0x08, 0x00, 0x00, 0x00, 0xb5, 0x94, 0x3e, 0x3b, 0x1f, 0x50, 0xfd, 0x3a,
  0xf3, 0x06, 0x2d, 0x3b, 0xa3, 0x80, 0x2a, 0x3b, 0x12, 0x3a, 0x36, 0x3b,
  0x9b, 0x5d, 0x1c, 0x3b, 0x17, 0xa7, 0x3e, 0x3b, 0xda, 0x9a, 0x49, 0x3b,
  0x1a, 0x00, 0x00, 0x00, 0x73, 0x65, 0x71, 0x75, 0x65, 0x6e, 0x74, 0x69,
  0x61, 0x6c, 0x5f, 0x31, 0x2f, 0x63, 0x6f, 0x6e, 0x76, 0x32, 0x64, 0x2f,
  0x43, 0x6f, 0x6e, 0x76, 0x32, 0x44, 0x00, 0x00, 0x04, 0x00, 0x00, 0x00,
  0x08, 0x00, 0x00, 0x00, 0x03, 0x00, 0x00, 0x00, 0x03, 0x00, 0x00, 0x00,
  0x01, 0x00, 0x00, 0x00, 0x46, 0xf7, 0xff, 0xff, 0x00, 0x00, 0x00, 0x01,
  0x14, 0x00, 0x00, 0x00, 0x84, 0x00, 0x00, 0x00, 0x0b, 0x00, 0x00, 0x00,
  0x00, 0x00, 0x00, 0x02, 0xa8, 0x00, 0x00, 0x00, 0xb4, 0xf6, 0xff, 0xff,
  0x08, 0x00, 0x00, 0x00, 0x48, 0x00, 0x00, 0x00, 0x08, 0x00, 0x00, 0x00,
  0x00, 0x00, 0x00, 0x00, 0x00, 0x00, 0x00, 0x00, 0x00, 0x00, 0x00, 0x00,
  0x00, 0x00, 0x00, 0x00, 0x00, 0x00, 0x00, 0x00, 0x00, 0x00, 0x00, 0x00,
  0x00, 0x00, 0x00, 0x00, 0x00, 0x00, 0x00, 0x00, 0x00, 0x00, 0x00, 0x00,
  0x00, 0x00, 0x00, 0x00, 0x00, 0x00, 0x00, 0x00, 0x00, 0x00, 0x00, 0x00,
  0x00, 0x00, 0x00, 0x00, 0x00, 0x00, 0x00, 0x00, 0x00, 0x00, 0x00, 0x00,
  0x00, 0x00, 0x00, 0x00, 0x08, 0x00, 0x00, 0x00, 0x0a, 0x54, 0x3f, 0x37,
  0x6e, 0x4e, 0xfe, 0x36, 0xa8, 0xb4, 0x2d, 0x37, 0xcf, 0x2b, 0x2b, 0x37,
  0x04, 0xf1, 0x36, 0x37, 0x96, 0xfa, 0x1c, 0x37, 0x7e, 0x66, 0x3f, 0x37,
  0x40, 0x65, 0x4a, 0x37, 0x2a, 0x00, 0x00, 0x00, 0x73, 0x65, 0x71, 0x75,
  0x65, 0x6e, 0x74, 0x69, 0x61, 0x6c, 0x5f, 0x31, 0x2f, 0x63, 0x6f, 0x6e,
  0x76, 0x32, 0x64, 0x2f, 0x42, 0x69, 0x61, 0x73, 0x41, 0x64, 0x64, 0x2f,
  0x52, 0x65, 0x61, 0x64, 0x56, 0x61, 0x72, 0x69, 0x61, 0x62, 0x6c, 0x65,
  0x4f, 0x70, 0x00, 0x00, 0x01, 0x00, 0x00, 0x00, 0x08, 0x00, 0x00, 0x00,
  0x0e, 0xf8, 0xff, 0xff, 0x00, 0x00, 0x00, 0x01, 0x14, 0x00, 0x00, 0x00,
  0xe4, 0x00, 0x00, 0x00, 0x0a, 0x00, 0x00, 0x00, 0x00, 0x00, 0x00, 0x09,
  0xfc, 0x00, 0x00, 0x00, 0x7c, 0xf7, 0xff, 0xff, 0x08, 0x00, 0x00, 0x00,
  0x88, 0x00, 0x00, 0x00, 0x10, 0x00, 0x00, 0x00, 0x00, 0x00, 0x00, 0x00,
  0x00, 0x00, 0x00, 0x00, 0x00, 0x00, 0x00, 0x00, 0x00, 0x00, 0x00, 0x00,
  0x00, 0x00, 0x00, 0x00, 0x00, 0x00, 0x00, 0x00, 0x00, 0x00, 0x00, 0x00,
  0x00, 0x00, 0x00, 0x00, 0x00, 0x00, 0x00, 0x00, 0x00, 0x00, 0x00, 0x00,
  0x00, 0x00, 0x00, 0x00, 0x00, 0x00, 0x00, 0x00, 0x00, 0x00, 0x00, 0x00,
  0x00, 0x00, 0x00, 0x00, 0x00, 0x00, 0x00, 0x00, 0x00, 0x00, 0x00, 0x00,
  0x00, 0x00, 0x00, 0x00, 0x00, 0x00, 0x00, 0x00, 0x00, 0x00, 0x00, 0x00,
  0x00, 0x00, 0x00, 0x00, 0x00, 0x00, 0x00, 0x00, 0x00, 0x00, 0x00, 0x00,
  0x00, 0x00, 0x00, 0x00, 0x00, 0x00, 0x00, 0x00, 0x00, 0x00, 0x00, 0x00,
  0x00, 0x00, 0x00, 0x00, 0x00, 0x00, 0x00, 0x00, 0x00, 0x00, 0x00, 0x00,
  0x00, 0x00, 0x00, 0x00, 0x00, 0x00, 0x00, 0x00, 0x00, 0x00, 0x00, 0x00,
  0x00, 0x00, 0x00, 0x00, 0x10, 0x00, 0x00, 0x00, 0x35, 0x52, 0xfd, 0x3a,
  0xea, 0xbd, 0x13, 0x3b, 0xc2, 0x5d, 0x16, 0x3b, 0x73, 0x11, 0xf3, 0x3a,
  0x45, 0xc5, 0x07, 0x3b, 0xd4, 0xba, 0xe8, 0x3a, 0xe6, 0x85, 0x07, 0x3b,
  0xac, 0xe3, 0xf8, 0x3a, 0xa0, 0x45, 0x01, 0x3b, 0xc6, 0xfc, 0x02, 0x3b,
  0xed, 0x30, 0x02, 0x3b, 0xa6, 0x5c, 0x0b, 0x3b, 0x99, 0x33, 0x01, 0x3b,
  0xe1, 0x7d, 0x07, 0x3b, 0xd7, 0x85, 0xf9, 0x3a, 0xbe, 0x15, 0x00, 0x3b,
  0x1c, 0x00, 0x00, 0x00, 0x73, 0x65, 0x71, 0x75, 0x65, 0x6e, 0x74, 0x69,
  0x61, 0x6c, 0x5f, 0x31, 0x2f, 0x63, 0x6f, 0x6e, 0x76, 0x32, 0x64, 0x5f,
  0x31, 0x2f, 0x43, 0x6f, 0x6e, 0x76, 0x32, 0x44, 0x00, 0x00, 0x00, 0x00,
  0x04, 0x00, 0x00, 0x00, 0x10, 0x00, 0x00, 0x00, 0x03, 0x00, 0x00, 0x00,
  0x03, 0x00, 0x00, 0x00, 0x08, 0x00, 0x00, 0x00, 0x36, 0xf9, 0xff, 0xff,
  0x00, 0x00, 0x00, 0x01, 0x14, 0x00, 0x00, 0x00, 0xe8, 0x00, 0x00, 0x00,
  0x09, 0x00, 0x00, 0x00, 0x00, 0x00, 0x00, 0x02, 0x10, 0x01, 0x00, 0x00,
  0xa4, 0xf8, 0xff, 0xff, 0x08, 0x00, 0x00, 0x00, 0x8c, 0x00, 0x00, 0x00,
  0x10, 0x00, 0x00, 0x00, 0x00, 0x00, 0x00, 0x00, 0x00, 0x00, 0x00, 0x00,
  0x00, 0x00, 0x00, 0x00, 0x00, 0x00, 0x00, 0x00, 0x00, 0x00, 0x00, 0x00,
  0x00, 0x00, 0x00, 0x00, 0x00, 0x00, 0x00, 0x00, 0x00, 0x00, 0x00, 0x00,
  0x00, 0x00, 0x00, 0x00, 0x00, 0x00, 0x00, 0x00, 0x00, 0x00, 0x00, 0x00,
  0x00, 0x00, 0x00, 0x00, 0x00, 0x00, 0x00, 0x00, 0x00, 0x00, 0x00, 0x00,
  0x00, 0x00, 0x00, 0x00, 0x00, 0x00, 0x00, 0x00, 0x00, 0x00, 0x00, 0x00,
  0x00, 0x00, 0x00, 0x00, 0x00, 0x00, 0x00, 0x00, 0x00, 0x00, 0x00, 0x00,
  0x00, 0x00, 0x00, 0x00, 0x00, 0x00, 0x00, 0x00, 0x00, 0x00, 0x00, 0x00,
  0x00, 0x00, 0x00, 0x00, 0x00, 0x00, 0x00, 0x00, 0x00, 0x00, 0x00, 0x00,
  0x00, 0x00, 0x00, 0x00, 0x00, 0x00, 0x00, 0x00, 0x00, 0x00, 0x00, 0x00,
  0x00, 0x00, 0x00, 0x00, 0x00, 0x00, 0x00, 0x00, 0x00, 0x00, 0x00, 0x00,
  0x00, 0x00, 0x00, 0x00, 0x10, 0x00, 0x00, 0x00, 0xff, 0x92, 0x4b, 0x37,
  0xfa, 0x74, 0x6d, 0x37, 0xcb, 0xac, 0x71, 0x37, 0xaf, 0x55, 0x43, 0x37,
  0x5a, 0x37, 0x5a, 0x37, 0xce, 0x06, 0x3b, 0x37, 0x80, 0xd1, 0x59, 0x37,
  0x42, 0x03, 0x48, 0x37, 0x79, 0xc5, 0x4f, 0x37, 0x4a, 0x87, 0x52, 0x37,
  0xa8, 0x3f, 0x51, 0x37, 0x04, 0xfd, 0x5f, 0x37, 0x7f, 0xa8, 0x4f, 0x37,
  0x9c, 0xc4, 0x59, 0x37, 0x95, 0x85, 0x48, 0x37, 0x0f, 0xdd, 0x4d, 0x37,
  0x2c, 0x00, 0x00, 0x00, 0x73, 0x65, 0x71, 0x75, 0x65, 0x6e, 0x74, 0x69,
  0x61, 0x6c, 0x5f, 0x31, 0x2f, 0x63, 0x6f, 0x6e, 0x76, 0x32, 0x64, 0x5f,
  0x31, 0x2f, 0x42, 0x69, 0x61, 0x73, 0x41, 0x64, 0x64, 0x2f, 0x52, 0x65,
  0x61, 0x64, 0x56, 0x61, 0x72, 0x69, 0x61, 0x62, 0x6c, 0x65, 0x4f, 0x70,
  0x00, 0x00, 0x00, 0x00, 0x01, 0x00, 0x00, 0x00, 0x10, 0x00, 0x00, 0x00,
  0x66, 0xfa, 0xff, 0xff, 0x00, 0x00, 0x00, 0x01, 0x14, 0x00, 0x00, 0x00,
  0xa4, 0x01, 0x00, 0x00, 0x08, 0x00, 0x00, 0x00, 0x00, 0x00, 0x00, 0x09,
  0xbc, 0x01, 0x00, 0x00, 0xd4, 0xf9, 0xff, 0xff, 0x08, 0x00, 0x00, 0x00,
  0x08, 0x01, 0x00, 0x00, 0x20, 0x00, 0x00, 0x00, 0x00, 0x00, 0x00, 0x00,
  0x00, 0x00, 0x00, 0x00, 0x00, 0x00, 0x00, 0x00, 0x00, 0x00, 0x00, 0x00,
  0x00, 0x00, 0x00, 0x00, 0x00, 0x00, 0x00, 0x00, 0x00, 0x00, 0x00, 0x00,
  0x00, 0x00, 0x00, 0x00, 0x00, 0x00, 0x00, 0x00, 0x00, 0x00, 0x00, 0x00,
  0x00, 0x00, 0x00, 0x00, 0x00, 0x00, 0x00, 0x00, 0x00, 0x00, 0x00, 0x00,
  0x00, 0x00, 0x00, 0x00, 0x00, 0x00, 0x00, 0x00, 0x00, 0x00, 0x00, 0x00,
  0x00, 0x00, 0x00, 0x00, 0x00, 0x00, 0x00, 0x00, 0x00, 0x00, 0x00, 0x00,
  0x00, 0x00, 0x00, 0x00, 0x00, 0x00, 0x00, 0x00, 0x00, 0x00, 0x00, 0x00,
  0x00, 0x00, 0x00, 0x00, 0x00, 0x00, 0x00, 0x00, 0x00, 0x00, 0x00, 0x00,
  0x00, 0x00, 0x00, 0x00, 0x00, 0x00, 0x00, 0x00, 0x00, 0x00, 0x00, 0x00,
  0x00, 0x00, 0x00, 0x00, 0x00, 0x00, 0x00, 0x00, 0x00, 0x00, 0x00, 0x00,
  0x00, 0x00, 0x00, 0x00, 0x00, 0x00, 0x00, 0x00, 0x00, 0x00, 0x00, 0x00,
  0x00, 0x00, 0x00, 0x00, 0x00, 0x00, 0x00, 0x00, 0x00, 0x00, 0x00, 0x00,
  0x00, 0x00, 0x00, 0x00, 0x00, 0x00, 0x00, 0x00, 0x00, 0x00, 0x00, 0x00,
  0x00, 0x00, 0x00, 0x00, 0x00, 0x00, 0x00, 0x00, 0x00, 0x00, 0x00, 0x00,
  0x00, 0x00, 0x00, 0x00, 0x00, 0x00, 0x00, 0x00, 0x00, 0x00, 0x00, 0x00,
  0x00, 0x00, 0x00, 0x00, 0x00, 0x00, 0x00, 0x00, 0x00, 0x00, 0x00, 0x00,
  0x00, 0x00, 0x00, 0x00, 0x00, 0x00, 0x00, 0x00, 0x00, 0x00, 0x00, 0x00,
  0x00, 0x00, 0x00, 0x00, 0x00, 0x00, 0x00, 0x00, 0x00, 0x00, 0x00, 0x00,
  0x00, 0x00, 0x00, 0x00, 0x00, 0x00, 0x00, 0x00, 0x00, 0x00, 0x00, 0x00,
  0x00, 0x00, 0x00, 0x00, 0x00, 0x00, 0x00, 0x00, 0x00, 0x00, 0x00, 0x00,
  0x00, 0x00, 0x00, 0x00, 0x00, 0x00, 0x00, 0x00, 0x00, 0x00, 0x00, 0x00,
  0x20, 0x00, 0x00, 0x00, 0xa5, 0x39, 0xef, 0x3a, 0x57, 0xdb, 0xd1, 0x3a,
  0x63, 0x6a, 0xda, 0x3a, 0x1c, 0x49, 0xbc, 0x3a, 0x2d, 0xa7, 0xbb, 0x3a,
  0xdc, 0x2a, 0xe6, 0x3a, 0x93, 0xd0, 0xd4, 0x3a, 0x29, 0x05, 0xe7, 0x3a,
  0xde, 0x84, 0xdc, 0x3a, 0x43, 0xd3, 0xdf, 0x3a, 0x02, 0x5e, 0xc5, 0x3a,
  0x33, 0xcd, 0xda, 0x3a, 0x11, 0xca, 0xdd, 0x3a, 0x50, 0x7e, 0xc7, 0x3a,
  0x85, 0x7a, 0xc9, 0x3a, 0xd8, 0xe9, 0xc1, 0x3a, 0x08, 0x1b, 0xe8, 0x3a,
  0xcb, 0xa6, 0xd1, 0x3a, 0x80, 0xa3, 0xc9, 0x3a, 0x03, 0x04, 0xd4, 0x3a,
  0x1b, 0xeb, 0xc2, 0x3a, 0x83, 0xf2, 0xe6, 0x3a, 0x46, 0x48, 0xca, 0x3a,
  0xaf, 0x8f, 0xce, 0x3a, 0xf9, 0x8d, 0xc7, 0x3a, 0x9d, 0x58, 0xf2, 0x3a,
  0xa9, 0x45, 0xd8, 0x3a, 0x99, 0x92, 0xb2, 0x3a, 0xdc, 0x5b, 0xc9, 0x3a,
  0xeb, 0xf1, 0xb8, 0x3a, 0x8d, 0xff, 0xc4, 0x3a, 0x2c, 0x20, 0xd3, 0x3a,
  0x1c, 0x00, 0x00, 0x00, 0x73, 0x65, 0x71, 0x75, 0x65, 0x6e, 0x74, 0x69,
  0x61, 0x6c, 0x5f, 0x31, 0x2f, 0x63, 0x6f, 0x6e, 0x76, 0x32, 0x64, 0x5f,
  0x32, 0x2f, 0x43, 0x6f, 0x6e, 0x76, 0x32, 0x44, 0x00, 0x00, 0x00, 0x00,
  0x04, 0x00, 0x00, 0x00, 0x20, 0x00, 0x00, 0x00, 0x03, 0x00, 0x00, 0x00,
  0x03, 0x00, 0x00, 0x00, 0x10, 0x00, 0x00, 0x00, 0x4e, 0xfc, 0xff, 0xff,
  0x00, 0x00, 0x00, 0x01, 0x14, 0x00, 0x00, 0x00, 0xa8, 0x01, 0x00, 0x00,
  0x07, 0x00, 0x00, 0x00, 0x00, 0x00, 0x00, 0x02, 0xd0, 0x01, 0x00, 0x00,
  0xbc, 0xfb, 0xff, 0xff, 0x08, 0x00, 0x00, 0x00, 0x0c, 0x01, 0x00, 0x00,
  0x20, 0x00, 0x00, 0x00, 0x00, 0x00, 0x00, 0x00, 0x00, 0x00, 0x00, 0x00,
  0x00, 0x00, 0x00, 0x00, 0x00, 0x00, 0x00, 0x00, 0x00, 0x00, 0x00, 0x00,
  0x00, 0x00, 0x00, 0x00, 0x00, 0x00, 0x00, 0x00, 0x00, 0x00, 0x00, 0x00,
  0x00, 0x00, 0x00, 0x00, 0x00, 0x00, 0x00, 0x00, 0x00, 0x00, 0x00, 0x00,
  0x00, 0x00, 0x00, 0x00, 0x00, 0x00, 0x00, 0x00, 0x00, 0x00, 0x00, 0x00,
  0x00, 0x00, 0x00, 0x00, 0x00, 0x00, 0x00, 0x00, 0x00, 0x00, 0x00, 0x00,
  0x00, 0x00, 0x00, 0x00, 0x00, 0x00, 0x00, 0x00, 0x00, 0x00, 0x00, 0x00,
  0x00, 0x00, 0x00, 0x00, 0x00, 0x00, 0x00, 0x00, 0x00, 0x00, 0x00, 0x00,
  0x00, 0x00, 0x00, 0x00, 0x00, 0x00, 0x00, 0x00, 0x00, 0x00, 0x00, 0x00,
  0x00, 0x00, 0x00, 0x00, 0x00, 0x00, 0x00, 0x00, 0x00, 0x00, 0x00, 0x00,
  0x00, 0x00, 0x00, 0x00, 0x00, 0x00, 0x00, 0x00, 0x00, 0x00, 0x00, 0x00,
  0x00, 0x00, 0x00, 0x00, 0x00, 0x00, 0x00, 0x00, 0x00, 0x00, 0x00, 0x00,
  0x00, 0x00, 0x00, 0x00, 0x00, 0x00, 0x00, 0x00, 0x00, 0x00, 0x00, 0x00,
